/**
  ******************************************************************************
  * @file    network_data_params.c
  * @author  AST Embedded Analytics Research Platform
  * @date    Mon Jun 10 14:47:03 2024
  * @brief   AI Tool Automatic Code Generator for Embedded NN computing
  ******************************************************************************
  * Copyright (c) 2024 STMicroelectronics.
  * All rights reserved.
  *
  * This software is licensed under terms that can be found in the LICENSE file
  * in the root directory of this software component.
  * If no LICENSE file comes with this software, it is provided AS-IS.
  ******************************************************************************
  */

#include "network_data_params.h"


/**  Activations Section  ****************************************************/
ai_handle g_network_activations_table[1 + 2] = {
  AI_HANDLE_PTR(AI_MAGIC_MARKER),
  AI_HANDLE_PTR(NULL),
  AI_HANDLE_PTR(AI_MAGIC_MARKER),
};




/**  Weights Section  ********************************************************/
AI_ALIGNED(32)
const ai_u64 s_network_weights_array_u64[33860] = {
  0x203f9fa0414f803U, 0x30105fa03010804U, 0xfafa0ffaf5fe0700U, 0xfefffdfe0205f6fcU,
  0x8fa0407fa0206f9U, 0xfdfe08fe03f70bfdU, 0x102fff904fdf205U, 0x20200fbf40101f9U,
  0xfc02fbfb03ff05f5U, 0xfafefd02030cf708U, 0x50eff03fefcfc00U, 0xfb0b0201f9fe02feU,
  0xf80611000308ff03U, 0xfdfffb000309f6fcU, 0x40b02040003f408U, 0xfc001107060208f8U,
  0xff01fdfcec0f0104U, 0x503ef0405fff2eaU, 0xfc03ecf905f7f700U, 0x8050904fe00fb01U,
  0xfa0805f9eff801f9U, 0xffc0405fef70400U, 0x506020609ffU, 0xf902ff01fc02ff00U,
  0x404fcf7fbfc04feU, 0x10501fe01fa12f3U, 0x305fcfa0101fb00U, 0xc0fff0501fd0402U,
  0x80afb00fefafeddU, 0xfdf106fcf9fafbf4U, 0x2edfdfa06050804U, 0xfd09010606fe02fdU,
  0xfb0403fe05fff405U, 0x60102f80afe0405U, 0x9fbffff00fb010bU, 0x409fef609fe0a06U,
  0xfbff06f8060003fdU, 0x301f904fb09f803U, 0xf600fd020504faf1U, 0xfefe06fefefafa02U,
  0xfc00000500fef8ffU, 0xf705fc00f3fe00U, 0xe030208fbf5fc05U, 0xf6fe00fdf408f7feU,
  0xff02fc0601040aU, 0xf6feff01fa010507U, 0x4ec00fd030705fbU, 0xf7f5eafafc04f903U,
  0xf7f4fa03f5fbfa02U, 0xf5ff0101fd0402ffU, 0x300060afafc000fU, 0x100fcf90301050aU,
  0x1fafd01fcfffd07U, 0x17060004f50000fdU, 0xf9fd04fc01fa00f8U, 0xfc0208020c030100U,
  0xff02fd07fef60001U, 0xfa0501010d02090fU, 0x6030104030008fcU, 0x20002030705f406U,
  0xfdfeee03fe09fff8U, 0x1fe061000030501U, 0x5fc030302f80b05U, 0xf801f4060700fa05U,
  0xfb03071001090505U, 0x605f70303fa06feU, 0xfa00f506fff8fffeU, 0x2fd06fafcfff604U,
  0xfbfd0702fc1017f4U, 0xfbf7fcff00f404U, 0x301fff8fb01fa05U, 0x200040cfaf50103U,
  0x703fdfafaf90bffU, 0x1107fa05f80001U, 0x302fafafa08fa05U, 0x7fbfafd0002fef7U,
  0x602fefff6000b0eU, 0x501f7effcfbf8U, 0xfbfe08010b0600fbU, 0xf4f8000e00ff00ffU,
  0x410fb0506e600feU, 0xa03f8f90cf306fcU, 0xd000a06fcf3f7ffU, 0x10206fc05fefffcU,
  0xeef6fb0c05f7f7fcU, 0xfcfef7fa04fc02fdU, 0xdf9ff00faff06feU, 0xaf704fefefe02f5U,
  0x104fc0202fa0604U, 0xafffa01f807fe09U, 0xcf5030105f70901U, 0x4f600f6ff0a09faU,
  0xf6fcf90306fdf6U, 0xaf7020306fc0204U, 0x1f805fc0101fcU, 0x615030105f807feU,
  0xfbf60a0605f4f70eU, 0x6f60700030dfafdU, 0x204f5fa11f000fcU, 0x2fefcf101fd0701U,
  0xfd00f1f9080405fbU, 0x8fee711ff09ec03U, 0x403000dfe090300U, 0xf6f8ef01fd0101fdU,
  0xf506fb02fbf5fbffU, 0x4fb02fdf8f8fbfaU, 0xecf50002fcfdfd00U, 0xf80dfefb0dff0509U,
  0xfd0502010afafb05U, 0x505fffcfcf80efeU, 0xc0911fd0802fa0aU, 0xf9fe0bfc03fcf8ffU,
  0xa0202f501cf060eU, 0x309fb0400ff080bU, 0xd010ffcfe08f100U, 0xfe07fd0706fff5fdU,
  0xed03f9f504f4f7ffU, 0x2fcf6f70300fbfeU, 0x1f0fd07faff0401U, 0x13f6f904080303feU,
  0x500fdfe07fb0102U, 0x50500fbf00f0600U, 0x6f7f700ff040303U, 0x3fafef101fc03f4U,
  0xf805020001f90cU, 0x10eb01080503f104U, 0x40af90304080401U, 0xfd1004f5f80004fcU,
  0xf0606fe06ee0618U, 0x70b060001fc01e3U, 0xb03f308f80403edU, 0xfef5fb0ced00fdffU,
  0x200f010041615ffU, 0xf302e5fb04fcfafbU, 0xb06f0f9f1fdfefcU, 0x12ff0a0dea02fdf8U,
  0x50e01f3eff10600U, 0x2ed0aed050dff14U, 0xfd01faf8f71afd04U, 0x3f400f00109ff00U,
  0x1fc06fcff0506faU, 0x250601fc0efff700U, 0xf90fff121712d307U, 0xf03e8fef601fb11U,
  0xf903ff07ff05fd05U, 0x603fc0004ff04faU, 0x97fe090602fff102U, 0xf7fa050b01fcfcfeU,
  0xef05fbf6fbf9f8f8U, 0xbfef9fe030607fcU, 0xfeef05fc00fd0300U, 0xfffc09fafcfd06ffU,
  0x406fd02fa0723U, 0xfffcfd0401fe0105U, 0xf3fc01fdfdf9ff03U, 0xf8f901fbfafcfffaU,
  0xf7f906c80af9f303U, 0xfef41201fe06ff07U, 0xff00fb0008050500U, 0xfb02fffffc04f5U,
  0x8fd00fb05faf800U, 0x4fa00fb03fefdU, 0x1803030001fcf605U, 0xfffffcfffdfc0000U,
  0xfa01030303f8f3fdU, 0x905fefc0202feffU, 0x2faff070112fdfeU, 0xfbff030202fd01ffU,
  0xff01f6fe00f401c2U, 0xfe03020808feff01U, 0xfefefe0005fb02ffU, 0xfc0304fe00fd01U,
  0x3ff0501fe00f3faU, 0x1f80a00fefffe06U, 0x3f505fe01fd04fbU, 0x104010dfe0509fdU,
  0x707020dfc0204fdU, 0xfb020103fcfd0503U, 0xff0301fb01fe0508U, 0x4f909fbfff80b02U,
  0x209030401f8fe07U, 0xf6fcfc030b01ff04U, 0xfc00fffef9fb01fdU, 0xf50105f8fe060200U,
  0xe01f8ff0004fd00U, 0x2ff04090000feffU, 0x4ff00f8fe0006ffU, 0x14ff0cfdfdf9ff03U,
  0x400ff04ff06fbfeU, 0xfc0105000003f6fdU, 0x8fd00020300fbU, 0x104fe08fe0d0205U,
  0xf70809fdfe04fcf8U, 0x9f70efe09f71216U, 0xfdf8fa050afff202U, 0xfaf50304fb010504U,
  0x3030307fe030403U, 0xf6fa020bf605ff08U, 0xe0dfb0505f2fafaU, 0xf4fa0cf7ff09f5f1U,
  0xfcfcfe0e0bf600fcU, 0x2fb01110bf9e8edU, 0x3fc050405100906U, 0xfc110102f3fbffffU,
  0x2fdfdfcfe0b1004U, 0xfffef8f5fe02f500U, 0xf3120afdfbf9fd04U, 0xeedfb0d07050609U,
  0xfbf405f80509faf8U, 0xfe04fdfdfd0704fbU, 0x40ffffc0602feU, 0x10308060004U,
  0xfcfcfffdfafef303U, 0xfefdfd010100fdfcU, 0xfd03fefffaff0b00U, 0x8f7fbf803fbf701U,
  0xfbfc0403ff0203U, 0x7fcfcf3fcff0b07U, 0x8fcfff8fdf3fafbU, 0x5fdfaf004fe00f7U,
  0x400ff060200fcfeU, 0x300030102f5fd02U, 0x4050e0b0a0105U, 0xf3fcf3fdfbf900fcU,
  0xfefefd05fe03U, 0x4fffffeff00050dU, 0x10103fb06ff0404U, 0x8fffff0204010502U,
  0x203f303f8010419U, 0xfff9f9fff7f8fe04U, 0x107fdfff90000U, 0xfafd0d05fefffdffU,
  0xfdfa0202fafefcfcU, 0x1fcf5fc0cfe0207U, 0x108ff0302030101U, 0x1f8feff0201fcfeU,
  0xfb02fc07040bff05U, 0x60109ff0100fcf9U, 0xf900fffb010800fdU, 0x4fc020804fc0103U,
  0x201000ffcfc0000U, 0xfb00ff02f90101U, 0xfa01fb01fffcfc00U, 0x1fe00fe030cfeffU,
  0x1000405ff00fe00U, 0x1f4fe0000fd0107U, 0xfffc02020103ff03U, 0xfffe020002fc07feU,
  0xfe02fd0000fe04fbU, 0xfbfb0205fe01ff00U, 0xfffbf804f50206feU, 0x3fff1ff03fe0301U,
  0x2fd0206fffcfffeU, 0x10003fe0006fdfdU, 0xfd03fd03f4000205U, 0xff010101ff0802faU,
  0xc0501fdfffefc02U, 0x10bfc0308ef02f7U, 0xfcfafaeafe010605U, 0xafc01050103fdf9U,
  0x7fb0c03fc0bf6fcU, 0xee0600f9f20af404U, 0x908faf5020105U, 0x205f4050b0600fdU,
  0xf8020703ff0002fbU, 0xfffe04f5090305feU, 0xf80401f506080005U, 0x90603f0fef70100U,
  0xfefeebfb030809U, 0xf607fbfe05f9f809U, 0x2f7f20000fb08f4U, 0xf7feea05fefe10U,
  0xf7fe08f808fbfe08U, 0xfb0005ff07fcf906U, 0xfbff02f5f9fe06ffU, 0x20501fa00010403U,
  0x30206f8fd03fd03U, 0x10b05fbfefcfe0aU, 0xfe03000601030405U, 0xc05fefffd0504U,
  0xafdf8ed02090002U, 0xfe0ffe01ff0104feU, 0xf7fd00fd0bfd0605U, 0xfc040afcf908f901U,
  0xff07fbfe06f907f7U, 0x2fffa06f501fdffU, 0x1402ff04080709U, 0xf8fb04fdfbfefc05U,
  0x803fdf6fd0213fcU, 0x812fffa00f4fef7U, 0x9f9ff080a00fa04U, 0xfe0600060700010bU,
  0xff0f00fe0303f401U, 0xf4ff03fb0403f5ffU, 0x1f80afcf202f902U, 0xd03fd0807fdfd02U,
  0x102ffff020600f8U, 0x50003f5fcfe0101U, 0x2fa0100fc020406U, 0xf5f8020706050c08U,
  0xc0503fb0c040402U, 0xfc050bfafbff04f8U, 0xfef9f8fffbfefc00U, 0x105030604fa00fcU,
  0xf4020102fb05fafeU, 0xfa1001fe0000fb02U, 0x100eb0a00fd0307U, 0x7020503060103faU,
  0xfb0301f1dd06fd03U, 0x8ff07fef91d0003U, 0xff0704fd05070101U, 0xf7f6ec0206f4ff01U,
  0xe6f000f9e4f9fc02U, 0xfbfdee06f81d05fdU, 0xfc00ff02fb03f904U, 0xfdf7ff01fcff02ebU,
  0x90803ff060900feU, 0x18fdfefcf4020500U, 0xf80afefeff0207f5U, 0x3ff0101fa04fcf6U,
  0xfd040501ffff01fcU, 0xcfdf0fffe010703U, 0x6fe0105010c00feU, 0xfcfa0303fa0501fdU,
  0xf9fefdf8ed06fe07U, 0xfbfe02060404f2f6U, 0xcfd01fb060c0008U, 0x205fffd0602fcf5U,
  0x801040209050cfeU, 0xfaf5000103fa0806U, 0xcf60804fdfbfff9U, 0x200fa0001fafbfeU,
  0x3fc05010c0bfefbU, 0x6f8ff01f3e6f501U, 0xfe00fcfaffed0709U, 0xf704fc0100fbfefcU,
  0x2fefd0407fffe05U, 0x6ff080505000104U, 0x10fcfcf3ffdefaU, 0x50601f50102fafeU,
  0x9fffe04fe0401f9U, 0x1ff05f40bfcfdfdU, 0xfee201fefb090609U, 0xa02fff8ff00f704U,
  0xfffffbec01fe03f7U, 0xfcfdfff5fcfd03fbU, 0x108fdfbfd050508U, 0x7f7fffbfa030105U,
  0xfbeced0505fc06fdU, 0xfc010c02fffd09f9U, 0xf300fc02fdfdfd00U, 0xf7100501fafd03ffU,
  0xfc0011fe030200fdU, 0xfcfeff020000fd01U, 0x1ff020600010202U, 0xff0101fc000400fdU,
  0xfe0000fd03U, 0xfaffff0002fefffcU, 0x10501fefefafa09U, 0xfffb04fc010001feU,
  0x1ff0700f9030200U, 0xfe1b01fb05fc0104U, 0xffffff01faf80001U, 0xfc0102fd00ffU,
  0x10303fe050301U, 0xff02fe01fcfefcfeU, 0x6fd02000a0200U, 0x5f703fe00fd0100U,
  0xf70203fcf80603faU, 0xb0006f1fdf9ecfdU, 0xf908f3060d0004feU, 0x8fbf918f801f3ffU,
  0xff9f704000b12fcU, 0xf507f90706000d09U, 0xf2ff00f60507f800U, 0xf8e412fe02050409U,
  0xf10504f8fd03080dU, 0xeffd0ad2fef00203U, 0x80103fae814e9fdU, 0xb03fbc20eeafffeU,
  0xf9020deb000f02ebU, 0x10303f4fef9fd00U, 0xffea03f3fa10ffecU, 0xf10ff9fe0303f4faU,
  0xfbff0604fa0afcf6U, 0xff01050702fd0701U, 0x1000501f604f901U, 0xfd04fb0705fcfe07U,
  0xfbf9fdf8eefa0201U, 0xfc00f7fb020306f6U, 0xf8fdfc02f8f30dfaU, 0x30608f9fdfd0d05U,
  0x408fc0109fc0d00U, 0xf9fafefc01050909U, 0xf6fe0600fd0d0403U, 0xfbfe0305fe0302fbU,
  0xf3fa060301000501U, 0x4fe05020011fbf3U, 0xfc0503f9fef9fd05U, 0xf80506fcfbf9f3fbU,
  0xfaf9010003f920U, 0xdf6f6fef80408f2U, 0x12070dfc0efdf111U, 0xffff6f9dbfc0f07U,
  0x409fefcff0e22f7U, 0x200fe01feefeafaU, 0xf4f901f502050404U, 0xdfc03fcdd0c0109U,
  0xf802ebf713f500f0U, 0xfd0c03fbfd030b04U, 0xf90af500f9f1fbf1U, 0x4e8ffd5f5f2f508U,
  0xfdf30502fcfb0bffU, 0x3050f0115fefcfdU, 0xd10f911f801e309U, 0xfb0a0708ffedf901U,
  0x7f2000004f7f7fdU, 0x5fe0bfeff07fe05U, 0xfcfcfe03000501f9U, 0x30e01fe00010506U,
  0x3fd05fbfef604f7U, 0x701fffe03fdfc01U, 0xfbfafd0cf904fffbU, 0x30302fe1304fb06U,
  0x60500f501fefc08U, 0x1f608fd020401f7U, 0xf901030404fcf6f4U, 0xff00ff000201fe01U,
  0x20004f80305fcfdU, 0x6ff05fe0503fcfdU, 0x3020f0800fb0d00U, 0x4fdfafdfffff904U,
  0xea070003f901ffebU, 0xf1f5fefafeff03ffU, 0x4ff040218f903f9U, 0x7030e0012fd0cfbU,
  0xfa04fefe01f505f3U, 0xf4080305fe0d0505U, 0x4fefd14ebfbf5f8U, 0x6fcfdff01f9f9fcU,
  0xff04fe07ff0cf4faU, 0xfbfe03ff1408fefbU, 0x9f90f050700fd06U, 0xfe0603060b050905U,
  0x2fd02ffe80803f6U, 0x5f602f0fafc0c18U, 0xfb0504f1fefcf6f1U, 0x9f7fed2fbf7fc08U,
  0xf92601020504ff03U, 0x70808fb2bf1fa04U, 0x739fcfb06fa0002U, 0xfc04fe04ff04dbU,
  0xf2f7fefefefefcfdU, 0xf801faeefc0703feU, 0xff03fd091aff02ffU, 0x4ff020300fdf503U,
  0x2fd06031bfffe03U, 0xfefd09fef807fffaU, 0x14fc04fdfe03fdf3U, 0xfcf902fdfdf708feU,
  0x307fefcf10403fdU, 0xfcfb00ff01fa02feU, 0xd601e50103fdfe00U, 0x103fb020cfb0ffbU,
  0xa02fef705fffcf9U, 0xff0001fdfa02f506U, 0x7fa000000fdf8U, 0xa06040bfd04f100U,
  0xfefffeeafd00ff09U, 0x8090800fbf607fbU, 0x3fd04ff0201fb00U, 0x8fefc020d040701U,
  0x1009fc03fa0c0c02U, 0xf906f9ff04010aefU, 0x10408f1fe05f3f1U, 0xeffe01f714faf4f9U,
  0xfcf3fffffd03fffcU, 0xfcf81df603e90600U, 0x1f9fbf3030b0d00U, 0xf00bf603fa06fcf6U,
  0x20101020201feU, 0xfe00041dfd01feffU, 0x40204ff0002fe00U, 0xff00ff0301280201U,
  0x2fe040004000300U, 0x2f604ffff0200fdU, 0xfe0002ff00fffcffU, 0x1fc0500000100U,
  0xff00fe01000301feU, 0x3fe00ffff0201ffU, 0xff010400f9000402U, 0x201ef0203000502U,
  0x403ff0000fdfdffU, 0xfc00030003030200U, 0x502fdfefcfc02U, 0xfe0303010300ffffU,
  0xfbf907fa060af8f9U, 0x3fc0405000402fcU, 0xfb0a09fa0807f900U, 0xfd0005f907fe0000U,
  0xf4f4fb0005fbfff9U, 0xfdf9fd010500f408U, 0xfb02f8020bf9f203U, 0xe5fdfeeb05f005U,
  0x902fc08fbfb0500U, 0x5f8f405fc09fafeU, 0x11f9ff0202f61102U, 0xfb0f020406fa0cfeU,
  0x30506fdfc01fb09U, 0x1f8fbfe08f3f409U, 0x804fefbfbf8f4fdU, 0xef80201fe150100U,
  0xf409f904fb03fdeeU, 0x3fd0111f7faf703U, 0xfa10f408f4f80b08U, 0xf8f700faf90801U,
  0x503f60105040a0aU, 0x105fefeff0a0301U, 0x101f8070403fdffU, 0xf8e80d02fbfcfbf5U,
  0xf1f108fa010efe05U, 0xd07fafdfe0aU, 0xf405fc0efd0ffe15U, 0x2fc080402fbf70bU,
  0x40bfe010000fefaU, 0x403fa06041005faU, 0xfc0f05fa010f0105U, 0xdfb0b09f4f80107U,
  0xe9fbf60dfffefaf4U, 0x2f5fbfcf305070cU, 0xc303e704fdec0500U, 0xa0801e1eb000002U,
  0x7030717f1262109U, 0xfbfc070e100609f1U, 0x3f8f9f9fe00f102U, 0x13e4f10a06f50b02U,
  0x71e09fbf10d0ee2U, 0xfffd1300fbfd0a0fU, 0x70aebefff10f5U, 0xef702f90ae4f7ffU,
  0x6f90727110a1a06U, 0xe80309fdf50213f4U, 0xfdebfcfa0dffef0cU, 0xfbf002081a0d08e9U,
  0x11fbf800fe0217f5U, 0x10bfc00fcff07faU, 0xfe0301fbf1f0f902U, 0x4fbf8f7f00002f7U,
  0xfefcfefe06fa0b00U, 0xefff01f804030400U, 0x1f9ff0901fdfdfeU, 0xf900fa0bff0afb00U,
  0x20c000103f9fcU, 0xfdfef9f8faf90605U, 0xfb0201fcfbfefcU, 0xa06fb0714fe1902U,
  0x130601030302f9fdU, 0xfb0003000700f80dU, 0x60304fc01f9fe06U, 0x602fdf4fffd0200U,
  0xf5f90309fe0104ffU, 0x6f10409000201feU, 0xfbfefd0604fffefbU, 0x2fcfdfff2fafbfeU,
  0x601fefdfd070900U, 0xfd0cf9020101fbfeU, 0xfffb010004020404U, 0x604050b0501ff01U,
  0xfafc0404ff00ffffU, 0x200fd03fcff01U, 0x200000201fefd00U, 0xfbfa190402f304f8U,
  0xfbfe0a010aff0706U, 0x50705f8fafd06ffU, 0x804060afbff06fcU, 0x5fafff5fafafcf8U,
  0xa03fffcfd090202U, 0xff1200010ff30604U, 0x1030706fe0efdf9U, 0xfffa0d0afbfbf8fdU,
  0x2fd03f9fafc02feU, 0xf0fa05010804f9fdU, 0xfd02f900ea0401feU, 0x301f9fdecf60a00U,
  0xfffcfe070b0600fcU, 0xfff9fffcfcfbfcfdU, 0xfd00f3fcfffd0206U, 0x50c0002ff0b07f2U,
  0xff03fa04f3f8f7fcU, 0xf8f3f8fe06fcf3fdU, 0xfd0f00f300fdecfeU, 0xf50902fdf8040106U,
  0xfe0200f6ff02fcf8U, 0xff0104fb04fcf4ffU, 0xf9f80004fcfa0004U, 0x3f5fef900010501U,
  0xf7020700fff9f405U, 0xf8fafef8060002U, 0x3fc00030200fa03U, 0xfa0005060702fcffU,
  0x2f9fd0202040109U, 0xfe0205f80205050cU, 0xf001fdfdf90500ffU, 0xf6f4ffff0202fa02U,
  0x4fffeedfb04f705U, 0x8fd0bfafc00fff8U, 0xfe050002fdfe0403U, 0x5fffc06fbf1fdfdU,
  0xfbf20105ffedfe01U, 0xff00f7fa0005fefaU, 0xfafc05030404ff08U, 0xff00fbfafc060201U,
  0xecfe0101fafffeffU, 0xfff9ff010800fbfcU, 0x6ff01050102f600U, 0x4fa02fe02f9fefaU,
  0xfafe0302020003U, 0x301f7ff00fe00ffU, 0xf6f9090103fdff00U, 0xfefff906fd00fdfdU,
  0xf6fbfe060104fffcU, 0x4fc07f7fffdfe04U, 0x407fffcfbf804f7U, 0xf90afcfe01fdff03U,
  0x405f8fddc0c0cfbU, 0xd0907070afa0bf6U, 0x504f9f505f90efbU, 0x7fb0c00fb01f304U,
  0xdfbfd09fd0d09efU, 0xf807f6fc03fa0b0eU, 0xef1eb04f214feU, 0xfdfc04fcfc0cff06U,
  0x2d7f509f3feU, 0xf90cf9030a0404f1U, 0x130a04f6f40af2f8U, 0x3fafefcfcfc00faU,
  0xfb030cf6f50604fbU, 0x10c0f030efffdfdU, 0x1e10204070804ffU, 0x403fdfce811f2ffU,
  0xfefe0605f6060104U, 0xfefc09fe01fc02f6U, 0x206fdfd09010702U, 0xf9fbfdfbfb030103U,
  0x800f403070905ffU, 0x2fdff0b06040bfeU, 0xc020301070205f9U, 0x702fb0304f2fefcU,
  0xfdfefbea0601f5feU, 0xf409fff9fdf8f5f7U, 0x3f4fe08030002fdU, 0x1fefd0002030307U,
  0x405fffb07fd0006U, 0xfb06fef8fefd0501U, 0xfbfffe0506ff06U, 0xfe07fd05fe0906ffU,
  0x2ff00fcfbf704feU, 0xffa05f700020500U, 0xfff9f707fef702f9U, 0x40501f803f5fefcU,
  0xfe010afcfa0701f9U, 0xfdfbf6fd0301f8f6U, 0x3030706fd04fd04U, 0x2fb050307f9fcffU,
  0xf1f5fd0401020305U, 0xfc0001fa00fdfd02U, 0x4fffbfc0afaf6f5U, 0xf6fe01f9f5f306f7U,
  0x308f7080a07f8U, 0xa08fbf702f40208U, 0x102fc08fd0207fdU, 0xf504f5f301fd00f7U,
  0xfc02fcef12070cU, 0xd05e9feff03fdf9U, 0xfafa14fdf816f404U, 0x9ff05050d010300U,
  0xd01f815d607fc01U, 0x7fd0902fff8fffeU, 0xd5f7ec0406060d04U, 0xf8fb010601f3fc1cU,
  0xfd03fb01fa020200U, 0xf3eff3f803f303f9U, 0x302f4f90bfb07f6U, 0xeb01fe0aea08f006U,
  0xfbff04000304f6ffU, 0xf9f7eefe04fc0101U, 0xf7f804fefd030600U, 0xef6050c040bf0fdU,
  0xff02f6fdfa0df9U, 0xd0106f6ff0104ffU, 0x1f8faf8fd09fc00U, 0x2fc01f9020403ffU,
  0x30afff9fd0b0207U, 0x100fbff00060004U, 0xfbf404fa090400f2U, 0xfe0300090a05f1f9U,
  0xf5e20a09f80202fdU, 0xf70af5010af804U, 0x809f500f7f9fd0fU, 0x4fafcf7fdff05f8U,
  0x30206fffb050304U, 0xe010300fef60f06U, 0xfefdfd000301000bU, 0xfc04ef020106fff7U,
  0xeb06f900ed0cf502U, 0x20101fbfbfdff08U, 0xfbfaf8210004fe03U, 0xf1ef060d040e0613U,
  0xf7faeefe0df50602U, 0xb600b1e200faf401U, 0xfdfc04f804fcfe08U, 0xffeff20c08fa01fdU,
  0x190d3408fb01ff0dU, 0xfb02ff020701fcfbU, 0x2140a29fdf31001U, 0xebf80bf7f203feU,
  0x5f7f904f84ff9feU, 0x806fc030b0714eeU, 0x408ffff00f6fa0aU, 0x10101da05fbfdf9U,
  0x60d0202fafefb02U, 0x1fafffd0501fcfbU, 0xf804ff06f405f401U, 0xfc04050001fd0401U,
  0x4fd000503f702f5U, 0xfcff00fef7030005U, 0x4f90002fefefbfdU, 0x305fbfc03ff00U,
  0x60701ff04fa02fcU, 0x30801f904080700U, 0xfe0104fc00ff0404U, 0xd010301fe0104U,
  0xfefb0405fe0a0104U, 0x1fdf8040401ff07U, 0x1fffb0800ff0004U, 0x2ff01fc06010401U,
  0x101fa06f70a0e01U, 0xfefd0e00f806ff0fU, 0xfb00e90209eff10aU, 0xff0cfb01e40df4fbU,
  0xfe0910f7fcfb04fdU, 0xfb17f7fbff06fe08U, 0x40502f0f5faf903U, 0x80c0a0c0909f5fbU,
  0xf503fc0713f8e100U, 0xf8fef60d0004edffU, 0xfaee07fffc0808fdU, 0xf6f2f1f707000e0bU,
  0xfef2fd080705f902U, 0xfb01ffe808fff602U, 0xd020cf7f503f4U, 0xf2fb02fe16fbf20bU,
  0xfeeefbf401ff0502U, 0xf90600faf71902f7U, 0x20802070504fe05U, 0x1030a00fc02f90dU,
  0x50504fbfe01020cU, 0x30602fb08030203U, 0xfbfffe0a0b03f401U, 0x1fdf80dfdfff5ffU,
  0x102f109f5050301U, 0xfe0509f7060002fbU, 0xeb07170707000c09U, 0xf0fc0204f9020301U,
  0xc000100fff7fcfeU, 0xfffe000f0402f404U, 0xfe0af604f5fa04U, 0xe06f7060af6feffU,
  0xff02fb000ef7ee0bU, 0xfdf40509fef80302U, 0x108080cfa10f9U, 0xfaf0f00406fcf002U,
  0xf8eeed070af80209U, 0xa091405080718faU, 0x2fef120f1fe10U, 0xf2ff18fcee070505U,
  0x70605f2060cf502U, 0xfdfe06ecfc0a1312U, 0xfb0aeffffe08f904U, 0x8f2fcf3f90df2f6U,
  0x15fb01fdf4f9f701U, 0xe90407f3fb01fa01U, 0xc28050bf90900edU, 0x10decf20df90400U,
  0x5fbfeff01f600ffU, 0xff09fe0303fa0100U, 0x2fffbee0afc0300U, 0x7ff00fbf907fe03U,
  0x2060b000107fc05U, 0xfe01e004010cfc02U, 0xfffa08fc0b000102U, 0xf9fd08f806fff9feU,
  0xf7f3ee03fc00fb00U, 0x903fcf9fff8f9feU, 0x7fa02f602ff0200U, 0x1f6f309fefffc00U,
  0x4ff0503040c00faU, 0xc0200fcfcf803fdU, 0xfd0404fef4f800f2U, 0xbfef0ff00fdff08U,
  0xfff70000f7f801U, 0x60305fc0003f801U, 0xfefe01f603fe05fdU, 0xfff8f40304fb0104U,
  0xfbf903fd05010300U, 0x301030502fffe02U, 0xfd04fc03030302f3U, 0xfef7fc05fa04f6fdU,
  0xf603f9f809010202U, 0xfdf705fef80802fdU, 0xf4fc1405ff1902ffU, 0xff0207fe0305fd07U,
  0xff09ff0204f3fdffU, 0x4010202fe030104U, 0x1fb02fffbfff601U, 0xf900fb090103f9fcU,
  0xf304fffafe09f814U, 0xf8ff06fffc0000eaU, 0xa03fcfe01fd04ecU, 0xfef4fafd0202f9fcU,
  0xf0fe04e803040a04U, 0xcfcf30006f6f8faU, 0x403fdf500fb0201U, 0xfef10e0af2fb0600U,
  0x719f1f8fff90709U, 0x20115ff11010a0dU, 0x801ed0403050204U, 0xeffcfbfdfb07faf7U,
  0xf5f905f7f80108f5U, 0xf7feeef0e8ff0301U, 0x4fafe0604070103U, 0x1ffee0cf8f7dff8U,
  0xfe070013fffa0509U, 0x7ff020cfdf7f8f2U, 0xfef301f40516eeecU, 0x2ecec01fb0201f8U,
  0xd15ef020009fefaU, 0xfbf30b01fdebfbf1U, 0xfd100603fa040aU, 0xf80400f81aff0602U,
  0x2030b0805f1ec03U, 0x104fdfdfffefff5U, 0xe7f7f304f713f9f8U, 0xff05000afdf8f8f5U,
  0xfbf80806fc01f500U, 0xeefeff0ef804eaf9U, 0xf606ff05080106f9U, 0xc000ffe06fa06f2U,
  0xf30af20316080dfcU, 0x9e9fefd00f20b01U, 0xf9ff060509ff09fbU, 0xfd0bf916fb0606f3U,
  0xfd08ef020503f104U, 0x20a09ef02f309feU, 0xff0d05050302fefcU, 0xfaf6ee0a0404fe04U,
  0xe010a0af703f805U, 0xfbfc00fe0efa04faU, 0xf5fffb0c06fefc00U, 0x1fdfef907f109f7U,
  0x9060404080d01f7U, 0xf404fe0204fcfe0cU, 0xf10906fd08f50cf3U, 0xfaf3ee0603fd0503U,
  0xfd000d09eb0afee8U, 0xf7f81afefc0600fdU, 0x4f8020a070701f9U, 0x6e6f8ff08fc02faU,
  0xf5040902ff1009f0U, 0xf6fdfe010200e519U, 0x3000905f80007fbU, 0xfa03fc0dfb0108faU,
  0xf302f409000710feU, 0xcf5110304fef8faU, 0xff0cda090ef30dfbU, 0xf80101fef0fdff06U,
  0x1030105fa080006U, 0x80604fdfb0b0909U, 0x50b00e812070407U, 0x6ef0c0707000cfcU,
  0xfc09f403fa03fb0bU, 0x3f4fe00fc0008feU, 0xf7fa0008ff020201U, 0x2f8fafd02020701U,
  0xff04010003070603U, 0xfe03fdf508060b05U, 0xfc0322021204f601U, 0x3fffe020013fb02U,
  0xd03e9fa04fafc04U, 0x10500faf8fdfff3U, 0x4fc04f2fa03fd10U, 0x403000000fc0c04U,
  0xafc030afdfcfb04U, 0x613010006fdfd03U, 0xfc08f8ff05fcfe04U, 0x9ffff0405fc02ffU,
  0xf5f7fdfd07fffefcU, 0xf90cfefdfc000001U, 0xb02f4000204ffU, 0xfcfdfa0403fefb09U,
  0x6f80404fcfd0d07U, 0xf5fffff10701fbfdU, 0xfdfd11ee05ff02fbU, 0xf90105fe0bff0efeU,
  0x3010efe090afe03U, 0x6020205fffe030aU, 0x80101f60efa0104U, 0xfef7f90409fa0800U,
  0xf400fd000ffaf8feU, 0xfb1006fff7fefff2U, 0x8f8fdfdfdfff5fcU, 0xf603ff06ed08fcf9U,
  0x4fafe0d03fef6f5U, 0xfdfa02fff50c09f8U, 0xfdf600edf2000304U, 0x1f6f504fcfe150aU,
  0x4fa0601fd010301U, 0xf806f9f20cfcfd02U, 0x3020508fdfdf8f7U, 0xf1030604e7fefbfeU,
  0xfefb1109f5f4f4ffU, 0xfb07040203080101U, 0x60bf2f2f7fafbf7U, 0xbff0704f9fa02ffU,
  0x2fe0afd1106fdfdU, 0x807fefaf1021613U, 0xf3f8ff060105f3f8U, 0x702f8fe0b0a02faU,
  0xed0506f909fc01ffU, 0xf0506f705f909feU, 0xfcfffeff06fa0000U, 0xfc0d03fb00f516fcU,
  0xbf3fbfb0300fb03U, 0xfeff0702070a01f2U, 0xfbfcfd01fef80600U, 0xa11010205fe04U,
  0x3f6f50305000302U, 0x3fffcf906fd09ffU, 0xf9f80201fd04f905U, 0xfafe0b05030509ffU,
  0x7fb0100020002faU, 0xfdfa0101fff805feU, 0x301070209ee03faU, 0xc14fcf7f6f8fff7U,
  0xfef9fffe04fefffdU, 0x7000604fc060403U, 0xfafbf5fd02f90306U, 0x3fdff03ff0601feU,
  0xfffbfafafd020000U, 0x205fe03010404fcU, 0xf900fe00060200fcU, 0x406030403010705U,
  0x4fafbfefa0304feU, 0x4fd0405fdff0406U, 0x1fb0103fe03fbffU, 0x3fef6070000fdfcU,
  0x10407090001ff00U, 0x4fefff8fdf9fdfcU, 0x30603010205000cU, 0xf809ff04fcfef50aU,
  0x8f6e008f7fa03faU, 0x2f6091afe04fc03U, 0x2090f030f090301U, 0xffe00feff104f404U,
  0xfbf404f502e9020eU, 0xf9030500f702f224U, 0x4ff05ff0c0d1405U, 0xf71800f720150703U,
  0x6010ff4f4088103U, 0xfe01ee0e00fd00f4U, 0x5fbef07f05b0007U, 0xf608fa050d020626U,
  0xf7f71102020bf1fcU, 0xfff8fa030cfb00dfU, 0x7fa0afc060bfd09U, 0x5ebfeacfc09f909U,
  0xf801f4f228f905f9U, 0x419f205fdf20003U, 0xfd0306fccb04e8ffU, 0xfbfd04f80bfefc05U,
  0x40cfff7fe0500fcU, 0x507f9f1f6fd05U, 0xfd0d09fb07170afdU, 0xf704050905030000U,
  0xfbf90ade0df9e200U, 0x6030104fd05050fU, 0xfefafb09050bf603U, 0xecfffdf7f30c0008U,
  0x2d60701fafa020bU, 0x2fd03fff70cfd07U, 0xfcf4f6f102f304fcU, 0xf7fc01fdfd0203f9U,
  0xf7060202fb0409f7U, 0xf00b000007f9fdfdU, 0xdc01fce808000108U, 0x11105ff090005ffU,
  0xfcfc0102fa110c06U, 0xf9fa02f8fd0806fdU, 0xfefff5f8fe10f500U, 0xfb0002fdfd040101U,
  0xfcfa07fefe060739U, 0xfe05fd05f1030201U, 0xf9fdfcfff9f90a00U, 0xfe0a06fa03fafe04U,
  0x204f9df08fb19ffU, 0x8ff06fb0dfefaf9U, 0x405f00407fdfbf3U, 0xff0400ff06f301feU,
  0x4fe02fcfffb0002U, 0xfd01fa06040609faU, 0xfdf9fdff0a03faf6U, 0xfbfd03fc0004fc00U,
  0xfe0104fc06010206U, 0x3fbfe04f7fafa06U, 0xfdf4060303fcfbf8U, 0x5fe06fa03eefa01U,
  0x2fefd01f6fb0302U, 0x300f9fdfef4eefeU, 0x6ff0901f9fcfc00U, 0xf807f5060a090bf9U,
  0xfc01fb0304fefc07U, 0xfc000207fef9020cU, 0xfcf805fe07fe060eU, 0x5fcfefff8030208U,
  0xfd000cf4e1110603U, 0x702faf9fbe317U, 0xfdfa0f07e30cea08U, 0xfdf4fa0c140104fdU,
  0x902fdf9030607faU, 0xeefe0bea0d0108ffU, 0xf7f60b0309fff80dU, 0xe0cf8fd1703fc03U,
  0x1612290efcfdfbfbU, 0x3fef00402fc26f8U, 0xf5e210fe05f10605U, 0x2ee020bfa0ced0cU,
  0xad0200b0af7f22aU, 0xf815f50201070deaU, 0xfa190af110f8eafcU, 0xfd05f8e4f3fff9efU,
  0x2fd0305f3fe05efU, 0x1f608fa07fd0901U, 0x5fd0d07fe05f308U, 0x30201fcfb030effU,
  0xfa0bfe0309020603U, 0xfcf7f606fc02fdfbU, 0xbef80c010004f9eeU, 0x2f1030909f7fd42U,
  0xfc010106fd0301ffU, 0xbfa040af8f5f3f9U, 0xedfc0a06ff0cf405U, 0xf8fffefaea010bfdU,
  0xf3fc0bfd020d07fdU, 0x1006fcf3ff0f0c06U, 0xfe03050208f70601U, 0xd00f400010209faU,
  0x1001fc03f3fff90eU, 0xfd02f3fe03fbe807U, 0xfe10fcfa0600fb01U, 0xfdf90fff0cf4fe08U,
  0xeb08f70cf9fb0904U, 0x6fbfa0106f8fefcU, 0xf80601fdff020ef4U, 0xf9f903f5f8ff0110U,
  0x6ff0cfcf9f006f7U, 0x1f4fded0508fffcU, 0x506fe03f803e7f3U, 0x8fc08fd0e0efef9U,
  0xf2edf306fe04fa03U, 0x9001618fefd0404U, 0xf5fdf5f6f2f504U, 0xfefbf10605f5fdfeU,
  0xa040bfa03fbf702U, 0xfc07fd00fcfffdf4U, 0xff02fa040bf40406U, 0x7fc0ff2ff00f5ffU,
  0x8080006fafbf9fcU, 0x5fc08fafff7fdU, 0x2fe0206fc0300f8U, 0x705fdff00f9feffU,
  0xfffceb07f9f9fdU, 0xffdfb040002fa04U, 0x407f60506070604U, 0xfdfe01f5fafffbf4U,
  0xf8f50205f404fa03U, 0xfafd09080902fe03U, 0x6f6fd03fa060300U, 0xf307f70508fcfd02U,
  0x405e7f60e050306U, 0x15fdd50dfc00fff8U, 0x1fa0dfbfaeb0dU, 0x7010ff4fefe02feU,
  0xf703f5fdf7ff0003U, 0xfb00f0fcf208fff6U, 0x14f1110f001307ffU, 0xfefe0601fc0703f0U,
  0xfef7fdc200fced0aU, 0x10bff0905030822U, 0x9060004f613f8f9U, 0xdf500f2fbf60fefU,
  0x7e202ff060b01ffU, 0xb02f50501ef02feU, 0xfe00f90305fe0802U, 0xff01f2fde8eb05faU,
  0x20afde8fd0601U, 0xfffffb0001f90a04U, 0x2fc03fbf80005f4U, 0xff02fa01ff05ff00U,
  0x3fdfefe030101fcU, 0xfd03ff000a0001f1U, 0xfd02effefefb07ffU, 0xfeffff070402ff06U,
  0xff050ef70e08f900U, 0x70305fef505fbf0U, 0xdfe0afd03fdfe03U, 0xfffcfbfffd02faffU,
  0xff0afe0008020002U, 0xfe020e000101fffbU, 0x106ff010503fd04U, 0x6fe00fef20df9fdU,
  0xf8fe02fb06fc00fcU, 0x5020600fefe0305U, 0xfffdfe0202fa00f6U, 0x8010504fd10fcfbU,
  0xfe09f9040101feU, 0x2030404ff01fe00U, 0x101fe02020206f6U, 0xfdf9000701ff0000U,
  0xfaf2fafd0d02fc01U, 0xf209030f03080604U, 0xf8fc04f410000a0aU, 0x103f501f8fa0104U,
  0x80916fc05030300U, 0x7f9fdf6fefcfefeU, 0x8fd050700f80905U, 0x70306fc0105f705U,
  0xf107dc0408f30d08U, 0xfdfc0806f80206ffU, 0xfd0d10fa0ffffd07U, 0x20506eaf6ff0cf5U,
  0xedfe06f90604f2f1U, 0x4f70907120f1502U, 0xfbfc081105f5fdebU, 0xfff3ff02fef6f305U,
  0x403fe10000905faU, 0x604f9fa0003fbfeU, 0xfbea07fcf4fd0ef9U, 0x60bfb1906080d02U,
  0xf6fffd0a0401f70dU, 0x1feffef0303f4e6U, 0x1fe00f3f40f12feU, 0x6f80500f7f013fcU,
  0x502060804fa0401U, 0xfefefe0001fd0305U, 0xb080afd04010bfeU, 0x60705fa04fb05U,
  0xfbfb0602f604fff7U, 0x504fc02fcfbf807U, 0xff09fefbff02fc03U, 0xfffc0207000004ffU,
  0x50c0aff030105f6U, 0xf805fb08f3fe0b04U, 0xfefefc0b000601fdU, 0x206ff03ff010100U,
  0x4190402fdf909f6U, 0x50a01fd04fd06edU, 0x1ff03f605ff01U, 0xfafbfdff030103faU,
  0x20c07fc010708e1U, 0xfb0508f20201ff11U, 0xf80b030b160d0300U, 0xfdfb07f805fbfc03U,
  0x3f2fdf20ef1f807U, 0xfd000219000efc01U, 0xcfaf414faf4f6f5U, 0xfa01fef5f5fc03fbU,
  0x30905ff1c0208U, 0x6f60506fcf2fcfeU, 0x106fa0506fcfe0bU, 0x1080707090afeefU,
  0x803000201fafcfcU, 0xfce8f9ea0ef70200U, 0x10bfa0600f4faf9U, 0x4fb06fefe00f30cU,
  0xff0315ffeafb00e6U, 0xdf004f9fbfd0604U, 0x30013fbf7f5f404U, 0x703fd09f4020303U,
  0x3f5fdfef9040af7U, 0xed03fdfce10afcfdU, 0xfded00f3fd0ce5f6U, 0xfbff00081df3fb01U,
  0x319140df203f7U, 0x103f5fa0ef5f909U, 0x1009fefe0df3f9f5U, 0x3eb04f7fbef07f4U,
  0x2eef205f103fffeU, 0x1030bfc00fb08feU, 0xf5fc05fcff03f8U, 0x30d01fa060206ffU,
  0x7f2fdfbfbff0c1bU, 0xff07fefb020fff05U, 0x7ec050fe7030a07U, 0xfef90306fe01f806U,
  0xfb12fffbfbff09feU, 0xf4f403d303fc0400U, 0x20c0bfff3020e06U, 0xd06fdfefef5fcfaU,
  0xefc05fcfc04ff01U, 0xfbfdfb0800fcfeefU, 0xf7f8ff00fb090df7U, 0xd08f8f3fd0afefdU,
  0xfffffe010505f706U, 0xf30c06070003f3feU, 0x3f5040601U, 0xfe01fffffa0200U,
  0xfcf8f9f00201ee14U, 0xfe05fa06f90cf7ecU, 0xfefc0afbfb02ea02U, 0x4fdfd060203f902U,
  0xeefbfcfb0a0afdfdU, 0x5fdfa06f40a01faU, 0xf9ebecfdfcfc0701U, 0xffe80602ed0f0604U,
  0xa0801f500f10002U, 0x80efffbf7060fffU, 0x8fc04ff01fff8fcU, 0xfc02f609fd03fd09U,
  0xfefcfaf902f8feeeU, 0xfff1fffdfffb0504U, 0xc02ff0bfdfff201U, 0xf7fbf6fb00fd0004U,
  0xf7fe0cfb11f1f50bU, 0x1cf702fa0bfc0dfbU, 0xf6fb11f9fc09fbf4U, 0xd04fd00eef8fa03U,
  0xedfc05f7ff02fbfcU, 0xf0c0405e9040002U, 0x10bfc08030bf6U, 0xfbf10613ee0007f8U,
  0x305f6f505fbfb11U, 0x2fffcfefbf3f6f5U, 0x30a08fc2df5e3ffU, 0xe080c00f4ef010eU,
  0x10b0af00a0104fcU, 0x504f2fd04fd08feU, 0xfaf50812020f07f8U, 0xcf4f7ecfe080304U,
  0xfc010202f7fe090dU, 0xff05f8f5fd051203U, 0x1f800050bfafdecU, 0xfbfcf90a020600fdU,
  0x207fcf2f90dfd03U, 0x20402fff802fd06U, 0xf7fe000604fefdf7U, 0xfff6effe0b1d000bU,
  0xf3e8f511ff03fc03U, 0xfdedf10507fce6f7U, 0x11f7fb0301faf701U, 0xfcfefe07060101ffU,
  0x4ef01ff01140510U, 0xf02f5f503090300U, 0xfa100504f10407f6U, 0x5f91407fc03ff03U,
  0xff03080501fafe04U, 0x401fc0000f90403U, 0x20405fa060502f8U, 0xfefd030afd010303U,
  0xfe03f3110c04fbfcU, 0x101fd0200f80504U, 0xb0304fd06060203U, 0xfbe7f40207f90bffU,
  0x70b0d0b0a041effU, 0xbfefcfdff0200ffU, 0x4040afa020305f8U, 0x4f900fd0500f8ffU,
  0xfdfb03fffd03fffcU, 0xfc02ff05fbf404fbU, 0xfffc010404fa0303U, 0x8fa06ff0602ff01U,
  0xfdff0303f30408fdU, 0x2fe0dfc05fe0d01U, 0x604fc0a0904fc03U, 0x2f905fcfafcff01U,
  0xf8eafaf802ed0704U, 0x7f9fc070200f402U, 0x7fce30f01ff0303U, 0xf60003f210ffffU,
  0xfafc0bf2f7fc0301U, 0xfef9090a02fae7U, 0xf40dfc0503f8060bU, 0x203ff04fe030003U,
  0xa11f601f8f8f402U, 0x5f214ff0ef3fcffU, 0x50afe0203fdf108U, 0xbff05fcfc04f505U,
  0x4c401ff07fc0cf9U, 0xfef602feb64c0403U, 0xf5f300000bfcfd04U, 0x106fbfd0700fb4eU,
  0xf722ff04fef6fe09U, 0x4fbeb22f7fd01feU, 0xf6f4fdecf60800U, 0x201fffff6ffdeffU,
  0x2f8fde7fc0601U, 0x1fff7ffff03f704U, 0x50bfb0204fd01ccU, 0x51200fcf504eafcU,
  0x10f00070bfaed03U, 0x3f1fcfd02fe0301U, 0x320a38fe0307f802U, 0x2000bfafa0005fcU,
  0xf4feff04fcff0002U, 0xff01040201fffcfbU, 0xff13fd020401ff04U, 0xff0509eff8fc0705U,
  0xf4fc02fe0afc0505U, 0xf701f30bfb10f503U, 0xfc0200fbf2050c00U, 0xdf10efff6fffe06U,
  0x913f4ff020004f8U, 0x30c010df5020800U, 0xf1ef0604fafbfcfeU, 0xf70301fcfcfe0907U,
  0xf5f908000f08fd0bU, 0xf7fa00fef201fa0bU, 0xff06050a0909fc07U, 0xff00fd00f9fdfc05U,
  0xf806fd05ff010404U, 0xfa0204020208fffdU, 0xf5f800fb06ff00U, 0x1fff40bfcfc0602U,
  0xfb02010106fffdfbU, 0x2fafa03fc03ff04U, 0xff0307010006fcf9U, 0x902f4fefd0607fcU,
  0x302fdfdf801fcU, 0xd05fff5f7010400U, 0xfbfc050bf8030904U, 0x30107ff03fc020cU,
  0x3ff0904f8f803fdU, 0x50200fb050006f6U, 0xfe02070302000001U, 0x10200f40ff90307U,
  0xf801fe000bfe0609U, 0x7f803fefe010007U, 0x4dff01f8e902fc04U, 0xff01fe0200ff05ffU,
  0xfffefcf6ff0514f9U, 0xfffbfdf60afeff00U, 0x1fbf6ff00f8feU, 0xf90300070302fd02U,
  0x50afdfc02fef8U, 0x100ff00040004feU, 0x1fc03ff00020204U, 0x10002fdfd03ff02U,
  0x100171cfa0a01U, 0xfefffb01fc010101U, 0xf8060100fafd02feU, 0xfdff03fd0405f7f7U,
  0xf5fb0a08f903fefbU, 0x4f7f90105000004U, 0xfd04fe03fff2fd08U, 0xfefe01fcfc03fe02U,
  0xf5fefd04ee0507f7U, 0xfbfff3ff09030efeU, 0x90002fc02fb0301U, 0xf90904fdf50a0310U,
  0x2fbfa0e010300ffU, 0xf20401f3001708fdU, 0xfef4f50ffd00f7fcU, 0x800ff02f9fc0108U,
  0xfcfefe040c08fe00U, 0x10709f004ea06U, 0x917fdfafd020008U, 0x401fd0303010300U,
  0xfd050305fe0a0ef1U, 0x40e040bf007ed00U, 0x1f4fd0afffffd08U, 0xfef800f5fe0ffbf9U,
  0xff9ff04000205U, 0xfa070705feff0005U, 0xfefffc0804010c03U, 0xfb05fa0802fffeffU,
  0x1010a0102fc040bU, 0x2f903fb00010603U, 0x7f6090dfd02fe0eU, 0x306e8f20007fafeU,
  0x600fdf9effa0404U, 0xf3010407050604fdU, 0xf4050d0910fbfb0aU, 0xf4ff0608fdfbf4faU,
  0xdfbf603f9fc050aU, 0xfffcf80703040100U, 0x100fc07fffdfcU, 0xfff80f05fe02fff8U,
  0x713020906ffff08U, 0x504fd07020205ffU, 0x3f316fff8050c01U, 0xfb0308f6050210fbU,
  0xf801f6f9010a00feU, 0x3fe0203f0fefefcU, 0x19f60205f8f9fceeU, 0x206fc02fdf50000U,
  0xfb09fe04fc01f9ffU, 0x60408f4030504U, 0xe0607fe0bfb0609U, 0x3fb07f7fbff07U,
  0x5010bff0302fafcU, 0xf8f9010201070408U, 0xfb01040209f60ef2U, 0xe9f403f7fd0100feU,
  0xfa01d10a0af8fa06U, 0xfcf80003f1ef08faU, 0xa0f09f808f307faU, 0xf50504fb0200f5f9U,
  0xe3fffdfcfefe0306U, 0xbf7e8f80109fb06U, 0x216fe0c0404fa01U, 0x6fc0407030009f5U,
  0xfb05ff06f106fb02U, 0x20cff05f9fd0406U, 0xcfffe0bf207f403U, 0x1fdf30702f7fefaU,
  0xeaeafb040e03ed03U, 0xff06f502f710f101U, 0x30a0400f5fe0affU, 0x101f3fff5fcfd09U,
  0xfef103fe0109f001U, 0x501fefe03fe0c06U, 0xf5f706f9020a0005U, 0xb08fcf7000afb09U,
  0xf11fcf4ff0c0600U, 0xfff8f8eef7fc0a04U, 0x40efd01fbe900fcU, 0x1f306020cfff00cU,
  0xc12f7030ef5f303U, 0xfe0a0506fa0222feU, 0x11fe07fb08fcf7f6U, 0x5fff9f500f7e00dU,
  0x60001f903fd02feU, 0xf500fbf8ff03ff00U, 0xfd01fc06fb06fdffU, 0xfcff030001e3efffU,
  0x6060309fafbfbfcU, 0xf808020404fbfbffU, 0x20202fc03f8fb02U, 0x5fefcf404fdf700U,
  0xfefb080102020003U, 0x30103ff0101f5ffU, 0xfefdfc0b0004f8U, 0xfc0611ff010803fdU,
  0xfb0000fd0008fb08U, 0xfdfdfeff0400fbfcU, 0xfffef6fffe03fe05U, 0x6fd000000000af9U,
  0x4c905fd120d0612U, 0xf702f9fdf3180505U, 0xfefafc04fc07f8faU, 0xff0706090afefe00U,
  0xedf505fbfd070003U, 0xdfefd010b030001U, 0x5f7ef04fbec0406U, 0x7f6fa00f5fffffbU,
  0x30a04ff01ff05ffU, 0xfff905fffbfc0001U, 0xf70400fcf9fdf8fdU, 0xfa03020602050002U,
  0x60e10ff04f0050eU, 0xffeb01fe01fc0302U, 0xafd0f020204ff06U, 0x3e808fdf901ff04U,
  0xd060801f7f70bf1U, 0x405fd04feef11ebU, 0xdafd0ff8d5fd28eeU, 0xfdf6ee22e9fa0fe9U,
  0x7fefb09f407f7efU, 0xf5110cf1e70536edU, 0xfc2210f7f21c0418U, 0x101dfc0d06070e05U,
  0xa070cf9f0e808f9U, 0xff04f8f71c0908feU, 0x20f0cf70102f8feU, 0x70f0c0bfaf409f2U,
  0xf703eb10fde804ecU, 0xf204f8011f06fc07U, 0x9fdfb03fff8f9fcU, 0x2fcfafc23ff1e00U,
  0x209fafd0402fe04U, 0xfef70202fe07fbU, 0xfc010b01000603e2U, 0xfdf60207fd0208ffU,
  0xe7fdf704020100f9U, 0xc000dfef6ed00feU, 0x8030103050cfffbU, 0xf6ee0308fcf5fbf8U,
  0x30300010002fb05U, 0x1207f8030ffdf4faU, 0x160601050804fd07U, 0xf704010af3f9f2ffU,
  0x9ff0904f7fffc00U, 0xfbfef7f9eff610ffU, 0x106fd06fd020601U, 0xfb050203ff0501faU,
  0xfbf007fe0b00f30bU, 0xf80814feff010802U, 0x104fc04f2f9f2f3U, 0x102ff0008fa0101U,
  0xe9eefff3fbf9fc03U, 0x6f8fffdf705ff04U, 0xbf7f1fa0007fd06U, 0x1f301f4f2f902f8U,
  0x1f80306fafe0108U, 0x507fd05fdf7f4feU, 0xfaf705fc02fe04f5U, 0x1000003fe05f1fcU,
  0xfdfef1f9fdfafffdU, 0xfcee0004040d0507U, 0x60806ff020a07fdU, 0xfdfc0400fe0503ffU,
  0xff1507f907010606U, 0xa0c00fbfa060bfcU, 0x3f6f90204fde3fbU, 0xfe04fcfe0dfbfefcU,
  0xfdff07fdfaff0007U, 0x401000700ff0500U, 0xfbfafd06fffe04ffU, 0x4fb01f7fefeff05U,
  0x1ff0200fee00405U, 0x2fb00070201f5fdU, 0xf6fffcfbf8fe01f9U, 0xfefb0703fffd0409U,
  0x7e703f4fff4fe10U, 0xfefa070afe05fb06U, 0xf9fbfc010b030102U, 0xfd02ffff0302fa0bU,
  0xef03010f020504cfU, 0xfef617f80106ff05U, 0xfcf816fbf006f5fcU, 0xfe07dffc04f513ffU,
  0x220100f7fbf112fcU, 0xfdf400ec0c080408U, 0xf7f50008ee11fa04U, 0xe0ea18fafbfcfd07U,
  0x1fe0f030c030a0aU, 0x3f9f705fc070b0bU, 0xc01f7080ff60707U, 0xf9f909f6fe0916f1U,
  0xaaf3f7ff080f03e5U, 0x5f90cfb11fbf9f8U, 0xfd0301f8fd0d01f6U, 0xf418e403fbf709f8U,
  0x504ff06ffff01ffU, 0x107010104fd0403U, 0x2ff0002ff04fe01U, 0xfd0105fe08f901feU,
  0x3feff0000fd00ffU, 0x10e00fd02fe02ffU, 0xfffd01ff030402U, 0x30200fdfffe03feU,
  0x5010500020003fdU, 0xfe03fe03ff0202fcU, 0x1fb070001010604U, 0x40119fe0307ff00U,
  0xfd0101fc0002ff02U, 0xfefc03030200fffbU, 0x2fffe0407010301U, 0xfb0404050100000bU,
  0x100ff0204010509U, 0x704fdfaff0003ffU, 0xff03ffff0301fcfcU, 0xff08fffafe05ff00U,
  0xf6000502fe010100U, 0x50000fe00f8f5fdU, 0xe6fcfe02fa05fef0U, 0x8f9fe030203fec5U,
  0x6050301f8fb03fdU, 0xf5f700fffb03fdffU, 0x3060ef70204fb01U, 0xfcfdfd06010202f2U,
  0xf4fffe0202fd06ffU, 0xfef8fcfafff009ffU, 0xfff7ffff02f500f8U, 0xfd04ef06fdff0002U,
  0xff01f6f705ed0607U, 0xfa0d08fdfbfaf508U, 0xfe08f9fe00f40407U, 0xff00fc000304fc02U,
  0xa040dfd0002030aU, 0x6f7020306f9ffU, 0xfbfffc040501f8f8U, 0xfd00fbfd0401f906U,
  0xf3f4f400fc02fc02U, 0x5f401fc05f8f200U, 0xa0dfaff0805fe05U, 0xfffa03f702000003U,
  0x8fdff03020701f8U, 0xfcfefefa080609f6U, 0xfcebf7f2fafbf904U, 0xfc03ef02fdff00f9U,
  0xfa1e02f400fd0600U, 0x1507fb0112e4fbfcU, 0x2070400fdf20008U, 0x5ffef00060201e7U,
  0xfe00fc02f404fdffU, 0x803f8f509fe09f4U, 0xf902040e07f30cffU, 0xf9f90706000901faU,
  0x301fff517f2fb0fU, 0xfb0206fe0d080b02U, 0x60a02030507f9ecU, 0x4fbfffcf501fefeU,
  0x3f9fdfb03020bf5U, 0x205ea02f504fdfaU, 0xf2fbe7fefcfd0806U, 0xfdfefe0900fd09fbU,
  0x3ea0101f6fff4fcU, 0x7f70100ee12ff06U, 0x30a051017fefc03U, 0xfe00fd01020205ffU,
  0x2e3f90005fb06feU, 0xe506fe090bfced06U, 0x7001203f6fe0b05U, 0xf4070409fefd14ffU,
  0x405140302f90500U, 0xfcfc0403fa0201fbU, 0xf4f6f80e03f7fffeU, 0xfffdfcfa070718fdU,
  0x4f5fb0e0801f6fdU, 0xfe11fefc0500f6faU, 0x90bfd0012ff09faU, 0xf9fd04eafefc02ffU,
  0xfffafd0403fb0802U, 0x3fd03fc0401fbU, 0x10300000204fd08U, 0x2f90508000204U,
  0xfa0e070301fa000eU, 0xfbf5020206fc0b03U, 0x2fbf6fefcfeffffU, 0x4fe0205020cfefeU,
  0x80af6f2fb05fa04U, 0xf7fdfe0203020504U, 0xf901f6fefe1000ffU, 0x2f9010a060bfe03U,
  0xfffefbfefbfdfefeU, 0x5fa01070606030bU, 0xfef10d000103f4f3U, 0x406fa0705f50103U,
  0xbfe0302eb010adeU, 0xf6070000ff03f3U, 0x3000d0bfd1bfc04U, 0xfee7fffbfffcf203U,
  0xd02fd06030d0601U, 0xf300060dfc032400U, 0x40100fd060c03f5U, 0xf90afe0708ed010eU,
  0x1001509fbfe02U, 0x6ebfbfe04faf7fbU, 0x5edf31903f8ff00U, 0xf8ff0403fd020c1fU,
  0xf9fafbfff90cfcfdU, 0xff080304fa0a05faU, 0xfdd5fbfc04010105U, 0x1e11f4fffb000401U,
  0xf8fefe0303f4fcf9U, 0x4ff01fa00000001U, 0x3f6060301f507faU, 0x4040002f9fa0500U,
  0xf4fcf9fa0006fafdU, 0xfa05fffffffd0303U, 0xfc010000070801fdU, 0xb020c010afa06ffU,
  0xf6fc010303fefcU, 0xff00ff0300fc0207U, 0x703f80203fff8fdU, 0xff0100feedf4f8U,
  0x10105ff06090509U, 0x200fbf6f6f8f6f8U, 0xfe05fcf7f8060bffU, 0xfefefaf4f6fafdf5U,
  0x5f807f81ffef9f9U, 0xfdec470d0606f7faU, 0x611f8fafd01fb0dU, 0x10614f5ffff0606U,
  0xf71202070a00f106U, 0x7fd0d0be4edf24eU, 0x3fa18180308faceU, 0x406f6fb04fe00ffU,
  0x1eace12f8fd1302U, 0x2ff05fdee0e050dU, 0xcaf7f000fef70404U, 0xf916fa0110fc0a00U,
  0x3fbf7e712060609U, 0x9f2f0f8f9fc04ffU, 0x609fc0ffdfe14f9U, 0x7f91e00242f0d0eU,
  0x716fd0302fe00ffU, 0xfb03030000fcff04U, 0xfc020103ff05fffeU, 0xff020605fe0006fcU,
  0xfa0202fcff0503U, 0x1f701ff0702fa01U, 0xfdfefb090104ff09U, 0x5eb040601fb0806U,
  0x3f6fc03ff040201U, 0xfbf6fcfdfdfd0002U, 0x5fd0204ff01020aU, 0xfffffaff0600ffffU,
  0xf90307010401fff8U, 0xfef909010201fe08U, 0xf9feff0006040005U, 0x4fffb0003fefc02U,
  0x106f100f80cfd07U, 0xf307fafc0af5fa02U, 0xfd0c070412fc0c02U, 0xfff4f8f7010a05fdU,
  0x506fc030bfefa01U, 0xfdfc010505fcfdfbU, 0x6f70808eefcfcf8U, 0xfd05fff9fdf806ffU,
  0x9fcf600fdfffd07U, 0xcf80cf6ff1108fcU, 0xf2080115f310f903U, 0x103f8fcfd010001U,
  0x605060cfd04f405U, 0x104fffd03fdf501U, 0x705fb0b0f050203U, 0x7f3fc0400f807fcU,
  0x104fd02fd03faU, 0xfcfc000007fd0205U, 0xf4f70e03eef903faU, 0x39fafde4040305fdU,
  0x2f50500f90a2dU, 0xf3fc0ef904fced00U, 0xfa10fc07f7f3fb05U, 0xf700040101fd0004U,
  0xf2ff080009fe0309U, 0x10200fa0afafcfeU, 0x206fe07020102ffU, 0x410fbff04040600U,
  0x100fef505fd0307U, 0xed08f9f7fefc0bfaU, 0xff02f905fefe0100U, 0xff030501ff0102fbU,
  0xf5f40dfdf006f0fbU, 0x5020202fb0c00ffU, 0x4010801f8fb0af5U, 0xfcfaf701fffd0304U,
  0xf1eb02fa14f704fdU, 0xf1081e0af916f7feU, 0xfe0afb00f21803f6U, 0xf616f7feede901faU,
  0xf2a7f90dfcf40003U, 0xf40409fa340e11U, 0xfffb0b0503fd17fbU, 0xe0f050209050004U,
  0x5f8f8fc030eee05U, 0x16fa04fcff0dfdf3U, 0xf00a15fffc0a0408U, 0x10a0108f700e204U,
  0xfd0107f1060ffaf1U, 0xfef801f20bf814fdU, 0xf1f807030efe07fbU, 0xfdff0306ebf40900U,
  0xb08f0ec01fb0102U, 0xfb1b0105fb07ecfeU, 0x208fa000bf8f5f6U, 0xf8e603f2fd04fefdU,
  0xf601fd070804fe06U, 0x608fbfffe090003U, 0x1007f6070b02f209U, 0xfbff0cfef2f2f7fbU,
  0x10a0103fd0606fcU, 0xfffff8ff0ffff81aU, 0x5fefaf0ff0904feU, 0x40800f5f8fefdfcU,
  0x304040205f9f902U, 0x3f60df803040105U, 0x3ff00fc0dfefd0fU, 0x1fcf8f806fc06faU,
  0x20203edf3fbU, 0x4fa0005f710f905U, 0xfff4f606fafffaf9U, 0xfb030807ff09fcfeU,
  0xa04f0ff0104fffeU, 0x1fcf7f4fe020806U, 0x5010706f2f50201U, 0xee9060ef801fdf5U,
  0x20700fff3f4e7fcU, 0xfeff00f908fe0000U, 0x9fdf703fffefcf7U, 0x2fd040b05040500U,
  0x2fdfcf6f806fefeU, 0xfb04f4f90a05f9U, 0x101ff01fdfafeU, 0xfe00ecfdfa060001U,
  0x29fefb00fb010403U, 0xff03fa04f7f0f0f4U, 0xbff06020408fecfU, 0x3f2fd040a00fcedU,
  0xa0ff6090102fd09U, 0xfbd700f6fef5fbfaU, 0xb02f90afd0620ffU, 0xfcfcf907ff020afeU,
  0xcbfdfb02fd0702f2U, 0xfc00f8f7f9040bfbU, 0x7f904fcfed109f2U, 0x10fea04f4fb0c01U,
  0xfc05d90007ff0403U, 0xfcfc0cfdff0404fcU, 0x804f2ff0afe03fbU, 0x3050deb09fefcffU,
  0x1002fafbf1fbU, 0x2f6f710080102f7U, 0xfc020403fdfe0507U, 0xe0803fa0100fefdU,
  0xfcfff3ce07fab8faU, 0x10bf90503fcfbfaU, 0xfafbfbf90225fc04U, 0xffe030800f909f6U,
  0x10703fdff13f9feU, 0xff0602f8f9fbeb0cU, 0xa0bfa04fd0d0004U, 0xa0302060eff0a03U,
  0x30000fafbfbf9ecU, 0x11ff0201010001f8U, 0x3fffe00f1f7f912U, 0x6f0fd06ff0400ffU,
  0xf4fefcfcec1305fbU, 0xcfefa18091000f9U, 0xfd09fa13fe0301U, 0x705fc0009fefedbU,
  0x405f70307fcfb04U, 0xd80df9f502f9fcf7U, 0x9e6f1fdff000ef7U, 0xfafdfbfa0c000c04U,
  0x3040cfe0ff6f800U, 0x705f803f9d6fbfaU, 0xfe0801fefd050e1fU, 0x15fd17040314faU,
  0xf9fefa0a06fffbfbU, 0x401fef8fe01ff0cU, 0xff0dfd0002ff06U, 0x1040304fafffd01U,
  0xfefdfafaf801fffbU, 0xff05010101fffffaU, 0x3fefffc0402fc08U, 0x2f900fc000108feU,
  0xfafdfffd02fffcfeU, 0x101fefdfb030203U, 0xf70003fd06ff0102U, 0xfe0300030302fa01U,
  0xff01fffb00010101U, 0x4feff05fefe0301U, 0x5080300f3fe01f7U, 0x81308fe05f8fd00U,
  0xf415020701fdfd06U, 0xdf07fef90df105fcU, 0xf705fa020102ee11U, 0x402060101fd0af4U,
  0xecfb0906f90101fcU, 0x5fdf8f7fb070203U, 0x9eef6020bfbfd04U, 0xff6f7fd08f506fbU,
  0xfffe03fa0bea04ffU, 0xfffe0802e900f9f9U, 0x9f5030000f9fe0aU, 0xfa00010404fbf000U,
  0x1050e00fdf90507U, 0x3f10bfffef804ffU, 0xf307f60e01ff0c00U, 0xb0001030bfdfeffU,
  0x101fe0002fc03feU, 0x10103fffefafdU, 0x2fcff03fe0301U, 0xfc0efd03ff00fb01U,
  0xfbfc030704030201U, 0xc000603040102fcU, 0xfe02fb0000030205U, 0x5fd04f908030302U,
  0x20005f806ff00fdU, 0x6fb05fd0cff00ffU, 0x407fdfdff01030bU, 0x603fdfcfe02fb01U,
  0xfc0304fd01070601U, 0x1fdf7ff04fe0200U, 0x2fbfe01fd040bfdU, 0x10104fdfbfcfaU,
  0x607fe0400fcfbf9U, 0x305fdfff90402feU, 0xfffbfefffa0aff02U, 0x5ff020202fef3feU,
  0xfb01030d06fbfa05U, 0xec02fe01fafef3f9U, 0x201ff06080408f9U, 0xf4fcf903f0f304feU,
  0x61d0104010b0aU, 0x3ff03fcf9000102U, 0x18f706effdf3ff04U, 0x80d0b001cfb0700U,
  0x60008f9fa0107f8U, 0xfe06f90905011910U, 0xfefdfc04f7ff010dU, 0xfafb00fefaff09ffU,
  0xf404f201f9ff03fcU, 0x8f3fefd08010105U, 0xfefe10f6ec000001U, 0xffdef7f3f8050c03U,
  0xa0c010601011109U, 0xe0fbfef102fa1a01U, 0xff02fef4fcf3f6fdU, 0x50008021704fc04U,
  0xf9fc0ffbfcf700fbU, 0x70506e307f70901U, 0x30007dbf10e0305U, 0x4fdf8070002fa06U,
  0xf5f8fc141008e700U, 0x9ff0107fd0501f3U, 0xfa04090bfb04f503U, 0x90006f601fe02f4U,
  0x3f9ff020d0cf1ffU, 0xfa080505f5020306U, 0xfffcf5f403f20405U, 0xfcf90109f6f8f900U,
  0x2f8020801050402U, 0x5ff07f6fa090dffU, 0x500fd03fefb020dU, 0xf2f90c10f6f80904U,
  0xf7f7fdfe0c0601U, 0xb08fff501f7f908U, 0x40c0cfc05f50002U, 0x11ff05000905f8fbU,
  0xb0a0ff7fffb0a0aU, 0xf40103f20108fc04U, 0x2090107fbf2f602U, 0x140709050602fa06U,
  0xc04ff050101070dU, 0xfef3feff01fffff7U, 0x1fd07fdfefd01f8U, 0x1080904ff0201fcU,
  0xf800fd0d0bfbff09U, 0x2fee3fe05e80104U, 0x208fe02fcfefafcU, 0x50015fff7060500U,
  0xb0a070217fb0500U, 0xfd050ffe02f2fd00U, 0x5ff00fc01f9fb03U, 0xfefe0104f9070aU,
  0x5010301fdf707feU, 0xf004fcfe0c070304U, 0x13f6fdfc01fcfd08U, 0x102fb0005fffffeU,
  0xecfff70215030815U, 0x2f9faf9fcfb0105U, 0xfafaec05fff7effeU, 0x1fbf0fcfe080efaU,
  0x41002f9f6000406U, 0xaf8f4fd10050702U, 0xfeeefb180a0705f0U, 0xc0efafdd9190904U,
  0xeefbfcf908e0000aU, 0xf303fd09ec07e5f4U, 0xf6fcf6060e1ae906U, 0x6fdf508f9f8f7ffU,
  0xff000204ea0a06U, 0x17ef030100fbd808U, 0xfaf908f9fe0af0fdU, 0x8fee6effd0200eeU,
  0x1fdfe05fe03fcfdU, 0xfef9060305fa00U, 0xfefd0002fe0303feU, 0xfffd03fe07140503U,
  0xfefefafe0100ffffU, 0x300fefc03fe02U, 0x1010300030001faU, 0xff0505ff0200fdfcU,
  0xffff00fffe010000U, 0xfdfefbfeffff01ffU, 0xfd00ff0607fefaf5U, 0x203ef00fcfc0103U,
  0xfbfeff01fdfe0103U, 0x402fa05fd03ffffU, 0x2fcfefb02fe0001U, 0xfdfdfbfcfffef705U,
  0xf703080af6030501U, 0x801fb03ff020706U, 0x8fdfd0709fdeb02U, 0x20101fa02fef9fdU,
  0xfdfbf903fff4fafbU, 0xff0003030805fa06U, 0xfcf5fa03f90ffd08U, 0x501f6fdf1f20100U,
  0xf9fd040901f70303U, 0x1f805fa00f5f500U, 0x2ff030100f1fbfcU, 0x907000704050304U,
  0xfd0311f70301ff0cU, 0xf6f005ff0401f7fcU, 0x101fafd02f5fff7U, 0xfbfefe0309fe03fbU,
  0x10200fc07030408U, 0x7f8ffffff010903U, 0xf1010a00fbfd06f2U, 0xfd01ff06fdfdfdfdU,
  0xfa04fbf7fd06fa02U, 0xfdf904f9f8feffffU, 0xaff03f7ff0600U, 0x70104fa0701ff03U,
  0xfbfffffffe0400fdU, 0xfbfefdff0afffcfbU, 0x5fb00fef2fff6ffU, 0xff070400fb0102f8U,
  0xfd0500c800fe03ffU, 0x303f7fd01fffd05U, 0xfdfbfdfff5030407U, 0xff06fafef5fb00f5U,
  0xbfefe0009f4fefeU, 0x6f500fcfcfe070cU, 0x804041b03fd0601U, 0x3eae101f8fc0804U,
  0xf903040df8eaf708U, 0x806f400f902faf7U, 0xfefc12fe040201U, 0xf4030211fa050001U,
  0xfe10f3020108fe05U, 0xff06ff08fdfe00U, 0x1fc01fd0bf9fc00U, 0x5e5000bfd0600ffU,
  0x7040b25f0f4e1f8U, 0x2fcdc08f9fc0503U, 0xfcf705fa06030703U, 0x3f8ff0aff160eefU,
  0xfefe01f109fef512U, 0x300fdfd04ff01feU, 0x5fffc03fbf8f6f6U, 0xf901fffffd01f703U,
  0xf3fa02fceafffff5U, 0x1f7fbfcfdfbfeffU, 0xf4f7fffcfeecf502U, 0x5f5fbf9f6090107U,
  0x106f8fb01f8fe05U, 0xf20afefa030a030aU, 0xfdf7fd03fefd01faU, 0x102fbfcf30406f5U,
  0xfcf603fb01fe0206U, 0x6f80115fde200f7U, 0x309040300040302U, 0xfc09030200fbfdfcU,
  0xffffffb5fffffc7cU, 0xfffff804000005baU, 0x339000000d0U, 0x28800000361U,
  0x333000003ebU, 0xfffffe8500000328U, 0x4bcfffffc48U, 0x35d000002c3U,
  0xfffffcee0000039dU, 0x2bafffffac0U, 0x4a20000000bU, 0x3d80000015bU,
  0x65fffffe3cU, 0x258fffffec8U, 0xfffff922000000b1U, 0x56dffffff56U,
  0xfffff849fffffb47U, 0x45000003e2U, 0x5cf0000084dU, 0x12a00000361U,
  0x5a0fffffe9eU, 0x2fa00000342U, 0xfffffeb400000edfU, 0xfffff7ad000004fbU,
  0x86afffffe27U, 0x35300000146U, 0xffffff9f000005cbU, 0xfffffba4fffffed2U,
  0x6a20000008aU, 0xffffffc6fffffc9cU, 0x72e00000a6bU, 0x2a0fffffbc8U,
  0xfffffea6fffffefcU, 0xffffff7200000481U, 0x958000001a0U, 0xfffffe01fffff9feU,
  0xfffffea4fffffa7bU, 0x1a0000006d5U, 0xffffff550000080aU, 0xfffff9f0000000f5U,
  0x43d00000152U, 0x19e0000003aU, 0xffffffe0000002b0U, 0xfffffb5efffffbfdU,
  0x3bf000000a4U, 0x11a00000163U, 0xfffffdbbfffff701U, 0xcb00000913U,
  0xfffffd1d0000013bU, 0x4a900000507U, 0x25bfffffd4fU, 0xfffff9d0ffffff19U,
  0xfffff3c5000007d6U, 0xfffffb09ffffff37U, 0xffffff14fffffa9aU, 0x35afffffd9eU,
  0x463000006ddU, 0x190fffffc46U, 0xfffffba800000679U, 0x6120000005fU,
  0xfffffe6cfffffd6fU, 0x29400000997U, 0x3a3000005b3U, 0x7ae00000303U,
  0xe1f3fefe06f8120aU, 0xf30dfdfeecf5010aU, 0x1f05190b0e0c0ff9U, 0x401f2ffd70fef0dU,
  0x6f705f3f3f604f2U, 0xec030dd208de0902U, 0x21eb0dfffef4ceecU, 0xf7f425ebeaf908f3U,
  0x91009faedf8fd0fU, 0xe800f80c1600f514U, 0x7090e0d2c0305U, 0x15fdff00000a20f7U,
  0xec12ecffe70cfe19U, 0xe5ed0102e3f9f70cU, 0x15f8e1000b0afa04U, 0x6030ef50a1200faU,
  0xff0c050704030702U, 0xae203fb0ee00f08U, 0xfa08ec02f7fef60aU, 0xfb090407f305fafdU,
  0xb1602faf90b01U, 0xfc05f4fb060803f5U, 0xc0900f704fe0203U, 0xfdecfef9fcfc0f0cU,
  0x9f70608010002f9U, 0x90cf8fd070002fdU, 0x1fd0208f6f80104U, 0xf708ffe900ff0209U,
  0x8fcf80f0b010203U, 0xf80000b6f3feff07U, 0x13fc05fb08fe0403U, 0x7140bf701010100U,
  0xa00000a11f90706U, 0xdfdec1011f802feU, 0x15f704f404fd00f3U, 0x907fb0207ff19faU,
  0x30a07090007ef04U, 0xf60e100b02080515U, 0x1d10fbfa0103e222U, 0xebfa0700f4f0f1c7U,
  0x2f80516070c04d2U, 0x704050d080e0018U, 0xf2efe50a040205fbU, 0x1fadec406f6f9fbU,
  0xf40dfff802f30bf0U, 0xfbfd09fff6f70df8U, 0xf4f8041202ece5feU, 0xfc05fe05060efc03U,
  0xfbf900ff0513091cU, 0xee06fe0b07fd02f8U, 0xf0fbfa07f7f80dedU, 0xf8f409fdf3f9f0feU,
  0x101fdee04fa0604U, 0xf03fef801070403U, 0xf50300fe02f9f907U, 0x40107fc02060af9U,
  0x7fbf8070cef0003U, 0x70b0908f8fbf90eU, 0xc010105fbfe06U, 0x80afbf7f5f60205U,
  0xef0b0ffe00ec02ebU, 0x3fc00feecf8feU, 0xfe101313f7f610U, 0x7fd15f2f807f907U,
  0xdfa01fd060605f1U, 0xfbf8fd0aff04fa05U, 0xf0fef6fe0efffe0bU, 0xbfb08ff0c160000U,
  0x5f2f6f8fbf005faU, 0xa0ffb11ec02fa08U, 0x2f5ff080af90806U, 0x301f50dff04f3U,
  0x2050409fa0f0f13U, 0x7f4feef06fd01f6U, 0x8fffbf8fffffffeU, 0xf1f201d703070f08U,
  0xfb0a000b06fd0b02U, 0xbfe01feff0602f9U, 0xf6ec160f17ff0c04U, 0xf9fd0817ff200bf7U,
  0xa09eb15edfc051cU, 0xfbd5f90404011404U, 0xfffdecf005ecfb01U, 0xfe01eafc09040700U,
  0xd0e090efff7e801U, 0xf6070011f31203fbU, 0xf8f70705fbfc050cU, 0xfb07fefc0412f10aU,
  0x701040a14fffefcU, 0x9fdf8f7fa040001U, 0xe01fedd0aeafd0eU, 0x1b03fcefdd09f7f9U,
  0x8f9051ffb001104U, 0x14fafad9fb010708U, 0xfde7fcfbf802fd09U, 0xff1afdfaf90208ecU,
  0xfcf602020f05f6fdU, 0x3fb190a06000310U, 0x1512f7fcf4f10ef6U, 0xf02fe00eb0fe5f2U,
  0xf2f5fffefe0ff607U, 0x8f606fff51b0f0dU, 0x302020afef4f803U, 0xe050119150afaecU,
  0x7fbfeeb0b020205U, 0x90a00f10a001f01U, 0x9fc02fd14fe0003U, 0xf1ebdff4010013f5U,
  0xf5f309070210fafdU, 0xf500fefe05f9feU, 0x20c16fbde08fae0U, 0xecf6fe0df70bfafdU,
  0xfe010505f9f9fb00U, 0x2070ff2fdf4e9ffU, 0xfc1802f30414fbf5U, 0xf710fcfd04040be9U,
  0xfff611ff00160910U, 0x6edf90301faf9feU, 0xfbf8fcfb00fefbe5U, 0x10fffdea04fef418U,
  0xcf103f5f0fbef0cU, 0xfaede6f6e6fdf8fcU, 0x106fd09fd010bU, 0x2f0fe05f7fde7f0U,
  0xc070f09f4f8fd06U, 0x6020b01ffeef602U, 0x12030b040f0005f2U, 0xfb07fef8fbf60307U,
  0x1dfb080501fd0000U, 0xf1fe050e040ffefdU, 0xf5000bf01017ff0cU, 0x2faf10606fb030bU,
  0xcf2fe070e1f0affU, 0xf200f3edf604f1faU, 0xfcfef4f5fc06f7U, 0xd0508f0faeffd0aU,
  0xf70efff60a00fefeU, 0xfef2fd0cfbecf8f9U, 0xef13f7fc010c0103U, 0xdfc000607fc00f4U,
  0x10f6fafc04fafa05U, 0x12f903fafc0903f8U, 0xf10407f8f309f806U, 0xf6faf7f00af3050fU,
  0xf60000fffefc0cU, 0xfffb1305ef02U, 0xfe05f6fefd1505eaU, 0xdf1103fd060009U,
  0x20600fb120700f3U, 0x1fafb0507f7f802U, 0xfff8f8f6f2f6050bU, 0x5fae4f707f70005U,
  0xa060807f61304f6U, 0x4fdfd0007020304U, 0xf8fb060612f8fafbU, 0xf6fa050df3f5fcf9U,
  0xfe1607000006ff04U, 0xf0f01feff04fff7U, 0x609fff503ff01fbU, 0x1701e7032e0709f7U,
  0xfcfbfbfc09fb03f7U, 0xfc05fb05eb2201U, 0x11f8031400f2U, 0x30303fc090e0dfdU,
  0x7f60efefffc0500U, 0xc04f8fafc000703U, 0xd06e9060306f8fdU, 0xfcc8080501fdfbfbU,
  0xf103fe0109f40405U, 0xf9fc0304f5030bfdU, 0x10f907ea05fb0115U, 0xf08fcfcf8050100U,
  0xfa060406fcfc07f7U, 0xaf8fef9040404f3U, 0xe0f0f103f704fbffU, 0xfe29f7100201ffffU,
  0xd0ae6010310fd0bU, 0x6fd0007fdfddf01U, 0x405f9f30705fef0U, 0xef07f602f8f5030dU,
  0xfdffed10fd12fefdU, 0xee010e100909ed01U, 0x12fcfbe9e6021c03U, 0x70ff4d3fb07faf2U,
  0xbf80f1208f8fefcU, 0xe4f9e2f6ffddf4f0U, 0x19f7fdebfefc0404U, 0x2f7eef200eafdeaU,
  0x3f8070505f900fcU, 0xfc0f0303f8f711e2U, 0xef07f9020efbff01U, 0x40fd501ed0705f4U,
  0x4fbebfffefefbf2U, 0x61d11faf2ed040fU, 0xfcfc07fc0b01f7feU, 0xf00d0200fb02fefaU,
  0xf9fc0905f1f500eaU, 0xf90cf0e0fed7f6ecU, 0x1d05ef03f7f80b02U, 0x2ecfbf91c0effU,
  0x71102f0fef3fe04U, 0xfd03d3e6f2f7f7e0U, 0x9fc0103f6fdfc0eU, 0xee5f5fa030cf8f2U,
  0x6edf2fe02f8fdf8U, 0xffcfeffe408fef8U, 0x1613f4f00306fb0fU, 0x1090902fcf80c08U,
  0xb1306fa0b0e1203U, 0xff06fbfe06060204U, 0xfaf9f00a04fdf2ecU, 0xff06fefcf8f7030aU,
  0x406f601fefb02f8U, 0xf8fe03f116ef0106U, 0x50105fc08f9f518U, 0x4020208fbf90706U,
  0xff804080804d2fcU, 0xf0070007f7fe08ffU, 0x606f0fbf802fe02U, 0xeff9020afc040efbU,
  0xdef3f704ffb00cffU, 0x5fbf902fff70901U, 0xfb0aed13092ffe03U, 0xfcf9fcec0afc0a08U,
  0x2fb09f706eff9fbU, 0xfaf6fd1915040606U, 0xe827fc1bf203f4faU, 0x5fefffdf6100afaU,
  0x90bfbf204f3fa04U, 0xf50d140de5fb0c17U, 0x8f60af9fffa1004U, 0xeffe120cfe0d0608U,
  0xf8f0efe409fcf008U, 0xe9f0fff4f6f001f2U, 0x1708fc02ff070304U, 0xf4f704fef8fc0300U,
  0x14f4fb07f706f5ffU, 0x308f505fbfafcf7U, 0xf0120507e6f804e4U, 0xf4fffefe0a17e7f6U,
  0xf0fb07fbf8feeaf7U, 0xd11fd1cf6fef4e6U, 0xeff08f7ff02040cU, 0xff090600fdfaf6edU,
  0xfbe904f4f61f08fdU, 0xf0f9fdfe07ef09f1U, 0x2fdfcf6f3f0fa01U, 0x1f2fff701e7f6feU,
  0xf9ea0fecf1eefc05U, 0x7efefed0d04fff6U, 0xfef6f806fc0bf9ebU, 0xfae8e605e90f0d08U,
  0x60705f9f10508f0U, 0x1eff7010a02fff4U, 0x200edfcf903ff09U, 0x1021af40ef8f80eU,
  0x1602e226f4f6fd09U, 0xfbebb7fa00011a03U, 0x26f3e9fd07fbeef0U, 0x709f8ee05f7fc0bU,
  0x12d416140df3da15U, 0xdcfe19ff100504fbU, 0xeef1fdf20e0112cfU, 0xfc02001e0206010bU,
  0x1fcfd05e2f501f4U, 0x7fefbf4ffff070aU, 0xf70200040bedf414U, 0x212fcf4ce16f9f9U,
  0x40af9140204fe23U, 0xfdfaf3ff011f0704U, 0x10704051001fef0U, 0xfcfc000f040d0af2U,
  0x800ff11f6040a0dU, 0xfc0bf1f404050013U, 0x143000fcfef51003U, 0x1fd0ef5ef02f6f1U,
  0xaf9f60304f305f6U, 0x2002f9e90a0f0717U, 0xf807feff00070600U, 0xff0106f904fe0cf5U,
  0xf7f906110d06eff7U, 0xe905fc03ff070307U, 0x101edfe03f9f8f4U, 0x5fe0bfcfbfe07ffU,
  0x606fc09fbf904f9U, 0x7fd03030511f5f4U, 0x3f6fbff05e80815U, 0x1fd0b0cfcf3fc06U,
  0xf70efc05e5fa0e08U, 0x91bf4f803f10201U, 0xf80fefe809f90205U, 0x13fffb00180918f5U,
  0xf9f7f10cfb010308U, 0xf5100d0606f70007U, 0x8fd05f9f0f8ff00U, 0xf8faf602f2fe0102U,
  0x90df002fc0df505U, 0x901f5fa09fc02U, 0x30af904f2fdfb23U, 0xfafffe01ff11f202U,
  0x10f401fd05000710U, 0x50ffc03050afcfcU, 0x1a12f7fcfefee1f4U, 0xef0a00f803090803U,
  0x5ff0001fcfc00fbU, 0xfdec0519f4fcfd11U, 0x6f90e070c01f903U, 0x204f8ff0203fe0dU,
  0xf1f6fe100d0cfc06U, 0xf60d072610fd0bf5U, 0xf8f30b0900fb10f4U, 0x7e700060012ff0bU,
  0xfa0904000f02f910U, 0x7fcf70201f2fef9U, 0xf8fa01fe0d05f6f5U, 0xdf5fcf008ff01fbU,
  0x903fbfc09f5f807U, 0xc0c0000fe0112ffU, 0xef802f1eaf506f8U, 0xfd07f80afc13fd05U,
  0x416f40a0bf90707U, 0xfa0e10fae501fae9U, 0x50802edf605f8f2U, 0x14fddd03f0092229U,
  0x17f6fef807f60b13U, 0xfd0004f4030efeddU, 0xeced0ae609f8f5e1U, 0xe0f9f8f7fc090e02U,
  0xe9ff08fd0f0d281fU, 0xd721fc1af90025f7U, 0xfe01fe03eafe05faU, 0xf607daf9ff12f305U,
  0xfb110d0b05f8f2f2U, 0xf407e00902ff07faU, 0xf108e2f4ef1005e5U, 0x1c00fd08f40d0613U,
  0xfbfdf21202f0fe0fU, 0xf5fe07f5f30b02feU, 0xf5fcfcff0dfd00f4U, 0x104eb0212f8f40dU,
  0xf3fc05fc0101efU, 0xef0d100c0ef6020aU, 0x3e1f7fae4fb10f6U, 0x5f2ee00faeff006U,
  0xb0ef6080efe17f2U, 0xeae80df0fcddeff6U, 0xd05f408faf60000U, 0x10fd06d006fefe05U,
  0xfef807f1f2f8030eU, 0xfefffef1fe06feU, 0xe31a090614010f0cU, 0xf908ece1fc070301U,
  0xf318fc10fe1312fdU, 0x2fdf9eb0405f51eU, 0xd6f209090609faf7U, 0x6040008fc0bff0bU,
  0x6fdf30b000ffd0dU, 0x714ff02ee05fcU, 0xf900fcfdf205f3f5U, 0xe00b0103f5fcf30eU,
  0xf90006000af309e6U, 0xc07f60a070df6e8U, 0xe70d08fbfc1003f7U, 0xfffe070910fde410U,
  0xfb160608ebfa11f3U, 0x1000804e0f807fdU, 0xec0c11ea030c0501U, 0xafa1908f904fefcU,
  0x71df6ecd90cf911U, 0xf808f2070f040702U, 0xee01fdd30af101feU, 0x10040a03e503f212U,
  0x200020501f4040dU, 0xfcf815e9f1fa08feU, 0xfb120c0f01e110fcU, 0xe4fefb0fecfb0611U,
  0xe80c061fff1b0bfeU, 0x1410fe08eef8e315U, 0xef0ee4060511040eU, 0x60ff6fb010506f6U,
  0xfe0f0116f9fa16U, 0xfb1203fd05eff9ebU, 0x2f7f9f203e2f7fbU, 0xe0f7faf8000409fdU,
  0xfd0301e2eb030b0dU, 0xf7f3fbd3050b0d0aU, 0x6e8070205081ae0U, 0xfdfd02ff0c0318e6U,
  0xfa0f03f1f9e9f8f8U, 0xffa050305dcf4daU, 0xfe02feefe4f201f5U, 0xff030af919f10e14U,
  0x1d0d11f7eb170142U, 0xf103000402090cU, 0xebfcfa00fa0d080cU, 0xfb0202e60002f40aU,
  0xb02fc0b11f80bebU, 0x601f602f8f702f5U, 0xe9130003060ae209U, 0xf9fa02fbfc05fe17U,
  0xecff06f501f806f3U, 0x11f808eefdf50d0aU, 0x5f7130bf8e708faU, 0xf3f602f501ff06f6U,
  0xff10f807fc0508U, 0xcfbfb0103f4dafbU, 0xf0a03ee0ff61efdU, 0xfb81f604ef050704U,
  0x509fc0212f50cfeU, 0x107f0f6f4f20500U, 0x2fa0233fb030afcU, 0xfb08f204fefc19fdU,
  0xfbe6070bf8080207U, 0x30701fc05f8f8ebU, 0xf9f7fd17090506fbU, 0x4e91f050500fb02U,
  0xfd04fff20c0e09U, 0xf201e80b0e06ececU, 0xfdf8e7fdf812fc10U, 0xa0811fdecf4ec1aU,
  0xdfc02fd090bfb01U, 0x14e502f1070a11fdU, 0xffef01e208f601U, 0x1faf20fef00fbefU,
  0xfcf40b26f8f7eefaU, 0x1fee6dc00e5140cU, 0xd130a030b06f917U, 0x6ede00220e802faU,
  0x5f7fefef3e8f80cU, 0xf808e302fbf6fef8U, 0x17ecf9fd09f8fc0bU, 0x6fcfd06faf2fae8U,
  0x1006fbfa02f8f000U, 0x6fa1433050410f8U, 0x2f60e060910f9U, 0xfe07030201fdfdf0U,
  0xdfa1d08fc0ff105U, 0xfae8e404f70b1dffU, 0xf80003fd0704f9fdU, 0xe9020f0cf909040eU,
  0xfc03f5150406e607U, 0xfa06f204fef6f818U, 0xfafcfa0304f9fcf1U, 0xe6fa00f1e901ed04U,
  0x3fef601010c05f7U, 0x1bf410010ef7f61dU, 0x70d01f606fcfeddU, 0x605fd0df7ea0819U,
  0x1af41404f5f610f0U, 0xb12f0faf5f8010cU, 0x7080207f3f5f706U, 0xff060903f409f8fcU,
  0xfc0cff17faff10faU, 0xd1008f9fbf500e7U, 0xfefefafd0d110112U, 0x103341af80807feU,
  0xfffd0210fa010af7U, 0xc1007f40a050a01U, 0xfb010afff80500fbU, 0x200f4fc09fa0a05U,
  0xfdf8f4e5f71bfbU, 0xf3f90104fdfafffcU, 0x1004ff0300070bf4U, 0xfb0910faf8fdf600U,
  0x7ebf20309faf7ecU, 0xe30df6f60e06fa06U, 0xf703000100eae708U, 0x5f305090af914ffU,
  0x5fdff0cfa05fff6U, 0x40a0bf80007f0f8U, 0xfef0091d0d030bffU, 0xd9f1191607f8f8f7U,
  0xfafc1009fff3fb05U, 0x12f6e9fbf30dde02U, 0xf700f1f9f6f505f7U, 0x1ceaf5ea16f5f8fdU,
  0xb141702ecf9f604U, 0x60bf60201fe05edU, 0x1806ffe6ff0005ffU, 0x3f80716fc06f70eU,
  0x14ed0016fdf7dd07U, 0xfafcfc11f5ed0506U, 0xdf02fbf71804f304U, 0x6fcec0afafffbf4U,
  0xfbfce8040efa0af8U, 0x70b050af01200fcU, 0xeb15e8fc080c01e3U, 0x90e0f03ffd70305U,
  0xb0407fdfe08f210U, 0xfaeefd130ceff902U, 0xfb05edfcfb130102U, 0xe0006f60f0def0fU,
  0x1405fb030af40001U, 0xdddfcff1a090709U, 0xfd130ae9f9fcfb02U, 0xf32806fd09020601U,
  0x5ebfbfe0e0a0806U, 0x3eafb15fe0c0417U, 0x10fdfffffef50415U, 0xbfd03150e1705edU,
  0x5f5eb1700f202f8U, 0xf606ffe7fe03fdf8U, 0x5ffe700f4f7fa09U, 0xa040d0003f706f5U,
  0xfbfdf604000205U, 0xef20010f9faea04U, 0xf408fcfcebff1defU, 0x508fe0e131206f0U,
  0x80804f1f2f5f801U, 0x3fb0604ddf906fdU, 0xeafbf6f70bfb0904U, 0xfeff0e0203f4f9U,
  0x8fb14fefb0a040fU, 0xff08fdd6f7f807fdU, 0xf8fc080d08f9ff01U, 0x50b240805f6fb04U,
  0x9ec0b0d03f5f203U, 0xffee0c0efa16020fU, 0xfa0c06f708ef01ecU, 0xffb06fc0218f613U,
  0x5f6f70d05070709U, 0xfbfffa0005def3fcU, 0xf70c04030ffff3edU, 0xfcf0eff7fdfe0a06U,
  0xf9fc0ae5fcfe06f9U, 0xfffffdff00fcf0f5U, 0xf1005eafffe0bfcU, 0x20d0405f3000008U,
  0xaf4fa010112f7ffU, 0xf31d11fb17f3f21cU, 0xf90cee0312f1f90aU, 0x808f303fc070706U,
  0xfff70408fe0800U, 0x3ffef0bf7fd0c08U, 0xeef2faf00910130cU, 0x802f607040c060aU,
  0xfd0602ec0af80205U, 0x8f102f504f5faf2U, 0x106fdf7ed0705f4U, 0xf2f10cfc0dfefd07U,
  0x11fa050afd0102eaU, 0xff16f203fb0b0e09U, 0x1901010009f81dfeU, 0xff1c120e07fc09f7U,
  0xf317f908fcfefafcU, 0xfcfa03f703fff4f7U, 0xefff409f90d03f5U, 0xb06fef7fcffeef7U,
  0xff02eeef0ffe0903U, 0x8ef0203150dfa03U, 0xfe080d00060611f9U, 0xff00efcf10ef70cU,
  0xff5fffd04fe0902U, 0x20bf60821050c04U, 0xb020cfcff0505f8U, 0xe30bffebeee80bf5U,
  0xfcf4fe08ee0c0f09U, 0x13f91504fdf711eeU, 0x900fb07fd0309ffU, 0xfff70af903f60907U,
  0x20c08fd0c03fd02U, 0xfcecfcf5fffefbU, 0xfefef0fef7010504U, 0x1030aed0407040bU,
  0xf5f6050cff010807U, 0x206020301050109U, 0x3fa02fff7fafa02U, 0x7fbf907f90504f6U,
  0xefc0405f7fc0203U, 0xfefd001200010404U, 0xbff03030026f9U, 0x7fb050501f904ffU,
  0xf90bf3d900fd01ffU, 0x2fd0b000115fd00U, 0x502f4dd0101fdfeU, 0xafbfb03f1f7f809U,
  0xfe110e05fafff61eU, 0xe9170eef00e6fceeU, 0xaf9fdfc00fbf608U, 0x100fb0cfffefb07U,
  0x50709ff0dfc0ef9U, 0x515f6130900f705U, 0x6fef91005091207U, 0x3eefd15020cf6f6U,
  0x10030814080d0104U, 0x30202ff01f2fcffU, 0xfbe90efd0204fdf5U, 0x7ee05d9f6f7f505U,
  0xfafefd02f9f8fd08U, 0x3ee1303f8ebf510U, 0x3f7fcf214f00906U, 0x510f4f2f70105fbU,
  0x8fffdebfff0fd0aU, 0x1eefc01f80b06fbU, 0xf7050bf1ec02f9f8U, 0x10003fc110c0df2U,
  0xfbf401fb03f80b12U, 0x5fef9fd04090918U, 0x40008f310f8f703U, 0x70e0bf0f3070608U,
  0x90303fc1116fdfeU, 0x6080bfbfaff0f09U, 0x8f2f1010efffd04U, 0x1fefefffeeefbf9U,
  0xdfeafa0efff3fff8U, 0xfafb04eaf80fee0aU, 0xe815fafbf4fdf7U, 0x12f701f8fd14eeeaU,
  0xf8fa0605f710f206U, 0xf00306f6f806070bU, 0xf5fc06101b01ffe7U, 0xf4fe18fde708f2f5U,
  0xf414fcf807ee0d0aU, 0xfe01fbede61e080dU, 0xf50509e4f902fb00U, 0x102fafe01fde8fdU,
  0xe7fa040e0b04080dU, 0xf4ee0110fafefb05U, 0xf8f40206fa06feU, 0xf803eb000206e810U,
  0x3f60cff09120501U, 0xfff70bfbf9111900U, 0xf7fdf21af8ecfe15U, 0x1000fff90506190aU,
  0x60100050601ffU, 0xf801fd0011010000U, 0x6fbfffcff030c00U, 0xffe406fefbfefc01U,
  0xfffe00021c010407U, 0xfefd0303ff0206ffU, 0x103040607fffcU, 0x5fffff80603fdU,
  0x4f9fd02fe02fa03U, 0xff0104fefeff02feU, 0x2f100000604fff9U, 0x404fd03000ffdfeU,
  0x50002feff012300U, 0x302020000fb0008U, 0x307fb05fe020209U, 0x7ff0601e6fdfefeU,
  0xdee90a0ef9fbdcU, 0xfcecf4fcecf2fc05U, 0xf0ff130bfe060b05U, 0xe4fcf80213fcdfe7U,
  0x80dee02eb0611ffU, 0x510f9d90900f707U, 0x7f1fefff204d1e6U, 0xfd00fb0ff2070e05U,
  0xd07fef5ee19f909U, 0xe90a08fdf31009fbU, 0x501e80102fafc04U, 0x5ed0804fd1102fcU,
  0x9f5fef6fc00fd13U, 0xf0f8000425fc0a04U, 0xf609f1eafafdfafdU, 0xfc0e0bfcfdf8fd08U,
  0xfe0102fbfd0600fbU, 0x1f7ff02f6fe0702U, 0xfb0208f703fb0411U, 0xa01fc0cfefa01feU,
  0xff03ff00f7f30104U, 0x100fc0cfd0007feU, 0x1204f1040102f700U, 0xfefffe0b070809U,
  0xfafe060700fef701U, 0xfc05fefc02fd0e00U, 0xf2fe05040efbbdffU, 0xdf20202fc01fa0eU,
  0xfbf11a0d0500fffcU, 0x300f5fe05140102U, 0xfa06fdfe00fcfcfcU, 0x1fe0201f8000209U,
  0x307f8000000effcU, 0xfe0307fd0005f300U, 0xf09fbf9f9f302fdU, 0xf601fbfefc0bf8f6U,
  0xf8f9f6f3fbfdfc0aU, 0xfefb17f0f8ff0dfbU, 0xf8f2f51002fe01f6U, 0xf70601050af902fdU,
  0xf10214f707f5ed07U, 0xf80ffdfaf9050204U, 0x9f8fcf800f7f902U, 0xfdf6fefb00050600U,
  0xfe0bf9feedf0fffaU, 0xfb00fb02f3faf4f9U, 0xfe05fc00f7f9fa00U, 0xfefefffffffefdf9U,
  0xd0009f900040007U, 0xfffe060e0afbfd03U, 0xf716f7eefc060c05U, 0x4f7fa0a08ff0b02U,
  0x4e709fb08f9ea04U, 0xfcf201f50e07fc00U, 0xfcfd0cfe03ff0b09U, 0xf20801fe100bf901U,
  0xf40305fef1f909eeU, 0xf2f60af1e5080003U, 0xf8fd05fb090c0205U, 0xf30af00701f0f3fcU,
  0x3fb04f708010317U, 0x1200f3fcfbf4fdfbU, 0xef0309f5f50afc01U, 0x3fe04fe0d06fb19U,
  0xc03ebf009f51800U, 0xb09fbf3f5f617U, 0x7f6041a0906fcfeU, 0x9f92305f207ef14U,
  0x1ff0a05ff0a01ffU, 0xf707fff6edf100U, 0x4f5e901d803f5fbU, 0xf7010509e8fd17U,
  0x808f9f103f3050cU, 0x6ee04e701010904U, 0x703f7ff0215fffaU, 0xec05ff04fff9fdU,
  0x610f80102f50013U, 0x40bff040809fd0eU, 0x609ebf50bec0717U, 0xe4f6f901fff60115U,
  0xfdf40afe120300fdU, 0xf005fd0204050006U, 0xf6050909f5fef105U, 0x8fc12fdf40d030cU,
  0xfb0b05110efdf2f9U, 0x5fe0cfc0601f702U, 0x70800fd04f7fb06U, 0x5fffc080104f302U,
  0xc11fa08fc0cf409U, 0xf8fc040301ff0402U, 0xf70409fff808000aU, 0x30e0afd0700fb04U,
  0xff6f103f8050504U, 0xec0103faf606fe03U, 0x1f31bfffcf5f9fdU, 0xfbfdf6030607ee05U,
  0xdbf9f8e800062010U, 0x20d0f0afbfcfc0bU, 0xf3fdf1fd13f4f9efU, 0x7fdfe01fee6f105U,
  0x80206f808180106U, 0x60513f4fc050609U, 0xfafbfcf5fafb0300U, 0xc00fbf10d07f4f6U,
  0xb03fe040a04f1fcU, 0x2e6060bff00fa01U, 0x500f301f809ff04U, 0xfefcf61300f70dU,
  0x11f10b031208f90eU, 0x40308fefa08fdfbU, 0xfe0202f9e8fe060bU, 0x6fa030afcfd1001U,
  0xff08ef10f1f0f105U, 0xf2d7fdef021403faU, 0xfefb08fa05f30d01U, 0xfdff01f80ffc0310U,
  0xde01f101060700f0U, 0xdfaff0f08fdff18U, 0xed09eef6e914fb01U, 0x314fb17e905040dU,
  0x20602ebfb1719f9U, 0xf912ece9fb14f305U, 0xf81206f0f30a0904U, 0xebee0bea020508U,
  0xf6f205130ff4e903U, 0x12e8fc09051403U, 0x1f9f6f8f0fb19f8U, 0xfafe010e0500fd06U,
  0xfaf3fffb0205f7feU, 0xfae6fa030c0000f9U, 0xfa0c020dfcdc0c04U, 0xee602fee5fd0806U,
  0xf4090a0d0500ffffU, 0x11ea1704f312f8f5U, 0xfaeb0218fefae40bU, 0x3030f0bfefefaefU,
  0xfd17f8fd03fc060fU, 0xe3fffb0c0ef90806U, 0xedf4f5fdfc01fe08U, 0x904fafafe05ef00U,
  0xfc06fd090803fc09U, 0x701fe00020603U, 0x803fbfffe0d0cfbU, 0x5fb04fff3faf8f7U,
  0xfc0df5ff07fffa00U, 0xfdf9f0fff80003f3U, 0x180b060401f303efU, 0xf30303000202ff0cU,
  0xe100efdfaf00bfaU, 0xf70a04f30d04b601U, 0xe70c0c0d01f00cf6U, 0x401f90bf618fe00U,
  0xe9fc101606f9f403U, 0x10af102f8fce803U, 0xebf20200fff6040dU, 0xf4f5f401fbfc0901U,
  0xfcfc09040dff01ecU, 0xfcda0004f8071adfU, 0x3f9f608fff80601U, 0x5f0faf2e5fcf8f7U,
  0xf903080dfffffb07U, 0xa080208f7020bfbU, 0xf9fcf7fef1f9f70bU, 0xfd051304fe0bfcf7U,
  0xfd100a03000af8U, 0x1102fcf701f70bfcU, 0xfcfc050711fffd07U, 0x1f706fcfffdfdfeU,
  0xb010708fc0cfefdU, 0xa06f7fa090709ffU, 0xf9eefb090205fcfdU, 0xf10d0b0c01fef6f1U,
  0x51910f8f6fe02eeU, 0x4080f00f90af0f7U, 0xb00f5fc0700fc09U, 0x812f40a05fcfe01U,
  0xf80207fdf409090aU, 0xfb220004f50e1510U, 0xfbf30402fa0602f4U, 0xfcff0b06f503fcf9U,
  0xfbf9fefcf7f502feU, 0xfb170405060400fbU, 0xfe03f404f10008f4U, 0xf907010d0cfb01fcU,
  0x401fffd0100feedU, 0xfc050bfef6070504U, 0xffa0dfff00802ffU, 0xf6fdfef60903fdf3U,
  0xfcfa08f8f3f6ff07U, 0x1b0f02ec04f8fa03U, 0x5fdfafc0bf60001U, 0x202dff2f2fefd03U,
  0x106000201ebf503U, 0xfe05f8f40ef300faU, 0xfe0104e9f30704feU, 0x40911fcfefaf9f3U,
  0xf403f6f3f20010U, 0x200fe03ec03fa0bU, 0xbe407fff80a06U, 0x1df80504fd000bebU,
  0x30b16ff0224feU, 0x9f7070007001106U, 0xf8f0fa08f81100f0U, 0x3fd00fafffc0bfdU,
  0xfdf9ff07f9ee0708U, 0xf1000400fbf80803U, 0xfbfbfbffeffdfe1aU, 0xfc0d0c03061ff408U,
  0xf2f6e3f8fbe100ffU, 0xf5f51505ff1c25f3U, 0x30303f10ffbee01U, 0x6f7ea09fb0eebfdU,
  0x61a12ed00f6fc0cU, 0x2020f01f7060111U, 0x9e91405f71df40cU, 0x9fe0e0afa020702U,
  0xfafb060015ec01feU, 0xebfd070e00f90608U, 0xf202fc0dfe0506fbU, 0xfe1c0cedfff3f3f1U,
  0x404f9f902f700fcU, 0xd902fbf70efff6feU, 0xfc03fb03f3090104U, 0xffe7e90bfdf914fbU,
  0xbfde9060110fefeU, 0xfb0cfff8f9f801fcU, 0xe8f40dfcf603fd01U, 0xff07ed04fa07160dU,
  0xf3fbfc0a01aa19U, 0x7fef9e9f80cfe01U, 0x5fef70b06f6ed07U, 0x1fafcfa0beff4U,
  0x7040d0405f90809U, 0xfa07fa04fb0ffa03U, 0xf507fc05f7f6ff0fU, 0xb000302f7f802fdU,
  0x3fffc00fff60ae5U, 0xedf706f8effc1a09U, 0x1fe0bfbfe0608faU, 0x704f917fd09f207U,
  0xfb160a12fb07eaeeU, 0x14f704e9020c06fcU, 0xf304f01201ff04f0U, 0x10020bf9f2fced00U,
  0xf5f7f5f6f7f30f09U, 0xf813e9050f09f8efU, 0xf411fbf800faf60aU, 0xfdfcfaf908f71107U,
  0x5f5f3f9fbf9020eU, 0x7f602fdfa001001U, 0x11f8120509f5f9feU, 0xfd0109f20cfc0a0bU,
  0xd0c110e02090100U, 0xf20b060201f7fefeU, 0xfdfd13ff03010c0bU, 0x1f907f7f5f30805U,
  0x700f510f90705feU, 0xefedf3fc031d04eeU, 0x140e0c060f120a07U, 0x11fefff109030115U,
  0xc030901fbfe0403U, 0xc04fc21f60214edU, 0xe2000411fbfc0506U, 0x31a180705f2fff4U,
  0x502e7f7131afd06U, 0x7e0e7fb0103d102U, 0x1003f4ed0b0e0c0aU, 0xbf3edf8ed08f814U,
  0x160b1011f4fa02f5U, 0xf4f717fc0efdea10U, 0xa0c06ff0706000eU, 0xa01fefdf70eff00U,
  0x3fbf9030e020603U, 0xfb06f4020dfef902U, 0x101de0003fe07f2U, 0xf60001d2090f0308U,
  0xfefe04030305fefcU, 0x103fd060002faU, 0xecfa0a000503fbfeU, 0x103fff800f7f1U,
  0xfe021404fb000002U, 0xfb02000af103f7feU, 0xa0ef3fd09fe3cfeU, 0xcf5f308dd02fffbU,
  0x903d9c9f6fffdfbU, 0xfd0400f8fb0ff9U, 0x4000ae10305f907U, 0xfa020203030505ffU,
  0x801000803e5f50dU, 0x5fe030bf6f9fdf4U, 0xfdf40105000003faU, 0xf6fcf8e50206feU,
  0x20e910f0fe050001U, 0x70116e3ef07070aU, 0xe20318faf3eef801U, 0xbf108020007fedfU,
  0xff7caecfbfc08fcU, 0x12fa0e14fd0508faU, 0x1112fb0b120c090bU, 0xfb08eff3f9000ffcU,
  0xfb17ff1a120512fdU, 0xf7fd06fa0dfecbf9U, 0x6eef2080afc06e7U, 0x514040508f600eaU,
  0xf0ed0ae702180efdU, 0xf00e0ceefbeee000U, 0xf21afa07f3faef1aU, 0x20cfeff1af503dfU,
  0xf6100706f7fb1ce2U, 0xfbff0ff601fffd06U, 0xf609060d03110020U, 0xbfffd05f9070b0cU,
  0x8f2fdf905e51500U, 0xf50adb0000f3f9fdU, 0xfdf6fcf9020dfc06U, 0x6f1f6fb041dedf4U,
  0xef6f00de4fd00fbU, 0xcdb02fff0f0fe05U, 0xfff408f0f70305ffU, 0xf104ec04fbeaf202U,
  0x7f6060d08060210U, 0xfe02f4fb04050609U, 0x30301ff0308fef6U, 0x300f9ff00fefb01U,
  0xb02fefafd02fffbU, 0x8fc0700eb04f3e3U, 0xfa1109ee13fc0405U, 0x703000101f1fff2U,
  0xfaeefaf6080ef504U, 0xf101040004ff0012U, 0xf80aeefc030502feU, 0x14fc141b0604fc04U,
  0x18020705f4f605efU, 0xeaff01f9020c0007U, 0x90df10302fef80dU, 0xf4fffffee802fa05U,
  0x2ff1301efffff0aU, 0x5f9f906000800feU, 0xfaf6060aff05f8faU, 0xeff02fdfbe8110cU,
  0xf202fd04fef9f909U, 0xdfdfdfbfb0afe00U, 0xfdfe07f10e22fc05U, 0xff0803fe09fff7faU,
  0x70803fefd0d07ffU, 0x3f90612fe010904U, 0xf30b08fc05fcfc09U, 0xf40c05eb060301feU,
  0xf3f7f9fefe010100U, 0xfa04feffff0b01fcU, 0xfff9ee0c060003eaU, 0x6fef8ff031d0306U,
  0x20fedff0111e7fdU, 0xebfcfef307f4f0faU, 0x1b04f301f9fbfb06U, 0xf8f1f6fbf7f30a05U,
  0x80bfe0cfaf7000eU, 0xfd0cf50f06f001f9U, 0xfd0febf3e6f900fdU, 0xb0102f8e6f50b06U,
  0x9ed030514fffffbU, 0x5f60efd10fc04e2U, 0xaeb07f50704fe03U, 0xf5e12216190100ffU,
  0xfafef30311fdfbf0U, 0xfcf80506fb0101e8U, 0xfc0bf0f8f409f805U, 0x30d08eaf3ff03feU,
  0x70f0ce7f10712fcU, 0xf209e4fff8f4f8faU, 0xf9fa01fa0311040fU, 0xfe0003fbfa05eff6U,
  0x4ecf5ecfdecd301U, 0xb0efdea0802f100U, 0xbff03f912ff01ffU, 0xf0010cf706f90e01U,
  0xee03fbeef4fffbddU, 0x10f8050df21206eeU, 0xcfcf3f8f70802fbU, 0x90bfc0708021904U,
  0x11faeef9e90205ebU, 0x201f0faf6fceef0U, 0xf6fdfa0afefe061cU, 0xa0ffcfa02030b0aU,
  0xfaeb0d031203f20aU, 0xfbfbfd07fd04f6f9U, 0x3ec1803f8f908ebU, 0xfb040a010ff9feefU,
  0x801f2100009fe0aU, 0x12051602040ef402U, 0x506e605fbf4f50bU, 0xa0007080a03ef09U,
  0x6fdeff904051bf4U, 0xfc03ff0ef20007fcU, 0xf90604fafdfdfff6U, 0xfe060eea030d04fbU,
  0xf4050cfffafb05f8U, 0x9060803effafb02U, 0x1719fbfefd0000U, 0xa04ff03fe0ef60bU,
  0xf60401170c06eb0cU, 0xfbfbfa02eeed09f3U, 0xf7fdeb02eafe0ff7U, 0xfdff01090dfd0f02U,
  0xf51011fd08f0020aU, 0x5f9e10ff213f706U, 0xfcfff2e7f5f70cefU, 0xeb00fe0800f1ed07U,
  0xe8fb09fd09fc110fU, 0x4f802faff0bf101U, 0x1ef03080501010fU, 0xef0409d50306e306U,
  0xfb03ff0304fa01f4U, 0x1010505fa000ef2U, 0x4fbfc08eff51704U, 0x7020a030b09ecf8U,
  0xfdfc0101f108f705U, 0xb08fdf700fafe05U, 0xfa07fff003f201f1U, 0x2f301fe0906ff09U,
  0x6ec03fe03fb0e0bU, 0xfb0501fa0207fffcU, 0xf705fef6f6fbf906U, 0xfefd0306f705ec03U,
  0xf60c03ff030e02faU, 0xfff090902f80f00U, 0xfe03fc05fcf8fe04U, 0xf6000008010f0400U,
  0xa0108fb0205001aU, 0xfe0b03fefb03050aU, 0xf8ff030703080306U, 0x7000008ed030605U,
  0x409070401fafc00U, 0xf00f0de9f8e9001eU, 0xfef6fb02f6f7140eU, 0xda08fff3e9fc0c01U,
  0xfa06ffff0d05f201U, 0xffdf4fe0c0aff06U, 0xfc1514fa0df114fcU, 0xeefbf7fefa001e07U,
  0x10feed12f0ff0e0aU, 0xb03e7ff0e050702U, 0x5f2fcfc15fd06e2U, 0x11008fdfee90bffU,
  0xf2f30606f90803feU, 0xf10816fe04ffe00aU, 0x6f90306f606e602U, 0xa06f9fbe9fe08ffU,
  0xfe14faf8f7fe0ef4U, 0x800fff600080a09U, 0x9f600faf3fff802U, 0x201fcf2fdf70502U,
  0x702fbfbfff607fcU, 0x5ff04f9fe0602ebU, 0xfcf40bec100aff00U, 0x609fcf402fffd03U,
  0x11021602f60505f2U, 0xfbfa010512040408U, 0xfbf9f7fbf5fcebf2U, 0xa08f608f20703ffU,
  0x1511f50a0d040504U, 0xf9ef06040c171304U, 0xf902080c06ff02fbU, 0x4fc0008faf8e801U,
  0x41ffc0efa0201ffU, 0xf50c00f60301fefdU, 0x9fbfb0fe6f3f0e8U, 0xeefbf516050603f8U,
  0xec01f4e6fef911faU, 0xeffff5eff608030aU, 0x6ff03fb0c06f4f0U, 0xfb0bf4fef3f802fdU,
  0xfc010411f5f50c02U, 0xf70c0611f50907f6U, 0xdfa0af703f02003U, 0xed11f2010e020803U,
  0x9090bfc031a00feU, 0xbfd0d0115fa09f9U, 0xe70206fc031b06f2U, 0xfd01070806fee1f2U,
  0xb00f8fc01000501U, 0xf6f5f9f302fe08fbU, 0x3fa060104f9fef6U, 0x10f80305fb04fe0bU,
  0xa03fbf9fffef80eU, 0x7ff05ee000dff06U, 0x3030aeb000deeffU, 0xfcff040902f91002U,
  0xbf5f9010107fbffU, 0x50219080a0d0410U, 0x9feff06010e0305U, 0x108fe010208f710U,
  0x6fffe0400020317U, 0xff03f8ff15f5f9fbU, 0xe8f7f7f6f6010af3U, 0x60402f5fdfe01U,
  0xfefffe070a070408U, 0x30cfa08f2fc0701U, 0xfd03fa030006f6f7U, 0x1fb030704fe090eU,
  0xef80afc0d1dfef4U, 0x1080a0e02fcfc02U, 0xfbff01ff00fb080eU, 0x2f30ffc0a050909U,
  0x82108f4f70a13fcU, 0xfaf3fcff0202050aU, 0xfcfbff0d0efffe02U, 0xfdfbfdf9ff1a0706U,
  0xff0205000bfb07f2U, 0xe9fd08fdf9fc06f0U, 0xd0a09ff0afb14f5U, 0xf6ff0512fa0ffd09U,
  0xfafafd07050006fcU, 0x1225fd03073815f8U, 0x40304fe0505f600U, 0x1fe0b03fc080806U,
  0x1001afffbfd09faU, 0x1fa02fcfb02fdU, 0x500f1fbf2fc0303U, 0xfce602fe0405fb06U,
  0x2f804fb05080308U, 0x4fa0304ed05f9f4U, 0x70a02db0206ff11U, 0xaff020400020104U,
  0xfd0905f500ff0ff7U, 0x10fe0106ffffff01U, 0x1f4f00afb0507feU, 0xffe812ff06030001U,
  0xe2f1180cf50bff04U, 0xfdf10a030c09fd0cU, 0xfeeef003fa01fcefU, 0xa000901f8f400fbU,
  0xb20efffa0306000cU, 0x501fdfdf5fe07f3U, 0xff00f5f2f50001U, 0xf5000d090f091002U,
  0xcf10b0ffb0207f4U, 0xf306fcedf10dfaf8U, 0x90115ff01e20203U, 0x11fc02ef10ff01feU,
  0x2f1f50501fcf211U, 0xf8f8f3ff0c080709U, 0xfcfefff913f3080bU, 0x15f1fe0206080003U,
  0xf60500eb08e7fb08U, 0xeef4ec04060bfcfeU, 0x15011c08050af9fdU, 0xf0613ee06f3dff5U,
  0xf9da02c1fefaf8f9U, 0xeaf118f8fe04fbfeU, 0x3f4f7f815021a0aU, 0xe50505fcf100e8f5U,
  0xecf7f7f9d3fa0601U, 0x112f91907090a1fU, 0xfd0a01fdf7f40012U, 0x3fc0904f3030f14U,
  0xf4ec120afcf605f6U, 0xbf606f9e724080bU, 0x500ff090afcf6f2U, 0xfcf8f2110207ff07U,
  0x406030307fb0712U, 0x504fb0cf5040cfdU, 0xb00fdfe18f503feU, 0xfcffecf7f20a0dfeU,
  0xf7f4f70407f60600U, 0xf7f910f9faf904f2U, 0xf00416000c00ef02U, 0x20607fceff500f5U,
  0xfb020a030403f8f9U, 0xf9040ef5ff0002U, 0xfbf2100205fbf4faU, 0x702fb00f10afffcU,
  0x16ee0f0e0318030dU, 0x13faf0fdff040dffU, 0xf3051706032407f3U, 0xf607fff805111df7U,
  0xf8ebfbfcebe2f607U, 0xf100efedf6010bf2U, 0xf806e90a0408f007U, 0x19fe0417f9fb1808U,
  0xec04f014081a0407U, 0xf3f9f413ef0408e5U, 0xc01ffe403f40504U, 0xe50304cb07fffb03U,
  0xf01019f9f7191405U, 0xf2f2e2e00a0cfc05U, 0xb10f8fcf40c07feU, 0xe9f20602f50bfbfaU,
  0xf10109fb02f700f4U, 0xfc10f1fff0131a0eU, 0x40b19f1fc05ddfbU, 0xfd0100170210fc04U,
  0x206fbf300f40705U, 0xfffb07fc000206f7U, 0xff02f80712f7fb02U, 0xafb0902f8f308f7U,
  0x904fdf904000400U, 0x1f712fb02060808U, 0x5fa0afbfa04f40aU, 0x2010afaf6fefdf9U,
  0x100b010ffaf9ff01U, 0x105fc05fbfcf1fbU, 0xfafcff01010b0113U, 0xf5f8fafaf7f8fcffU,
  0x30b0d09fbf901feU, 0xfd0d470001fefcfaU, 0xf2f6fefafdfa10edU, 0xfaf6fb050107eff7U,
  0xf70c0e00fefd00fbU, 0xf008f8fe10f7fbfcU, 0xf3040afd180df60bU, 0xfefc020b080e0c08U,
  0xe906fcf5fe000bfaU, 0x2f40202fb090609U, 0x3fe01f80ef80df9U, 0xfdf9eb03f51a17U,
  0xe7ec0eeef7050dfdU, 0xfef1040eea080002U, 0xf30dfafffefd050fU, 0xf8fa081713030300U,
  0xe7f7e1fa15f608feU, 0xf70305f90f1203faU, 0xd8fd1afe01fef9e8U, 0x190cfeeffdf01a08U,
  0xce8fd12e917f610U, 0x3090a11faf003f7U, 0xfe0404fefdfeed07U, 0x8faeef60cefed08U,
  0xfefafc0108e11908U, 0x504eff70e130e06U, 0xf1e70cf1ff000b08U, 0xf5fbfcf2fff905eeU,
  0xecfffbfbff01fbfdU, 0xfa030c1d0009ffe6U, 0xe912030814fef2feU, 0xd220c13e4f80015U,
  0xef405fd050f05f4U, 0xf5fd0cf31809fd04U, 0xf50bfe18ff0005e9U, 0x211f1b0cfc0103eeU,
  0xfa01fef5fdf6f705U, 0xaf9f712fa00faf8U, 0x5eaff050c01fb08U, 0xfdfaf6fb0ef80302U,
  0x220608fe03fd02ebU, 0xdfa06f50905fd11U, 0xfaf8f4e7f50001f2U, 0xfb0108e61105ecffU,
  0xd03dcf9f4ff0911U, 0x5000210fa1106ffU, 0xfeff03ff01040116U, 0x1701f2fbf8fcfd16U,
  0xf40af70f0cf701f0U, 0x8f8fefbfdf6e6ffU, 0xfbfeeffc10e50103U, 0xfffc000505f710ffU,
  0xf207f2f6f1fb0518U, 0x4fc0a0f0bfff607U, 0xf604ecf6f1f70d04U, 0xf5f503fb00faebf3U,
  0x22ff0e00f9fbf5ebU, 0x800e31d1004fd04U, 0xfd02f005f3ff1205U, 0x11f608f2f30e11fcU,
  0x805f9fa0ffe0bc0U, 0xfc25effb061f0bebU, 0xf2f90e0a1a00f70fU, 0xc3efdffa12ef10f7U,
  0xf60df803f8fc0005U, 0x8fa090204fef507U, 0x80cfaf917f8f9eeU, 0x8fffdf207ff05f4U,
  0xfbf7ebec03ffU, 0xf109040f0204f108U, 0xfaf61206f701fbfcU, 0xfcfe08ea06ff0effU,
  0xf5f9f40cf4f1fef7U, 0xf8f501e1f7f2fe01U, 0xf617fa0403f3f2f1U, 0x1f8120c06f90bf7U,
  0xeafaf102fffffd0aU, 0x30402fcf7f1130aU, 0xfd010af9f4f7f205U, 0x70d0704e9ffea02U,
  0xf900f50802f6fe09U, 0x310fcf5090205f6U, 0xfdfcf0100102f7fbU, 0xf7faf408fffff606U,
  0x5f3f7f60802f813U, 0xfafafe0004f60507U, 0x10107f804010ff1U, 0xfffcf503f7080400U,
  0x1fc01fd0d00fbffU, 0x70cf8f8f40a0606U, 0x2fdfbf8fd05fcfdU, 0xf5ff060bfb08f008U,
  0x500fb050908fbf2U, 0xc0b2e1107060404U, 0x4fcfc0801040100U, 0xe03020500020302U,
  0x3f5fcf90a04080aU, 0x110fcff02fdfe09U, 0xfbe9fe09f004fe01U, 0x3080ffedefe06fcU,
  0x10fbfce702fd17e8U, 0x11faf6101102fb12U, 0xed05070b02f6110bU, 0xfafcfe11f602fbU,
  0xff01fd05f5fbf4f3U, 0xe4fc030914fb0d0eU, 0xebfeee05faf2f1f6U, 0x5ed0d0302f004U,
  0xeb06fdf70a050317U, 0x4ffd3eaf60201f2U, 0xf71302f900fe02faU, 0xfffbfde803eb06fcU,
  0xf70b0d0602f4f9f2U, 0x30d02fd02fd0012U, 0x80efcf106eb030cU, 0xfbf9f4fafcfa0400U,
  0xedf6f90dfe0dca0dU, 0xf9f504f3fe06fde4U, 0xfef2fcfff80dfdf0U, 0x1bf401f6180a1901U,
  0xe01fae80205e015U, 0x8ff050af513ee16U, 0xf801fef20705f80cU, 0xe405b4de0deceafbU,
  0x906f8fb12081106U, 0xeb06fef4e2fce708U, 0x18ffe604f7ef0004U, 0x19f1fd0df80eeffcU,
  0xeafe16f7ec09fd02U, 0x7ff090305010deeU, 0xe070124fe020af9U, 0xecfc0629fe0af4f9U,
  0xc9040d0eea000affU, 0x6e508ee0cedff13U, 0x19fee90cdef3f6ffU, 0xf3fa1afe090d050cU,
  0x706ffdef30b0cU, 0x9f8f90010050806U, 0xff00f6f30df3ff00U, 0xf90afc06e4fbfb00U,
  0xfd8030604eb03fdU, 0xff1104fe180314e3U, 0x50ffbfde8fdf8U, 0xf903fa13001d07f0U,
  0xf8030707090f1bf4U, 0x6090308faecfa01U, 0xc06f1031e0000feU, 0x121206fd01feeef2U,
  0xfdfc020702f619fdU, 0xf9fd07f70c06fb04U, 0xf9f5ebf9fcf2f8fdU, 0xf9fc0819050904U,
  0x915060600f605f8U, 0xd06f60a00ec12feU, 0xf9040206f7fdff0eU, 0xfd0806f102fe0203U,
  0xf812190e000b0707U, 0xf7eef9ef1b00f6ecU, 0x31d0afa240205faU, 0x9fa07060a0b0501U,
  0xf520f7040303f814U, 0xfa0b0200f30504feU, 0x104f802f707fcf2U, 0xf91606f30c07fceeU,
  0xfc110304031cf403U, 0xc0f04eafef9f600U, 0xf601faf3eff806ffU, 0x1402fcfd0003fb2aU,
  0x1905fffe0e06ec23U, 0xdf20fbf61cfae604U, 0x515060afce8fefcU, 0xd7fc03100c081900U,
  0xebf20934f909faf9U, 0x18eb04fd1efc200cU, 0xf5eafb01f2f801faU, 0x70af1091b03fb0bU,
  0xfc02f40bf0fde603U, 0x17f90603fee900eaU, 0x2f6fb0003fd0b04U, 0x5ff05f40afd01f0U,
  0xf2fa0a0b03eaf800U, 0xfd040400fff2fc05U, 0x5fbfc05090300feU, 0xf6fc0306f9010010U,
  0xfffa05fc02f9fb03U, 0xfcfdfbf80802f6f8U, 0xfd06f7ee061af600U, 0xf806f1100bf704U,
  0xfbf904fd110e0901U, 0xfc00fefbfff205U, 0xff01fb0601ff0503U, 0xf803f9fb040503feU,
  0x3fcfdfb08000501U, 0xd040100fe050200U, 0xfd03fefd070202fbU, 0xfd0701f100f9050aU,
  0x140314f9e80b00f6U, 0xb000008040bfe02U, 0x406070105f9f4faU, 0xfe03f6fb09070df9U,
  0x6f7f90206fb05f8U, 0x4fa080102f8050fU, 0xf8fffbf8f6f3fe02U, 0x8fcfa0006050317U,
  0x703e1fe010c0010U, 0xdf50310fb08fcfbU, 0xf7fe0702fb0b03ffU, 0x305020600040bfeU,
  0xf505060805fafbf9U, 0xf1070bff0afe1100U, 0xfaf9060100f2fd04U, 0x9f403f8fdfa010cU,
  0xfcf1ff010009f8feU, 0xe1f8030608fffbU, 0xa060205010b0607U, 0xf703030b03fa0909U,
  0xfb12070302fa0f08U, 0xfdf6f613f6fdfffcU, 0xb050b06fe010afeU, 0xf806fdfb03fcfdfcU,
  0x9120a02f9f901U, 0xfdf7fef7fef2fefdU, 0x408f9fdf70de300U, 0xf2f4f9f50b03fa0eU,
  0xf6fd08f001fc010fU, 0xa0d03fb12020bfeU, 0x6fcfaf9fefafbffU, 0x3020308fa01fe04U,
  0x9020107e7fcf7ffU, 0x2f9f520fe1103efU, 0x3709f2170022f6U, 0xbf7100a0bdafdd5U,
  0xf010eb10fd07020dU, 0xe508130afef7f6faU, 0xa0306030b10f706U, 0xf3fb0810f6feff10U,
  0xff08100dfcf3f7ffU, 0xf3e3090407f1f8f3U, 0xdf9250105190c04U, 0xfc1d01fd0707f30eU,
  0xf10204f4f80e050eU, 0x40702fe01f116faU, 0xf2fff7fe02070403U, 0x1bf8fe11fc0715f1U,
  0x1fe03fb01020703U, 0xfad902fdf6fcd603U, 0x800f9fef3fa04U, 0x1fdfd04010208fdU,
  0xb00e601040c0201U, 0xaff00fefe05ff05U, 0xf3f709fd0101fafcU, 0x190201080500f1U,
  0xfd060101ff01fffeU, 0xfc03fef5f5fcff06U, 0xf6fefe2c07ffff06U, 0x6fe020b050700ffU,
  0xfe00ff01fffdfafbU, 0xed00fd32070301fbU, 0xf401fdee0401fa01U, 0xfd02fa09ff00fefbU,
  0xf02f600f7fdeffbU, 0x2ebfce9f6fffd06U, 0xf8eef61317f2fef8U, 0xf4fdebfe1ddc0cfaU,
  0xf9fb1104f6030e09U, 0xfc080d16f901fa09U, 0x7fbf6fef9f411U, 0xf704020df502f9f7U,
  0x1f01a1aff080805U, 0x11e3100708f30fffU, 0xc0bfa020a0ff326U, 0x3e907030408f90aU,
  0x405fef3f90508f4U, 0x705f7fffcec06faU, 0xfd00f1ed10f90effU, 0xff509f6fb05f807U,
  0xee0ce8121beaf5faU, 0xfa2112f60ad51b0aU, 0xfaf9fe1715090800U, 0xe501fd0e070adb0aU,
  0xf3fe0b010f0402d2U, 0x4f7fcfe10c1f2f8U, 0x9f2fd082a07fdf0U, 0xdcd7050ed5ed0c07U,
  0xd9ef04f701eb09f6U, 0x309f4050105e903U, 0xee14e32ffbf7ff21U, 0xfedceeff05edffffU,
  0x1c1bf8ee020d0009U, 0xed1b00fe0a0c020dU, 0xe70cebfe01110815U, 0xfb0e1400f7ef0b1eU,
  0xeafe0f07f7070906U, 0xfd1108f30a04fafeU, 0x305fb0b06fc09ecU, 0xf8070afde1fef1fdU,
  0xf4fefe05f1fa0a05U, 0xc01f6100a06fe06U, 0xf70b06f903080aU, 0xf707f901fd01020bU,
  0x8e80105f0f0030aU, 0x60aff0607fff7edU, 0x4fcfffafafdff04U, 0x807fbfffb06fa36U,
  0xfef7fb000ffe020bU, 0xf2060392ebfbfd0bU, 0xe7020e12f4fdfcU, 0x10f6f902fcfe10ffU,
  0x21b0503f8f7fb08U, 0x1fcf0f605030507U, 0x201111ffffedebf6U, 0x30109fc0d1af80fU,
  0xfcf6f4050b04fafdU, 0xf909f4faf0180304U, 0xe602ddddfc0fe9ebU, 0xfd01f80914040d1cU,
  0xfc18e5f9f9020609U, 0xfdfcfd03f8fcf904U, 0xfefa2000f0f9040dU, 0xffee0ff6ef0efdffU,
  0x27011f0ffc31f11fU, 0xf5f5fdfe20ebfc07U, 0xb071b00f1c71be6U, 0x1e06fd0af8ff02f2U,
  0xd06ed020e00fb0aU, 0xfdfbf50df90d17f4U, 0xf200f906fa000002U, 0xfdfc020009fcfaf7U,
  0xfefb0afc08030004U, 0xfef2f6fa050404f8U, 0xfdeefaf90310fb0dU, 0x4fe0106f5ffffU,
  0xfc09fff700030bfcU, 0xf70a0610f905f5f7U, 0xfc0a030606fe011bU, 0xfb06110dfffa0709U,
  0xfdfffa0d0204f904U, 0xfaf203f900fffb00U, 0xfe060001fcfdfb00U, 0x3fbe9f900f8f409U,
  0x210b03120de3e213U, 0x1f608f60103fefdU, 0x10eff205f8f6fc12U, 0x4fffb02fd0bf5fcU,
  0xff0cfaf70804f60aU, 0xfcf00b04fffff600U, 0xf617f8f10f0607d9U, 0xed06010601fc0506U,
  0x5f3f1e7f50e18e9U, 0xfb10fef1070509f9U, 0xf9030afc0702fef7U, 0xfe05fcf501fed006U,
  0xee0603f8e80cfa01U, 0xf030200080bf606U, 0x17f9fafdfd120905U, 0xdffd020203f9fd00U,
  0xea0b0cf5f30a05f2U, 0xef1f604e1ff050cU, 0xf8ff070f0bed09efU, 0xf7fb09020e0c0cf9U,
  0xf6fb01fcfff00feeU, 0xf5070b1a10060708U, 0xd02030506e00600U, 0x3fff8ff00f5e6e3U,
  0xf909fc01f410fc1fU, 0x8defffe11ecfeeeU, 0xfdf70607010215U, 0xfaf6f4d209f708f6U,
  0x3080af320f8050fU, 0x31001fc07f8f2f9U, 0xf80ef908ecdef715U, 0x14ff02f50ffc0309U,
  0xf90d0a01f30aee00U, 0x6d91021e5060affU, 0xf5f510091a0d07f3U, 0xcf510fbfef70d0bU,
  0xf1e3ecf107e8f3e5U, 0x1ea0f23fdfcf2f6U, 0xff0c0b0312040d01U, 0x4f40f03dcf91201U,
  0xf70b0d03f40efce7U, 0xf5d606e61efe16f0U, 0x1310f609f31b020dU, 0xfedae8ecec03fcfaU,
  0x1cff000f030a0b20U, 0xe021004fafd0bf0U, 0x404f7f21609fe10U, 0xef600fcfe060425U,
  0xf90e09fb0b0bfaf9U, 0xfafbf9fbfeff0315U, 0xf8de0eeceefef214U, 0xf80aebf817080effU,
  0x601fced00fcfbfcU, 0xbfef6e1f80b03e7U, 0xffffef0aed00f4f7U, 0x4fb0f07080af9f2U,
  0xeffbf8f7040ff61cU, 0xf70408fef0040e10U, 0x150ddd01f6e7fd0dU, 0x8e9fdf104f71205U,
  0x1e070e0ff613effdU, 0x8ff0401e808eaf8U, 0xeb1315fc042b00eeU, 0xeb02fdf0010ee504U,
  0x8fc12f7cff0fcfcU, 0xfe05eaf0faf705f0U, 0xa0a0d0cd90006faU, 0xeb04f4000edbff14U,
  0xf309feec05f4f902U, 0xfaeee105f1150807U, 0x6f8f6fef105fb03U, 0xefcf4f714fb0803U,
  0xf80af403f61200f8U, 0x1080c05f9effc16U, 0xf504f704f9eb0327U, 0x4081505010804ffU,
  0xfb0108e20cf2f315U, 0x2ee0c04f9f005f9U, 0x12020efdfff8f3e9U, 0x90e07fe06fddcffU,
  0xf105f80b0110030dU, 0x30807f5fb0cf8f9U, 0x9fb00ff0401fff4U, 0xf311faffff01f204U,
  0x1f6fa06060705f6U, 0xfc10f8f712f1fd02U, 0xfe0d080000140808U, 0x20100fc05110003U,
  0x1e40d15f8f0050cU, 0x7fee6f2fbfd0006U, 0x3f10bfdf6fffe0cU, 0x606fdd601f80103U,
  0xf2fefbf9f702f8f3U, 0xf7ec0a05070308e0U, 0xfa05fd06090d01f3U, 0xf4f501fc01fe0bf2U,
  0xf90210fbf3ef01fbU, 0xf5e903020508f0eeU, 0xfaf806e30bf9f5e9U, 0x60104ffddfb0a0aU,
  0xf9fbef1708ff0df0U, 0xdf0fced27ee0505U, 0x80605211a090808U, 0xa0dfe03fb0419efU,
  0xe2f1faf8060108feU, 0xffff09f6fe05fdU, 0x30212fb0306fe04U, 0x30a0feb01f9fde5U,
  0x8f5f3fb12fffd0cU, 0xbf9f8fe08fe0410U, 0xe7e602f807f9eb0cU, 0x14000e13fec318f0U,
  0xdf0ed1103fc060aU, 0xeceb0a060e030806U, 0x110eebf2f9fdf8ecU, 0xfcfff907f5f3eaf5U,
  0x1d19f908010df2f1U, 0xfee6120dee180be3U, 0xf72108e809fef705U, 0xf020ef204fbe5faU,
  0xfe06150a00fe0dd6U, 0x1417050807fc06f5U, 0x209e6fd02f3fd17U, 0x5fff6fceff8feebU,
  0x1bf3ffff03f8fbfcU, 0x508ecf409f11107U, 0xed0af101ea090af3U, 0x9f3ecf406fe09dcU,
  0xfcfdfdfe010308U, 0x1f9021506060201U, 0x15ff02f9000cedf1U, 0x1907faf3fc06ed07U,
  0x6020c11eb05f9f8U, 0xf90702f909f00cfcU, 0xfa0d0be90202fbfbU, 0x907fdd7dc1bff02U,
  0x1303f808f7fdfdfeU, 0x705f3fdf200fbf6U, 0x1fd0bfffd18f7f1U, 0x4fd02eef80ff8fbU,
  0xf0f0fc0200fe0c06U, 0x13f8f4050017f6ffU, 0xfcfef9fdfa04eaf8U, 0xff000a0e0cfcf9fcU,
  0xfcf3eff2ff00fb1aU, 0x206f41911fefe00U, 0xf9f4e8fb04060900U, 0xff04f50111fefd06U,
  0x2f2f213f7fcf4f5U, 0x30b04f3f90c0e08U, 0x11fe12fefb09f104U, 0xfe06fe0afc0df70cU,
  0xfe04011012ff07eeU, 0x1f9eafb0ef1e713U, 0xdfdfdf2fc0204fbU, 0xf6faef0c0b0cfb06U,
  0x100bfcffedf9fcU, 0x7fbf50006f40b0eU, 0x105f8fb05fb0a10U, 0x302ff03f406fbfaU,
  0x605ff000b0dfd02U, 0x1502fb0bfbf6ff01U, 0x13fdfdffe7f4090eU, 0xfd06f9fe07f30516U,
  0xe04f2010002ff03U, 0xbf3f70308091806U, 0xe00f8f8fcedf216U, 0x1fdfefafe07f001U,
  0xfffbe81309fc0608U, 0x120ee7e90315fbf8U, 0xf3f7070208fefd05U, 0xfd0cf7faef0e060fU,
  0xfd0cfef8ff0dee07U, 0xf405010010fef1eaU, 0xef60a04e50cf6d2U, 0x1804010ef60cf50cU,
  0xfa0701fd06fbdb04U, 0xf5e3f700fa0a00f0U, 0xfffeee110108010bU, 0x1cf2fcf70c030309U,
  0x21f30dfffeec090dU, 0xa0cf60902f9fcddU, 0xfee50eedbbf9060bU, 0xf00ddefafcf9fffcU,
  0xff9e8f2e308fe1aU, 0xfbf7fb13f8f8f8fcU, 0xd1b05f909fffd0bU, 0xf7df2105fd0fff07U,
  0x1df1f4131220fa1fU, 0x10dfbfd1ffee4f8U, 0xe60c01fef8350ff8U, 0xf1fef5060b06fc0fU,
  0xeefb05fbfffbf709U, 0xeefd14fe0004f1f6U, 0xec14f2f0fe0decf7U, 0xf7f90506f4010603U,
  0xfbf7f5fcfefd0409U, 0xc03fefcfe0af1eeU, 0xf40707e000f3e712U, 0x20211def8fb0603U,
  0xeb0205010ef206fcU, 0xe7fa03fff5ff021fU, 0x1fcfff9fefbfe06U, 0xec0bf8edfa051a06U,
  0x404fbfefe040b0bU, 0xe0c01fefb120808U, 0xec10000b0206e703U, 0xfd08f6f6ff08fd06U,
  0x1305fbf908fef707U, 0x200f8f102f5fee9U, 0x6f3f4e70d07f2f8U, 0x2020f08f7f60714U,
  0xe20704030102f5ffU, 0xdfd04f5fbf8fae4U, 0xecfef11219fdfdU, 0x12fcf0f9fef80df6U,
  0x4ff15fd0d06f5f9U, 0xf9fb05f8fdfcff00U, 0xa00fa03030607ecU, 0xeefbf50701f9fe01U,
  0xff4fe0006f4fb0aU, 0xfaed02fa07f40a03U, 0xf9fff7011003ea00U, 0xfc040702ff0d10feU,
  0xfdfbfefdfcfbfe02U, 0x4fe0103f3fe0000U, 0xfbff010300fdf701U, 0x331fc0202000300U,
  0xfffdf2fffcf9U, 0x2fff8fc0102faffU, 0xfdfefdfefef8fc04U, 0x1fb040105f8fe00U,
  0xfc0602ff01fd03fdU, 0xfffffdfffe03ff03U, 0xfb0b0000f9fd0206U, 0xfcff01fcffeb0401U,
  0xfcfe000101fdf201U, 0xfd01fe00fe0102f8U, 0xfffb01fe02fcfef8U, 0xf901f8fd11030202U,
  0xef600f6f9081609U, 0x2f302eff000fb12U, 0xf80911fd05e6f4fbU, 0x150209fee604fa0fU,
  0xb08f2061303ef0fU, 0xdfa0a080b06f112U, 0x3110bf4f604f8fbU, 0xf8080cf30df117ffU,
  0xe02fef900fc0a0eU, 0x4f301f113f510edU, 0x4fbfef7fffafd27U, 0x1ee5e70a0504faf3U,
  0xf7f5ef07eff9f802U, 0x14fafa05feeb070eU, 0x10fe02eded02f91eU, 0xf3ed000f0307f2eeU,
  0xfe010f01fa04fcfeU, 0x1f5fcfd080103feU, 0xf7060d05fd0affffU, 0xfa00029005edff03U,
  0xffe800fefbf6040eU, 0xe9fb1307fe08fc06U, 0x1fb10fdfafa0205U, 0xfbfc020bff0705fcU,
  0xfbf400fe00fcfcfdU, 0xff07ff09f70214feU, 0xfb0704030801040aU, 0x7fd0af8fe03f001U,
  0xf4fce1100d04fdf7U, 0xfe0afdfd0f15fbfbU, 0xf2f9f11004f90ff5U, 0x9fffbffff0200fbU,
  0xf2ed14e206060a00U, 0xf504fb040502fe0bU, 0xedfff9defe14f305U, 0xe041a0210f6e80cU,
  0xf42b0efdfe070414U, 0xf50eea03f0e50912U, 0xfe1af90d00170f21U, 0x90b0f3005f62602U,
  0xd305fb0c21eb1f03U, 0xca09fdf7e608d8efU, 0xf5030af70d0d06fbU, 0x2e61af5ff0f15f8U,
  0xfefcf81116f3f915U, 0xff11fafeedfd1011U, 0x10ee06eff003200bU, 0xfaf60affe6fb07dcU,
  0x606f3f60b160403U, 0x19fe14030bfdff09U, 0x402ef0cfaebfff8U, 0x170df60bf50009f2U,
  0xf90f0302f20201e4U, 0xfb01e701f2f2060aU, 0xf2fde4f9fd0b0afaU, 0xeef8ebe9ff00f300U,
  0xf3fa1f22f7f5fafcU, 0xfd03dcebf5edfcfaU, 0xf7fe05ff07f307f8U, 0xf5e5f7020f0a0bf5U,
  0xf2fe0d001108f0eeU, 0xfaf30afcf0041d02U, 0x10d00faf101fbf8U, 0xeefdfd03fa050504U,
  0xf81118f9fef5f9fdU, 0xfb01fcff110cfb17U, 0xf80602fcfb04f9fcU, 0xee01fe1601070603U,
  0xfff8f001feee13fcU, 0x13f9fdf300f504fdU, 0x209f7f6f6f40806U, 0xfffc0dfb070408f5U,
  0xfff90806fffdf60aU, 0xf9fa000df0f808faU, 0x6050dfe0317fe02U, 0xe906090519fe0000U,
  0x80b06f2050705fcU, 0x8fd02fb08f8fcffU, 0xfe0402fe0506ff06U, 0x7fcf9f4f810f8fdU,
  0xfffc131203070310U, 0xdef06f8fe0e02faU, 0xf505070004e102f4U, 0xafdfb08fa000a08U,
  0xfdf5ee090a140012U, 0x6faf70215fe0ffdU, 0xfef600edea10fc13U, 0x406fb11e10918e7U,
  0xff00f805f8efee03U, 0x11f7fbf4fbfe00ffU, 0xf8090af9eb01021dU, 0xfd0f02f004fefef7U,
  0xc020ffd09fc05f1U, 0xdedfbff0dfbfb07U, 0x2e40ced02020efdU, 0x81df6f705fd06f6U,
  0xf4f6fde903f8ec0eU, 0xff05f210ff0114f2U, 0x9ed030b10fb14fcU, 0xfdfce904080af603U,
  0xf5190711090800efU, 0x2f5ef0bf5f2f90dU, 0xf407f9f3f30902ffU, 0xecfbf8fe000905fbU,
  0xa160affe60501e4U, 0x12fffc01fdf7f4f2U, 0xff0b010c01f301f9U, 0xefeffb02ef0913edU,
  0x14fa0cff0f0eff07U, 0xf211fcfe01ea06e8U, 0x181108f9f8f60407U, 0xee0901e9fe090e04U,
  0x4020efaf9f50ef6U, 0x405fb010a1af313U, 0x104fb0d06000bf2U, 0x209ee01f10408ecU,
  0xcf2faf6f6f5f406U, 0xf90affea01fa07f4U, 0xf806f900f1fa0909U, 0xfb0afdf61008e500U,
  0x1307e5eff6f4fe03U, 0x2ffccf0eefcfcecU, 0xf00202eeec14fafaU, 0xf6e706fbfceaf6ffU,
  0x811fef80805fee4U, 0xb04f800f409f110U, 0xf504fce60c060511U, 0xe6f616f9fe01fbfbU,
  0xe71106fdfb03fffaU, 0xfcf306f2fd0a19f8U, 0x11f602fbfd0013f9U, 0x6edf7f4110c0a03U,
  0x2e5f0190904f30fU, 0x3fbf504f4edfeeaU, 0xa04defef5faf0fdU, 0x1fcf81205fdfc04U,
  0xf11bfcf2eeffff01U, 0x90cf80b10050a05U, 0x130bfd05ff17fb0eU, 0x2f4f305f6f111fdU,
  0x8010014fc000cedU, 0xf7070e02fcfbfdfeU, 0x11610fb00fff50cU, 0xfe07fb08fa0807fbU,
  0x8090102ff0cfc0fU, 0xf11405e5fcf4fd08U, 0x40f0305fced0904U, 0xb060008fc05f0fdU,
  0x700f506f2030a0bU, 0xefed04eff9f7f5f4U, 0xfbf910fcfa0bf306U, 0x4f7fd0a0306f901U,
  0x605fff915f6f106U, 0xf8f80701020afe05U, 0xfef60000f7020714U, 0xfcf903f70806070dU,
  0xd030a0403fe01faU, 0xebfa03fff9eb0009U, 0xfe07faf9f90200f9U, 0xd00faf5f704fcf7U,
  0xfffb180308fd0df5U, 0x1d0e08f5ff0afafeU, 0x20b00fff80001fcU, 0xf10509fc090306f4U,
  0xf9fdff0406ed0502U, 0xf1f803faf3f7e204U, 0xa010109f8f602f9U, 0xdfe00fd0eeef903U,
  0xfc0de1f7f1fb050aU, 0xfe0beaf4f80604feU, 0x5eaf7fb0003fbf6U, 0xf9f0fef7ffe7f807U,
  0x4faf2fc0004fc15U, 0xefe6f304f6fff1fdU, 0x51000fcf1fa1307U, 0xfef30912effcfafdU,
  0xf8000a03fc0af6f7U, 0xf6fd15fc03f8e70bU, 0xf1fefa0e00f9ec03U, 0xfafc05060f03fc04U,
  0xf0fefa0cfb05f910U, 0xf90dfc0e0904fc0eU, 0x8edee020af202U, 0xfcf8fb09f608f6f3U,
  0xec05f013fffdfd00U, 0x18020805f40bfaf0U, 0x7ea0100eb0806f1U, 0xfc0e07010a08f1f2U,
  0xfbf005011203ee0bU, 0xa0103fc0af8fbeeU, 0xfd0d1203fdfcf4f8U, 0xff1105f9f1fb0101U,
  0x30d18ff02ecf4e1U, 0xeffff818111107efU, 0xef0b1438060beb0dU, 0x27ff1518f4e8fe19U,
  0xf2e6fa1e0600f82eU, 0xfd070610df0dff0aU, 0xe9081a05f806f1f9U, 0xf6ff0b16f70a2002U,
  0xcfd290b060fcd2aU, 0xcf2303190d0902f4U, 0xf611fbfacf1407f0U, 0xf006f0e6e10bfb11U,
  0x1108fa241af8f3e2U, 0xfd1ff9ff0f0e1cfeU, 0xfb1108c4fbdd1a1aU, 0xf400fc09fafff8f9U,
  0x20702080d0701feU, 0xfcfffdf2020505U, 0xfd010504000c06f8U, 0x17070707050404f2U,
  0x8f6070405040805U, 0xf607f005e6060716U, 0x9f7f607f3f5f700U, 0x20301080407f8fcU,
  0xf80e06fa0bf3fefbU, 0xeef90205eff8faf7U, 0xdfc020118fe020cU, 0xafaf905050df1feU,
  0xfa140c05030dee0aU, 0xf1edf9fa0ef40205U, 0xf60406fe07ff0c05U, 0xffefefd0600fefcU,
  0x562000000a2U, 0x13bfffffc8aU, 0x70fffffd8cU, 0x394fffffdadU,
  0xfffffa3a00000201U, 0xadb00000696U, 0x25a00001395U, 0xde4000001d2U,
  0xffffffbb0000004eU, 0xfffffdd200000093U, 0x7060000028eU, 0x6c4fffffbf3U,
  0x3ad00000060U, 0xfffffc2f00000859U, 0x45dfffff65aU, 0x2e2ffffffa8U,
  0xfffff4d700000225U, 0xffffff7bfffff6bcU, 0x5b8fffffbe0U, 0xfffffe100000013fU,
  0x17d00000c1bU, 0x11200000dd5U, 0xfffffd290000021aU, 0x36d00000418U,
  0x8f60000074eU, 0x1befffffb81U, 0xfffffae8000004feU, 0x4db00000428U,
  0xfffff5f9fffff70aU, 0x5f20000044dU, 0x5c10000003bU, 0xa2600000a84U,
  0xa18fffffe21U, 0xfffff957fffffe21U, 0xfffffe6b000004d4U, 0xfffff59bfffffc42U,
  0x628fffff8e1U, 0xfffff6f7fffffc6cU, 0x505000003d8U, 0xffffff91fffffa62U,
  0x59200000cd3U, 0xfffff433000017a5U, 0x83b00000c6cU, 0xfffffb0cffffff36U,
  0x185fffff904U, 0xfffffff4000000deU, 0xfffffe99ffffebeaU, 0x3a0000012cU,
  0x122fffffdb1U, 0x38dffffffb8U, 0xfffffe4100000544U, 0xc3e00000bc5U,
  0x2c0fffffdc8U, 0x6b700000269U, 0x7ddfffffef8U, 0xa0b0000037dU,
  0x2c1000006d7U, 0x21affffff65U, 0xa00fffff857U, 0xfffffe8b00000003U,
  0x15d8fffffcfbU, 0x397fffffe9cU, 0x2d600000f27U, 0xfffffa50ffffeed1U,
  0xa06fa12170df117U, 0x13f141011513ca0cU, 0xdcf2e5f4f3ebfb08U, 0xae605d1e3eb0918U,
  0xf3ff07020afa1413U, 0xd4b931fd1203eaf8U, 0x1ffb1d04faedfef8U, 0x121af501f9fd0eebU,
  0xfcfdd613f2f9fe0aU, 0x18274fdb0efbf7f1U, 0x51e110103faef0eU, 0xeb0e091c1713090bU,
  0x25f4e0f9ea232d31U, 0x801f4d20ddb0400U, 0xc4fbf2160a2e08fbU, 0x9e50004f2fdea0fU,
  0x209f5f40ff20cffU, 0xfb03f4ef0c0304f5U, 0x606fcf905ed0be3U, 0x4fff1120405f8daU,
  0xebf2f4feecf8fde9U, 0x10605e10401fe04U, 0xe1fffe0aee1d0e05U, 0x2de060ff70e0ffcU,
  0x106fffcf8081afdU, 0xaf4e8cafe1105f5U, 0xdf1a01f9fe0df100U, 0x10f006f2f908e906U,
  0xe20cfc0ee3fee9f3U, 0xf6f40bf8ed07faebU, 0xf508fbfbeaf705e2U, 0x10613f3fbe510c9U,
  0x10fb05d7291ee9f1U, 0x41b12f80604ff10U, 0xe30ae7df1015e82bU, 0xcf0913d50cf1ffU,
  0xdce1f0f3feedfaf6U, 0x20ded0f0d09f2e8U, 0xfeebd4e9fbf30d11U, 0xe0dbfff5feee1118U,
  0xedffd4f2011800fbU, 0xdcfdfcfcd9dfedf7U, 0xe41409d4ade71af2U, 0x1503fa0c0ef215ffU,
  0xfefa07050dd7e63bU, 0xd6080012fff41302U, 0xfc09e2f5ef1411f9U, 0xfa053309f3f7f607U,
  0xf5e50c0a16f505e7U, 0xe9f41df2f0f7fc03U, 0x91902f2fedc07fdU, 0xe210e112ed08070eU,
  0xe2dc0efee7ddebffU, 0xe41aff150cf7ff08U, 0xedeefe04f0fffdf6U, 0xe3ff020a04f6160aU,
  0x809ededf60bfaf0U, 0xd714ef0a21f62e03U, 0x108f300ffeef61fU, 0x11fa04f2fbe9f5a4U,
  0x3c7fafc06e906faU, 0xf20efedf1afcedffU, 0xf0f8f1cfe4150909U, 0xea170efd0cfb0026U,
  0xf8011e13f4f1dd00U, 0xe806f2f6fced061eU, 0x12f6f110ea141d01U, 0x17fcd8ed0406f1fdU,
  0x150200e9f6e706fdU, 0xe4e5ff0eff0ef1U, 0x80b12191303f2e3U, 0x15e4f9fcf605ee06U,
  0xf4000219fbfbecfdU, 0xf3efe1611fc16fdU, 0x130df201060afbU, 0x20e5f2c1e9031d00U,
  0x10300eb02e50727U, 0x1a160b03ef231306U, 0xb0c10eefae10002U, 0xfce8e60c0c070804U,
  0xfe07f9080d1a04ffU, 0xea0b0c0cf5f8d4f4U, 0xf6fb081fe9f3031cU, 0x1dfff20101ec06f3U,
  0xf50903f3f50af7e9U, 0xf5fafdf3f61214efU, 0xf7f007fff7fc15f2U, 0xc12f9f4fd07eff9U,
  0x7f32b06f7080b13U, 0xddf1fde4e9fa20fbU, 0xfbf111fbfeecf8fbU, 0xf9fbffe3e8effeeeU,
  0x5e6f7ff0000f6fdU, 0xf019edf4fcfdf512U, 0xaf7040afcf707f2U, 0x9f60a0403fe01fcU,
  0xc1aedfdff010bfdU, 0xfa14f30805fb0713U, 0xf5edec01e9f911fdU, 0xf9080b0b170607fdU,
  0xf6f500020ffff115U, 0x7030bf80a17f711U, 0x413fcfff4e5f2f4U, 0xf7fc05e9f5fcfb13U,
  0xf8f60705ef210606U, 0x41302ff08feee0cU, 0xfc05fe14ebfdfae6U, 0xf30a010e080aecf7U,
  0xf9daf4ffe6f104f3U, 0xff0202010100ebeeU, 0xfdfced2413ee0bfbU, 0x1219050a0e0e0402U,
  0x17040dfbf3f90000U, 0x1b0904130104f1ffU, 0x7fee90cfbfffefcU, 0x13092502fdffedf8U,
  0xf100ee14fb05fef7U, 0xf9faf910f10814ecU, 0x4f90809fcfb1300U, 0xf508fefc04f5fe12U,
  0xebeffa010500f20dU, 0xfbeef503f607ed03U, 0x10f01a07ebf505f3U, 0x5f4f2fd070206fdU,
  0xfeff060efcf9fff3U, 0x4fe0505fe09f2fcU, 0xf40b0500fb0a0d0cU, 0xf6f81101fb0105feU,
  0x3041319f41af7efU, 0x11f9feedfc0c08f5U, 0xfef1edf90ff6f211U, 0x2f71de4f6f3060dU,
  0x602e905fede1ff0U, 0xed04ef1ce7f317ffU, 0x15ff08fcf70603fdU, 0xf810fbedfafbfd0bU,
  0x3faeee3041b0bfeU, 0xd9f108f2e51efaefU, 0xf9fc0b160007f903U, 0x231406fd15f51a0cU,
  0x2fa14140ff9ec13U, 0x7eff00cf40f0601U, 0x612f611f607fefcU, 0xfff701f820fdf5deU,
  0x5ffd3fbf10d06ebU, 0xdaf8f7f8f4f2f7f7U, 0xf4f7f6fef6fceee7U, 0x200de7c6efed020eU,
  0x518f9de240317feU, 0xe0db07fc08f133d1U, 0x2eee9fcfc17fd03U, 0xf207fa0223810bU,
  0x70b12d200ea05ffU, 0xe7fdfeff01102e04U, 0x1cfb0f09fcebf112U, 0x1000edb05ff00U,
  0x9042af80dd8eb13U, 0x91712f101d0f8faU, 0xbf9fe0c15e1f2ffU, 0x1b1d2701fdedeef3U,
  0x601eaf609f61a17U, 0xe7f800f8060202ffU, 0xfb03e3fd17f9f22fU, 0xd0110e9f9ec0205U,
  0x8fae4f236f8eff7U, 0xfcff0b0a0af911fcU, 0xdfb08020004f6f3U, 0x2f9fcff0b07e5f6U,
  0xf5e91208f6f4fddfU, 0xfd0416fb0c360ef3U, 0x1405fb0309fcf9f4U, 0xfd0513fe06eafe04U,
  0x191d04e003e10f0aU, 0x6f41df7ff00fcf3U, 0xfc0bf9f53011ff06U, 0xb082e030c040418U,
  0xf4e11dfaeadaf2fdU, 0xf3f40afb02030cf0U, 0xa1cf905100d0904U, 0x25f6ef32c6f3f401U,
  0xe5fef10a00fdeefdU, 0xfe05fa00fb020c07U, 0xfa1d0421fdfb1108U, 0xfb0602091d07f2f5U,
  0xed01fafd04fa0215U, 0x1fec08f7f6fef0edU, 0x50c1cf6f510e6fbU, 0xfcfffd00eafc0407U,
  0xffd0df70d110609U, 0xf8c803fb070b0d08U, 0xdd19ed0ce90a0f00U, 0xf9d707fd110c1007U,
  0x1ec01ec06160affU, 0xf8fe010c0c06f1ecU, 0xed0be904fcedef01U, 0x804040e0bfc0df5U,
  0xd13f7f9f10e0108U, 0xcf7ef060bf5feffU, 0xaf11200eef7edf3U, 0x1bfe42000a06f2f5U,
  0x2fd01f4faf8f3efU, 0xf4e61bd307fffbfaU, 0x1f804e804edf606U, 0xfb1104f5effa33ecU,
  0xfdfafb1df30e09faU, 0xecf8fefaf310fa0dU, 0xf7f1fde8f4f0f612U, 0xd0ef6f6060af108U,
  0xf6fbfcf5e4efdbf0U, 0x50cf8ebf7e704feU, 0xff0df504f503f311U, 0xe419fdf1fcf0fdeaU,
  0x4efe40107f8fd0cU, 0xeef2ec08f407fa15U, 0xf306fb12fb18eb03U, 0xebedfefbf5f5fdfaU,
  0x140af4fbe60fe3feU, 0x30ef1fdf1f7fae7U, 0xff05f7f7f8f2f701U, 0xd16f3fdfe101007U,
  0x5fa030a0d06f7f3U, 0x50804f8d6f5e608U, 0xe2f6f00d08ebe0eaU, 0x91211feff28ecf5U,
  0xeaf8e2fc0b060404U, 0xeb02f9edfe05e500U, 0xfafb0512f2000408U, 0xf4fff2fff8f201fbU,
  0xf20624f502ebf603U, 0xf3dcfe10f1ffee0bU, 0xdeb000703030203U, 0x3f6f6fa0fee27f9U,
  0xb03dcfffcfaf5fbU, 0xf41bd6e32ffc08f7U, 0xfe11e8f3f7020508U, 0xf3e4020d1beefb0dU,
  0x3fffbdeeafef102U, 0xe8e00cfd08fd1b0bU, 0xe6fbf5070cf700fcU, 0x191404f6f614090aU,
  0xfc0f17fef909f0f2U, 0x705f8f9f90b0bfcU, 0xae6fdfffdf8f5f0U, 0xf9fef40f010b0cfbU,
  0xe40d06f9120bf10fU, 0xfcff0f0ffbff2205U, 0xfcf106150df909faU, 0xfb05f1f401eaef0dU,
  0xe9edf5f3020300e4U, 0x1b0afa02f817fdefU, 0x60a0003d5f4f7fdU, 0xfb080700f2000dU,
  0xf20efb01f4ebfbf9U, 0xe10710fff1fafff6U, 0xfcfa16dff4101f04U, 0xf40a000800fb0f1eU,
  0xf5fdd90fe9e6f9e9U, 0xedee01ffdbfa08d2U, 0xe8090aeae505eff8U, 0x1614e4f0f007d70aU,
  0xf8f0fafdf9fa0c0dU, 0xe5f3fe01ffee0107U, 0xdcf2f81020f1e2f4U, 0xed03e505ecf40404U,
  0xfb0ee105f212e4f7U, 0x16f3ea02f811fffdU, 0xf5dbf3010cebe4f7U, 0xea01eb05fc0d08e2U,
  0xae7f4280e0c18d5U, 0xfb100be7f1f7da26U, 0x102e1fef80bf83eU, 0xfffa0de8e2f9f305U,
  0xf60d07fdfd0b13ffU, 0x1dcfbfffb19f00fU, 0x60006ebf1fd0ef1U, 0x2e9f018ff07ef00U,
  0x800f2fa0dfd0bfaU, 0xfaebf5020404f1faU, 0xef5fdfafc04f9f3U, 0xf5ef10f6fd19fefcU,
  0xdf0beaf1000d0df5U, 0xf0410150df905dcU, 0xf8061cfc0ff5f9f6U, 0xfb08150a0bfe07f4U,
  0xe704140110e5f402U, 0xf70bf8eefdf20bfaU, 0xee3f8ec0ceaf80eU, 0xee000d11f3f3fefaU,
  0x30b0301f100fb04U, 0xf505001f0100fefaU, 0x3fc140905fbec0dU, 0xfb0b03fcff0bfd24U,
  0xf7f90601f8fc03fbU, 0xf30903f4fa020bf7U, 0xa08f9f0030b11f2U, 0xf9fc040912f60e0bU,
  0xfef30b0600ec03ffU, 0xfdf1f3eaf411f404U, 0x1f7f90efbf1f5ffU, 0xfdf2f70af6f901f3U,
  0xf7fcf40305faf50dU, 0xfef8f7070bfef9f8U, 0xf7061005fe011209U, 0x1bf22924e9ef14faU,
  0x5ebff1502f3f70cU, 0xf3ffebedfefdf8feU, 0xf4f1f2f31612f1f9U, 0xf61aefd3df05002bU,
  0xf6faedf90dfafbfeU, 0xf8ecdf19ebe406faU, 0x3fb0aeeebf40609U, 0xe5f80114fbfffdffU,
  0xef010000e810fa07U, 0xebfdf706fa00fcffU, 0xd9fe030909f4de12U, 0xf4fafaf4ed120bf5U,
  0xf1f03e02006ef03U, 0x14e7f6e50ff3fc04U, 0xf5fc0510fa0af800U, 0xee010c07040a0afbU,
  0xecfb00fb0517f5e3U, 0xefeb0504f4fbfcf4U, 0x21a06e1fa06fc05U, 0xdae9e404fef50edaU,
  0xdde6f6f8f9fdf5fcU, 0xafaee06fdeef3U, 0xf0e3feeef6fceeebU, 0xcd1fad1010f07faU,
  0x3fdf60fea0b0b00U, 0xfbf308eafded0519U, 0x4ec0303fef3f80bU, 0xf3fbfafa01f7ea04U,
  0xeffffb080201fc30U, 0xf90af2f9effa09f9U, 0x70600f3f9fd1800U, 0xc03f0ff04f4f201U,
  0xf2f2f2effa1bf82fU, 0xf6fefbfce6f50517U, 0xf2e7dd0101f8f821U, 0x5dfe7fadd02e708U,
  0xf0fc1eeff5edf41aU, 0x1f7fc0fe6f9fefaU, 0x1af30c0afc02f80cU, 0xf7dffb06efee04f5U,
  0xf7f30705fe03d6f9U, 0xf103ecfb00ed06U, 0xfb20faeef006dde3U, 0xfbffea0defe0f91dU,
  0xd4f9fb00fc03f01bU, 0xf6fbff0704f915f4U, 0xfb1cfff4020e0df0U, 0x1022edfafdeafa08U,
  0xbeee6fcec0f0215U, 0xf9fc1303fbd905feU, 0xf1faeffa0b130bfcU, 0x1108fb09ec070808U,
  0xf1ee0de503f0d809U, 0x10120ff01fefa12U, 0xfa0be2f6fc08f615U, 0xf006052305e90e01U,
  0xefedfa070af1fe1cU, 0x4f30bfceafefafaU, 0x9fb07f7081fe0fbU, 0x1f0ffecfc10edf4U,
  0xf3ef09070af2f1fbU, 0xfa01f8f210fff0f3U, 0x1409f909ff13060fU, 0xe8df0cfdf8ff0efaU,
  0x171ffe1c07fe0604U, 0x8f62efeef39ca0aU, 0x9fb1fd6f202ebfcU, 0xce810fdf2f40017U,
  0xf8320102f027050eU, 0xc112f801ea0e0c0cU, 0xea0c1e001dfe0ff9U, 0x5020f1bedff1cd7U,
  0x302f2f6270539f4U, 0x1d08f3cbef06ffeaU, 0xd0e100af225d4e9U, 0x24d011fe07eb0e00U,
  0x14f629ec060d0bdfU, 0xe1da0fd20ddd12f8U, 0x918ecdafae41200U, 0xfed40ef8f20def2dU,
  0x910010ef105fd0cU, 0xb0a0008fefef30fU, 0xfce1f0f0061f04fbU, 0xeffbf6090e10f817U,
  0xb05df0305f41bf9U, 0x35f7fd1aea17fe04U, 0xea05ef0911eef90bU, 0x8240ef8ff0d03eeU,
  0xf70ef70608e41501U, 0xfe0e070dff0ff7e9U, 0x28e70218fbecf4e3U, 0x10603ff03f3fceeU,
  0x6fb05fef107fcd0U, 0xea09fcf2f8001203U, 0x3090be910030eecU, 0xefd0204f002f707U,
  0x130af41a06f40516U, 0x10f2fdfaf8fe031cU, 0xfd0c1f1a12f6fc0dU, 0xf1fcf706fbf6ecf5U,
  0x9a6f701f8fd0eeaU, 0x41b0210f8f3f90aU, 0xf3ede6f9fdfde10aU, 0xfb0b0b0cef21f916U,
  0x20ff1bfdfbeb0902U, 0xf6f70ff4090ef107U, 0xf3fef8fe05f900f1U, 0xf404f7fcfcf9fb18U,
  0x10e60003fd22080aU, 0xfbf708e9f0fcfef5U, 0x6f5fd09ff1cfef2U, 0xf403f3e9d800f601U,
  0xa0118fd1714ecf9U, 0xf701fc09f9f5f9f4U, 0x1fd4fb0df5e909e8U, 0x20f6e811fecbc510U,
  0xff0b17f61500090fU, 0xea0b22071c050703U, 0xf7231cf901f1fd1fU, 0x140a18fcea02c3f7U,
  0xfef8560501ff08dbU, 0x30de6e904fef700U, 0x1d20e706f7010b06U, 0x151bec18fc1a0a0bU,
  0xf510fde0f913f5f5U, 0x2d105ef13e70814U, 0xf4f5fbf925020413U, 0xef0fa07e0e3fc31U,
  0x7f11a0f1bf3f20bU, 0x13051e0408ffb5ffU, 0xef10f516ef12f709U, 0x15fffdf4ff1001deU,
  0xeb1403e8faf7df0fU, 0x1f302eb070d1703U, 0xf80deffb00f9fd15U, 0xedee03ecfbf6fc08U,
  0xfd141bfcdbfef111U, 0x203e4e7011a00f0U, 0x111fc7f5fe0fe221U, 0xf6ef0ceaf2170f0fU,
  0x6fd0f07161c1213U, 0xed23f6fce4e7fe02U, 0xffebf9f5efff1304U, 0x251012f3f605f820U,
  0xea0df51405ea1a0eU, 0xfcd6e5f4f4f9fd03U, 0xe9eef809ffeceb0aU, 0xf4e60a020a0ee2f7U,
  0xe3eee0ed150d0decU, 0x1dfdf400ebf01304U, 0x1805e601f4ececffU, 0xf107fa1bfef4caf4U,
  0xe7060cf3f1041b04U, 0xf41c040f0afbf5efU, 0x111fbf7eee4f0f8U, 0x7eb0f1c0011f5fcU,
  0xf0af5eff4050dfcU, 0xdb0201eb141807feU, 0xfc15eecc0d0a1310U, 0xf7fd0b05e5f3f30dU,
  0x20e1b10221ff0ecU, 0xe7dcfa0709f009fcU, 0xde4effeebfa14f8U, 0xea11f1f60400e7faU,
  0xfef7f9e4f7fa06U, 0xd723da02e8eee4e6U, 0x15dce8f216f5f5f7U, 0xe1f62be5fb0130d7U,
  0xd0a0d2f0cfd17f8U, 0x33e508dc00090dd9U, 0xe9f4ff06eceaf303U, 0xff04f604f8fdf2fcU,
  0x9050df5fcfaf7daU, 0x6050d1c13ec0106U, 0x81bf802eaf702f9U, 0x15faebfd100115f4U,
  0xf206f206e516fb05U, 0xec14ff0222fd00fdU, 0xfafe0903f805eb00U, 0x701fbf4242a1201U,
  0x1f200fa0221fcf7U, 0xdf6fbed1b0615ccU, 0x9fcee00fff01af2U, 0x4fd08ef0311fbfeU,
  0x5ddf80204ea0a04U, 0xf8fb07fcfaf715U, 0xe50bfae4f5ebf6eeU, 0x200fe01fa0e02f2U,
  0xfdfff70af9f9fc10U, 0xe507fef80cfc0202U, 0xfef50ee1feec0beeU, 0x1f1e203f704260cU,
  0xdb0c021100f6fcfaU, 0xf4ec1e12010d1201U, 0xe5f03200f417f302U, 0x11fb031807f409e3U,
  0xf409e8f007d8eefeU, 0xf2eaf60cead8f613U, 0xf3eaf722041eecf2U, 0xe6e011e7021d082eU,
