/**
  ******************************************************************************
  * @file    network_data_params.c
  * @author  AST Embedded Analytics Research Platform
  * @date    Mon Jun 10 14:53:19 2024
  * @brief   AI Tool Automatic Code Generator for Embedded NN computing
  ******************************************************************************
  * Copyright (c) 2024 STMicroelectronics.
  * All rights reserved.
  *
  * This software is licensed under terms that can be found in the LICENSE file
  * in the root directory of this software component.
  * If no LICENSE file comes with this software, it is provided AS-IS.
  ******************************************************************************
  */

#include "network_data_params.h"


/**  Activations Section  ****************************************************/
ai_handle g_network_activations_table[1 + 2] = {
  AI_HANDLE_PTR(AI_MAGIC_MARKER),
  AI_HANDLE_PTR(NULL),
  AI_HANDLE_PTR(AI_MAGIC_MARKER),
};




/**  Weights Section  ********************************************************/
AI_ALIGNED(32)
const ai_u64 s_network_weights_array_u64[5327] = {
  0x81ff66852247a326U, 0x150dd6f257a30357U, 0x1b9f46fbec1d2901U, 0xfea07fe1c701a82fU,
  0x9b11d60878eba42aU, 0xe0f12f102dcd4605U, 0xa0b0f5f11b1dd63aU, 0xadc010cbbb0ddb4U,
  0xb161716cbf5f2b0U, 0x177f0b0c2c1909f4U, 0x5bb39adbec275525U, 0x81b8a2241a32f81cU,
  0xfba21cdf3504fd30U, 0xb9112fde1a2dfa26U, 0xbc461d19e4a62319U, 0x1f0fcbd781dbccceU,
  0xe4b8a7c2ba4d0f21U, 0x9f8c5b6b2a5d449U, 0xa7c53adb152f6a4dU, 0xfd0b3a7fea563a8dU,
  0xcecf54eed9450eedU, 0xc0fbfbc73121ca1bU, 0x5c25b81c21c42936U, 0xdafd1af1874f4781U,
  0x1f12f3fe814928b8U, 0x12b8dfa0ddee110bU, 0xbb2cccd439e32fefU, 0x30920000306eU,
  0x4a1300008470U, 0x12da60000c411U, 0x15bd800003b70U, 0x2c2a287f6cb3fbb6U,
  0x7fe52c4ef9068fa5U, 0xe74b10f5e2b99842U, 0xff11fdeee5ff467fU, 0x3419d8d8d27ffffdU,
  0x3139c7b87f32c221U, 0x151ae3211188117U, 0x294bb8220d81992fU, 0x3cc1b72681f2e631U,
  0xfffffeddfffffbd6U, 0x8bffffff723U, 0xd75ffffff8dU, 0x18b200001484U,
  0xfd120256d93cea7fU, 0xd47db84781bc1efaU, 0xff38fecdebf97f5cU, 0x9de4107f3462ca11U,
  0x8174fd46f96022e1U, 0xdf97f1e270f0cf5U, 0x61ff92a7ff006fbU, 0x18ee10ef8120f9f9U,
  0x81e9f82916b3d200U, 0xf0651d40190d7fe3U, 0xe5f781f2d7e7ec16U, 0xda61eff5f7f5e081U,
  0x4b33cae67f21e71dU, 0x2c234810117f23e0U, 0xb981d89b2457c491U, 0xf57ff1d2def315f6U,
  0x9d6fffff8d8U, 0xc46fffffc73U, 0x1ed0000165eU, 0xedafffff52eU,
  0xffffff70000020c9U, 0xf5700001e41U, 0xffffff23fffff1b4U, 0xfffffeb90000142bU,
  0xc1ee8181e30113f6U, 0x84d3170ce3d2e1dfU, 0xa73024c67fff0ae9U, 0xac881b26df7f0d92U,
  0xc52613095cfdc513U, 0xfbc7fd1bf3c02174U, 0xb05a51b40ef2b832U, 0x81cc7175d0052baaU,
  0x817192f44281943fU, 0xe9817f7f81c37fd3U, 0xc6161e123bbad506U, 0x1a9f1b3bda47645eU,
  0xfc7f40150013be68U, 0xd9dd5479d90e458aU, 0xd8621512adbe817fU, 0x7a95e62bed0727fU,
  0xf415cb15e2cb0913U, 0x35ad1403cf0e1446U, 0x2cc7fffff972U, 0xb600002753U,
  0x2bf00001b6aU, 0x2b19000001a1U, 0xffffe6ad00000e93U, 0x3646fffffed1U,
  0xfffff175ffffe5b3U, 0x2c77000028b5U, 0x73322e1e663fbdd2U, 0xdb071622e721810dU,
  0x350debed8c1108d7U, 0xfb2db8e523f20d7fU, 0xe94c191ce36a0892U, 0x4303dc16072b8144U,
  0x18ec7f3fdff7f0fbU, 0x102dfd064c6ddd09U, 0xcee526f4f081d83eU, 0xae14e028760f5630U,
  0xc537e1e7549c03f9U, 0x3afc06c17f041905U, 0x9118ffd3cc151b0aU, 0x2ef77fee2c06e417U,
  0x2619227ff8f4b242U, 0xe3d550f7f80c3448U, 0x6781c2f35ccd0ce9U, 0x9ca040ce7dceed1U,
  0xa47f0df14313b7f8U, 0xaeebb071821fe02U, 0x102a25f4c10ae222U, 0xd4217fc9380b01f0U,
  0xd7f219eb2f09d4eaU, 0xe6f229220d14ad7fU, 0xd51013f50f5632b9U, 0x34dee1e07f06eb1cU,
  0xccf4392f7fe2d921U, 0xeab9fc2bf9332b1bU, 0x230d08f6813410fdU, 0x2b02f8e3200a3424U,
  0x81dab569c1cad2f0U, 0x27aff00b79db7715U, 0x6190c1e0764f202U, 0x14a519f9690b8106U,
  0x6f11d6b17ff5f965U, 0x2817419525ea08ebU, 0x3515f77fec193657U, 0xa8ca50ee15fb23e8U,
  0xe7fa107ff518f641U, 0xa0fd9a222d08306aU, 0xf3c50901fe02fb07U, 0xbf4172002fa0e7fU,
  0x19c52f2afceddf1eU, 0xe735047fd537f0e2U, 0xcfd4f86a18f80b0dU, 0x7fdac50e7df4ecefU,
  0xf6f706eabb82e4fdU, 0xdfedcfd52b067ffdU, 0xf22b1e01fa29e7ceU, 0xda007fb21f04f40bU,
  0xf507042af7afff17U, 0x30000de57ff9ce08U, 0x654a1eec4cf40e62U, 0x79367f001805d947U,
  0x7f05459ef2d9a14cU, 0xf43fc6f4284472e4U, 0x124f040ce9cffdddU, 0xf2b0c7ff801ea3fU,
  0xfe28f920451f242fU, 0xe7a63afa10f981edU, 0xfee7ffe05030a01U, 0xfb0cfaf4fe6d00efU,
  0x370f0ce01b41f9c8U, 0x81436e73be1949d5U, 0x3a66fffff613U, 0xffffed11ffffed28U,
  0xf8a00001422U, 0xffffdb69fffffd4bU, 0x5c900002aacU, 0xffffff7efffff5adU,
  0xfffffef3ffffdba0U, 0xdc5fffff776U, 0xfffffc3affffe603U, 0xfffffb11ffffe56dU,
  0x183c00000da6U, 0x161a0000015eU, 0x158dffffe7d0U, 0x2145ffffa7c6U,
  0xffffefcffffff792U, 0xffffe5c9000001beU, 0x98567f08ec4800U, 0x54e10e35177c811aU,
  0xe2a227228107eab4U, 0x7fd1e32ff4c0fe4aU, 0x101ba7075a17d754U, 0xfac372cf8149f69eU,
  0x3606d3e417b5a47fU, 0x44ed2400b07ff2cbU, 0xda81ebdab1121807U, 0x3716347f30ab9091U,
  0xebfd7f08f93ef9e8U, 0x5e7f9ec637070873U, 0x810b2b91e2d4a6f3U, 0xd12037da38a9086eU,
  0x4656d6fce5e21e7fU, 0xd61cf6cddb44d281U, 0xd10ad831f97fb603U, 0xf227e2547ffc1b2dU,
  0x62cab3557fdf9bbaU, 0xf02421c57f73b7ffU, 0x546ff3cf81e8b6bbU, 0xb95dddd97f15fc0fU,
  0x8ce7b051fb0cfcd2U, 0x164ae4f7bb181e7fU, 0xeaefdd190d0b7f27U, 0x5a2698dd7fb8dbccU,
  0x6bcfb87f86c9cd9eU, 0xe931ed81e81791fdU, 0xfa60b2ee7fb2db0aU, 0x7f45d10c15de04efU,
  0x35ce1a7ff8f426f0U, 0xbbf863f8e4b1036bU, 0xdd7f5cd03aafcf7fU, 0xdd0a11c2ce99a463U,
  0x570193f9e081a31aU, 0x1d00ec2c7f53e008U, 0xfffffb5afffff04aU, 0xffffee4f00000debU,
  0x8a20000195aU, 0xbd2fffffd58U, 0xfffff921ffffff93U, 0x696fffffed4U,
  0x803000000caU, 0xfffff2d8fffffa85U, 0xffffffe0ffffff55U, 0xfffffcb2fffffea1U,
  0xfffff04300000367U, 0x3900000eb6U, 0x65000011e9U, 0xfffffe25fffff6bbU,
  0xffffffa2fffffe76U, 0xffffee7700001ceaU, 0xca21f404f70d01d2U, 0xc0a1b7f02e4eb11U,
  0x13cebf80c371302U, 0xe0e5ff01edbafbe9U, 0xd5ffd7d517fcf313U, 0xd715bef8fa1ae27fU,
  0x15210e0d03670a13U, 0xaddbafabc18f9d1U, 0xe72f13df03fa312cU, 0xda24e7151414320cU,
  0xe00f62cfe250a55U, 0x15814af6ef061aeeU, 0x3ff6d248f9b8edfdU, 0xfa172d1fce028366U,
  0xe7e0870213d07f07U, 0xe5f94edde5f82be6U, 0xecdf08a84722ece0U, 0x7ff80614f5e6d803U,
  0x180766fe06fce9eeU, 0xe1f9f111030d0c2fU, 0x3dffd271be52463U, 0x1df47fec040590fcU,
  0x19354505051dc039U, 0x1c3929c1d6bcff36U, 0xa4272e983bd525e0U, 0xe60ff254e5006fd1U,
  0xd03e63c311a1152U, 0x198105bbf33b4396U, 0xe42efb15ecfd142eU, 0xffe823063af1f42fU,
  0x1d093afd7f07f7ffU, 0xf6f5230ee22910dbU, 0x451912ed4d3edd48U, 0xd8e20f9b1757e3f2U,
  0x1a2506baf829dbU, 0x1d81e41f650cffe7U, 0xf7fc0d0351cf03fcU, 0x11ec0b7fece117f6U,
  0x25afecf9ff0dea20U, 0xe3ff1300a4e1102eU, 0xbfd0381d693a9c22U, 0xb919f9fd81063be9U,
  0xb5c837cad5bd2117U, 0x25ebe0ea0eddec36U, 0x13c9fd3bd4e6cd72U, 0xaf17814fe4410629U,
  0xf42ec2a7380f2cdeU, 0xbcbf2dec1fb1feaU, 0xebf2a5e2d900381eU, 0xe7edfcfe09ebf6b8U,
  0xe2e1e4f440c97ffdU, 0xfa1de6f9eb5a3631U, 0x16f23a1bf103f72dU, 0xfe40ee0dd1851e0U,
  0x4b1efeed2aeefa27U, 0x111e1f7fe2e5550fU, 0x1e7fcc1866fb0102U, 0xf21934ae0d5bc51aU,
  0xe6bc05e8f6e607ebU, 0xa55c05d3b0730f02U, 0xccfffcfaf103dd39U, 0x310d52ffef6f0eeU,
  0x1ebbe9ed11dde97fU, 0xd90427f50016220eU, 0xbef6e805e00329faU, 0xb1017edc317d5f8U,
  0x25124f13e37f0fa3U, 0x1cf55e0e91e3e3edU, 0xfef6fe1b2aea450bU, 0xfe510bf0f517e3b4U,
  0x5ed157f00c8efe5U, 0xfdb7edd32b1affffU, 0x4e85116e1dba8ffU, 0x1edbd6ec22ee403aU,
  0xcd81f3f0ba123912U, 0x2988ea29e7fc8ef4U, 0xffccdddbfdfd1603U, 0x5d011eeaccdd02e3U,
  0x7fc725090146ceabU, 0x116866eb1a25f94fU, 0x1098451af3fc2a42U, 0x2c1cb4ade4cfdc17U,
  0xdd11633332b6e2edU, 0x612b7fdf0502caf6U, 0x3d27dc3a459f214U, 0x2313f8811818f0cbU,
  0x28dfdfa2acf2142U, 0xda002feffa3110c1U, 0xedfe0bd1c3f71823U, 0xd707d4e504093afaU,
  0xec1ad62418007f0fU, 0x110dfee92d76dfddU, 0xcd675c033f25d4e0U, 0x26e70adc6e09e8bbU,
  0xd3d246b80be281ceU, 0x8435eb45cc04bf08U, 0x208bdd2dee0f8456U, 0x21016417b9d995dfU,
  0xced53aa1d2b37ffaU, 0xd132ddd719deed2cU, 0x1208f381f4c621c3U, 0x450c1be5e9d6f506U,
  0xf9e90227fc183102U, 0xf6062115de2106d8U, 0xcc00e2db2429e3c8U, 0x5ae11c7ff00319daU,
  0xd24636ec1995e9fdU, 0x3ad1bc048596523aU, 0xbb2bb2d40876e5dcU, 0x1cf95bf2fc2b4903U,
  0x620c0ae3faee1122U, 0xe4d20aee7fea5be4U, 0x1960260900f84cdbU, 0xcdea22fe1e15d5f9U,
  0xd4e4db187ffd20ecU, 0xb50d1705eff8e409U, 0x267f69eb0123ebe8U, 0x3a0406353df1f9f1U,
  0x7228d7f508e5c4ddU, 0xb6140702fec60facU, 0x81df4072015e231U, 0xd62a07eceb6d0608U,
  0xf3c9f3e0eefde235U, 0xf681e6e803f0d2adU, 0x133fb1f0cd0bd3cfU, 0xfcd4e7105cfc4dd7U,
  0xe2fafcf5f6dbd8f9U, 0xbfef037fe4fb1a22U, 0xd91ffffebfaU, 0x9050000183cU,
  0x5e900000e7dU, 0xfffff735fffffd33U, 0x10e800000cafU, 0xda400000dd2U,
  0xfffff7c0000008f6U, 0x3b2fffffefbU, 0x1cc400000fa8U, 0xfffffb9100001f8aU,
  0x19f600000801U, 0x79efffff7daU, 0x13ea00000587U, 0xfffff82800000f1aU,
  0xfffff4fafffffe4aU, 0xbb100001377U, 0xde51d752ad4afa2cU, 0xe9ebb64bbe348400U,
  0x2ab407c3b9c2e0b2U, 0xb55019ec4bd85636U, 0xbf7fc56eb4afb55bU, 0xbcb38128387381a7U,
  0x410fd1fac4b4c2c8U, 0x81664bca63977f1eU, 0xd02fe43b1eb7e643U, 0xb3a9cbeb4041d2aaU,
  0x2029994d09ece0f9U, 0xd01737bc1ab227e4U, 0xb266b4ecb27fb858U, 0xd8c3937f81640ab3U,
  0x2d81a4ffd3b5b0beU, 0xd77036be77827b54U, 0x817481ed1dd3817fU, 0x84818a64327f1581U,
  0x7c39906d81818181U, 0xaf7f7f817f815e79U, 0xc52acb0161b0cb42U, 0x81e0d1f4415025d0U,
  0x7f64817faec4cc98U, 0xd80242b918e30435U, 0xfc15d9a9f738b43dU, 0xd4e5d343d85753d8U,
  0xfde6d84aefbec5f9U, 0x143c33f935b71245U, 0xaa0dc4815defbe4cU, 0xafe7ef4ffa525ec5U,
  0x603cb476d7c1b8c7U, 0xfb1d2dcb39d1ea7fU, 0xe410f4c07fc1e91dU, 0xb9f60c220c182dfdU,
  0x543eb72eb9dfecc8U, 0xf0f309d5111fd367U, 0x246500000074U, 0x4370000049eU,
  0x22500000093eU, 0x24b8000001b8U, 0xca00002b05U, 0xfffffe75ffffe354U,
  0x27b0fffff872U, 0x281e00001a95U, 0x3402000024a6U, 0x1fe400002759U,
  0x2744ffffef4cU, 0xffffed59fffffabdU, 0xfffffb68fffff746U, 0xffffff62000037e2U,
  0x54900001f18U, 0x18a500000487U, 0x47f1172ebef0d0bU, 0xb1cf0e1805dd25bdU,
  0x1f2f6020201c9d8U, 0x1a18bae60fec21b1U, 0x7fc8d0fdebe01834U, 0xd2cd6d10d514441dU,
  0x52f27c95f2fd0cebU, 0x6c1d2fb3999507f8U, 0x1461e7cc2cde3e50U, 0xd9ce78ee0cae5907U,
  0xd728dda3c714c4d5U, 0x16e71b81f581671eU, 0x460e517031b4eac7U, 0x161c05b2b1054c21U,
  0xcdc51aeaedf02b0fU, 0xc7098426e9df7fbbU, 0xae18f2581f01719U, 0x7c4a04978d0bf3bcU,
  0xea2a63b9481d3ffaU, 0x1a05c5f5f46a1b34U, 0x1cc8b0e0ec43feedU, 0x191cf0facdf92138U,
  0xcce838d7e61b700aU, 0x39dbfce58124221dU, 0x13a9dd0df90a13U, 0xb7189b13d1191f3dU,
  0xea087f0c22c7e509U, 0xe820e8168b40a00aU, 0xf87f1415fc06a4c3U, 0xc41f17d2fdecef30U,
  0xf101ee2e1af3f804U, 0x2e1ce20b0a2c0ffcU, 0xbaeae8f03220d623U, 0xfe08d8140db4026cU,
  0x2250c24ed36666e9U, 0xdc8169ccff12060fU, 0xe71e091d07e7e4edU, 0xaf6c9fa235df99cU,
  0xeae115ca3dd01ff9U, 0xf77fd4fd1c06c70aU, 0xfbff0509f00be27fU, 0xd60d12181ff817f1U,
  0xe5fbfe05f7161312U, 0xfc1e13f500ccdffdU, 0xe438e2fd2ae82c3eU, 0xd7fbe1f119bd398aU,
  0x2225ea35cf07d3d1U, 0xcfac1b1a3f81d5d6U, 0x7e90faff1736755U, 0xad95364bea00dc22U,
  0x6cb1321e917f8601U, 0x18c1f0091a9060c2U, 0xdb08ea373700b564U, 0x99c311fbd507177fU,
  0xeeea6df2d9cd33b1U, 0xe025f7ee9e1ce4f9U, 0xb84828c3dc22fdbaU, 0xc107133b318c3e00U,
  0xf0f6b31ceb06cef0U, 0xca567fcfd62e9b3cU, 0x36fe002fcf4bddeeU, 0xc8ec0fac00c1f708U,
  0x25befc24d8000606U, 0xf87f252fe10ccc02U, 0x1a0e3f3206125615U, 0xfde2555bced51ecbU,
  0x1b37efd2bffc192cU, 0xd3d5fbda67322281U, 0xe4e507ea0515f33aU, 0xe2f5051400080107U,
  0x1e11fee8ed067f26U, 0xf303102135042322U, 0xed1b3935ebf8030cU, 0x2ae1e87f1bd60acbU,
  0x447b0efc07d80dfdU, 0xcf0d01f52c46d3fcU, 0x4ebefa05ceda0d0cU, 0xf11c7fdca21a4217U,
  0xcd20dcb160536f9U, 0x450d085cf308443cU, 0x38580f3ce5071ceeU, 0xdce2e913e2b11a0cU,
  0xaf1ef6e71591d713U, 0xedee1cd47f2e188eU, 0xa00122fffff25cfU, 0xd30d3e923182231U,
  0xe90f082a0d37c739U, 0x4b817ca3c0424cedU, 0x8b07e2003107037aU, 0xb7ff81230eeee31eU,
  0x1e501108eff8cb3eU, 0xf4aa4ad326d2ae4eU, 0x1d7140dcd90dc01U, 0x3065f8a3aa5800ccU,
  0x4ffae5be0b812efeU, 0xdfbe65d88bcaac3U, 0xdf280bc3d7e81e27U, 0xd80ae81debec16dfU,
  0xd76cc51f1e812008U, 0x26dde8ffdd30bc1dU, 0x41d6372250e1ee23U, 0x704fafc3be534dbU,
  0xd5a8bbd91ebada30U, 0xe6117fa10ef03ad8U, 0x2e7fb6e1f1d6ba17U, 0xa92f0fe3c72e681dU,
  0xb5ab26072a0ff513U, 0x1dd78725e31e11dcU, 0x2214dbced80b226dU, 0x8120f9f511dc1324U,
  0xd916e5050e25180bU, 0xfde20df5f3e9f4fcU, 0x794e46807f8f343U, 0x8109abcb14a770cbU,
  0xbff4a5bedfe9e520U, 0x151446165306ccf9U, 0x10eb81ff6e3cb13U, 0xcbda0503ece32944U,
  0xbc0c0620fcfbfaaeU, 0x5354d71ee4161d7fU, 0xf2f3020bf5223ec1U, 0xdbd46724f7c3e91cU,
  0x36fd00e20be1b3f9U, 0xda307fd81203f900U, 0x4af3c6baf6e9fc2cU, 0xd7b412a5c6d018d4U,
  0xb5fe5f93ff41f2b5U, 0xce471b7f3e9393e2U, 0x1302404b1006ea0eU, 0xf0e00a67270c23b6U,
  0xee180001db33e2e5U, 0x34b41d7f75135e38U, 0xfb54c481fcd6fa30U, 0x290cb99f26eea91eU,
  0xebdc1c20fa64f0d4U, 0xbcc6fde464b7a6fdU, 0xcef90d1a222d3011U, 0xda411a413501e716U,
  0x382ce4f7df05016cU, 0xe3f07fd04c22e3f7U, 0xd323240203233be8U, 0x1ffd980c3609d839U,
  0x38fd03cd142d1a57U, 0x98e406c11d81c104U, 0xe552bf5ccf6f17fU, 0xda13ffddede7060eU,
  0xf3e91f0efed3e6c8U, 0xfd1b20cbfdd417f0U, 0x3481a5a8d4235acdU, 0xeb1116d20db555U,
  0x32061eceb539fb7bU, 0x1ab9fb27a4fcca26U, 0xd2be12ed2b009807U, 0x807ecd0fb97f2e2U,
  0x1205eeb4fdc66ed2U, 0x8117ead0fe042b11U, 0x306e510fa2708dcU, 0x3215b3e22bf40488U,
  0x4e53df25936eeecU, 0xfafaec4e21ea8135U, 0xfb37f20bdb023ed7U, 0x1026f912ea024bfaU,
  0x80d1efd05188110U, 0x21c4e3e3cc1f05f4U, 0x162703ce0b7c04d7U, 0xf401e41df93117U,
  0x22ca81100fdffa08U, 0x276c011bd5e23222U, 0xa8e50fe73712d317U, 0xfcf60a7f15bcebfbU,
  0xd622fa10fdf003f1U, 0x208ce1bf124d91bU, 0xff337fe6e411081dU, 0x130c15f8f6ea19d7U,
  0x32f71ceb40f9d849U, 0xe3e331d7c0dea1e6U, 0xd9edeed31d0deeceU, 0x14e8113a5946c6dcU,
  0xf8f1a78c4e1ee439U, 0x657fc7e848e3c57fU, 0xf4f520ef16c1451cU, 0xefe8ec4e7f23edd0U,
  0x227190f08cac32dU, 0xf701e008e3d3c2e6U, 0x2408f2d60bd33dc1U, 0xf70dcb0bff0036fdU,
  0x2df2e9f7edd5fc4cU, 0x91c31cdc7fdf11a3U, 0xc8e481db1bf1ec55U, 0x25af7c153ac60dc1U,
  0x210ed180c17ada9U, 0x3a4829b7dba105a0U, 0xd57fd739e0c6ff1bU, 0xe5d1170f3e11e9d3U,
  0xf72d03100e21ef12U, 0x5f4033576e6f8ffU, 0xe65345af091df67fU, 0xac1501f3deef490aU,
  0xc1bcb18eaf3f4f9U, 0xf507ee01c9dbe501U, 0xe421010617f6e87fU, 0xa13fc40addbf6b0cU,
  0xd24b0412feacd6ebU, 0x210650de2cfadf4U, 0x25c35646630cfd04U, 0xc5a45f6f2524eedcU,
  0x2324efff0713046dU, 0xf807bb38c47faffcU, 0xff317f3235efc155U, 0x8a1d0dc8eff0122cU,
  0x2813e49eb428fbf2U, 0xdbe025d3e286e141U, 0x816bd0c53365c4faU, 0xc68f112114f41a01U,
  0xdd181b6e7013bcbbU, 0xc5cf9cd704ffe7cfU, 0xb5c69cfbf75e8337U, 0x48fd215cd4fbae0aU,
  0xf1a412c8ea517f38U, 0x45cdecfc9171d6feU, 0x86e8ebfef6fb2d22U, 0xd1199305ec2cae2bU,
  0x72f2f0a0daee5b7U, 0xe6ee01ff9120810aU, 0xcbbef12045a2f211U, 0xe4edee45f1e67518U,
  0xec3917e0b433a282U, 0x7f8c40cdb212fdbdU, 0xe4f9cd1af60711edU, 0xb91ea7c93bf1e0bcU,
  0x16ded52fb011f2aaU, 0x16d907f47ff1160bU, 0x1d696dfdb6888114U, 0xfffcebb214caf73aU,
  0xa642cc94e799f2deU, 0x2e2c2ae74a321904U, 0xa651fed834e6bbf3U, 0xb6f2e58d30adfdfdU,
  0x81d3e948fbd7af9bU, 0xd53331de3bdd42f1U, 0x4481d0acd9dafee8U, 0xf4023ea3cb40e2f2U,
  0xbaf23e7b5f05f36U, 0x38260b18df58f866U, 0xc2fb0baf1fdf01cU, 0x1f8110261c3ff7fdU,
  0x600ae219defcd9a9U, 0x12e600dc04e21434U, 0xb803ff1cc738ddf7U, 0x3dfb5737ee3023e9U,
  0x2e1484140224d7ecU, 0xeaff152728815c40U, 0x3b30214ef3b47f1U, 0xc2f0da490633daf5U,
  0x31fbd80aecdf2335U, 0xf274401633ca81f8U, 0x3cf00003e54U, 0xffffff70000024a0U,
  0x17eaffffd413U, 0xfffff7460000305aU, 0x24dc0000085dU, 0x2b39000005e6U,
  0x347c00002062U, 0x23a0000297cU, 0xffffd889ffffe5e2U, 0xffffcbb0fffff66bU,
  0xffffedbf00001084U, 0x461a00004285U, 0x7de00001b41U, 0x12d200000844U,
  0xaba0000273dU, 0x3068fffffc81U, 0x3a3fffffc9a2U, 0x3886ffffd230U,
  0x1a7400001abbU, 0x1fca000048ddU, 0xb48000010acU, 0x172e0000113cU,
  0x1493fffff3e5U, 0x3658000024cfU, 0x1608fffff456U, 0xffffeb0800002250U,
  0x2b5000002c98U, 0x4ff6ffffe64cU, 0x1cd700003534U, 0x6b3c00000cacU,
  0x1ec3fffffac8U, 0xfffffee0fffff1a4U, 0x7f4bf7fe7cd5db2U, 0x7f0c7e5ee2f79701U,
  0xabee55ee86129068U, 0x69f76c1496811305U, 0x4ad818c7f44aa6aU, 0xd85213097035356bU,
  0x5add4bd2bd5e1481U, 0x5482d2ae2216aa7fU, 0xf526485c4a7f86f2U, 0x53fb0a7fd6325fb3U,
  0x987fe08401a10af1U, 0xc07f2b30ceb3522bU, 0x7f5acddb110cc239U, 0x2b102df906fa511eU,
  0xd0fe38be7728097fU, 0xa5cbb3053481f87eU, 0xf0d1f6fa2f7f0fbaU, 0x11bdf4377fb8e62cU,
  0x7f132f3203dbc4dbU, 0x7fef5a69b6424909U, 0xb2f93ae1793e502cU, 0x92022fa60ffaa081U,
  0x94487fa00f811a49U, 0x7f2696f2c3dc662bU, 0xe36eff43b1964c7U, 0x3a57d6b40981a048U,
  0xe9c1df258124ebafU, 0x2cc88b7fd5ca9a6bU, 0x887facf30f8e3bceU, 0x407f495127566922U,
  0x7c15a781cbcec8f6U, 0xc5b0b8db972dd7a3U, 0xdd93c4cc9e81adc1U, 0x190a057f23092006U,
  0xfdf6677f02127916U, 0x8a077f8d0d3dd4f5U, 0xa912c6da7fcbf113U, 0xdbc65c37c08194e7U,
  0xcc64b70075f0d911U, 0x167fe7a31181df90U, 0x81f9811cdffb470eU, 0x91679a1e6abd4cfcU,
  0x17fef22604eb7fe2U, 0x290c5613337f3816U, 0x3b1f0b9a185281f0U, 0x81ededdaebf1e1d2U,
  0xa2b17fbbb76dbccaU, 0x28741fb285c6fe23U, 0x7f7b3866fc287f3aU, 0x61c61b071b03f232U,
  0xe6efe90c141bc17fU, 0x164c07c4b4c681a5U, 0x8c9b3f1b4207fdaU, 0x93221017f2e2e3bU,
  0x29cbc405de1e87fU, 0x57fe39a17669aedU, 0x8119da0d6553d78fU, 0xa69da031814a5cbU,
  0xc0e3910810958aaU, 0x818cc2c981a80b76U, 0x819e08ea17e0ca13U, 0xb6c8b29d0dcdf8a4U,
  0x6e19d67f18beb5a4U, 0x29e818140fd3e47fU, 0xcec7d4c3547f7c14U, 0x81ecaba1e4b7d8c3U,
  0x5155a54d3741523fU, 0x7fd7e46babee2881U, 0xf1b0cbe2e734b5c2U, 0xeaed167f2496e2e9U,
  0xce7fbbe302ecdcfeU, 0xe4aaf0363ac87fe4U, 0xfffff2efffffff1aU, 0xffffeed000000d18U,
  0xfffffc5cfffffe59U, 0xffffea96fffffebbU, 0x635fffff3d4U, 0xfffff4b8fffffd65U,
  0xffffff37ffffe5d2U, 0xfffffbf700000348U, 0xffffe5e8fffffd3aU, 0xd010000038eU,
  0xfffff6cafffff91eU, 0x10b900000ac6U, 0xfffff878ffffff83U, 0x1004fffff128U,
  0x17300002dc0U, 0x3f0ffffe984U, 0xd82ffffff41U, 0xfffffafd00000ffcU,
  0xfffffa670000030bU, 0xfffffe25ffffe6feU, 0xffffffb500001b48U, 0xffffe862fffffb69U,
  0x1f0bffffedcaU, 0xfffff211fffffabcU, 0x15a00000012U, 0xffffff24ffffff24U,
  0xef400000302U, 0xfffffe7b00001058U, 0xfffffc87fffff771U, 0xfffffa0a00000d0cU,
  0x273fffffd2eU, 0xa620000003dU, 0x9adcf5064404480aU, 0xad171a23e8433719U,
  0x19dbf59804defa31U, 0x1af1dcfbdf14f702U, 0xe128d24c36d6f1e4U, 0x394510d7de190404U,
  0x10e52cee08dfd4c8U, 0xe914e903e91f057fU, 0x5b310d05fe59d91fU, 0x3f1306ece1e410cbU,
  0xf2112d0a163c1ad8U, 0x30d836ab3450051cU, 0x7b262f25c5da642fU, 0xfdf5b67f153e183cU,
  0x64ea45dcfffb5724U, 0x2bf14270041589e1U, 0x705cdbe77f0ae46aU, 0x6461d9c95121b0cbU,
  0xbdc5bf0df4b692caU, 0xf32f0984c1e8edcbU, 0xe716bb3016b266f9U, 0xeace1dd426d6fc4dU,
  0x4e176f1c0db90c04U, 0xb9cd45b9046d7ee0U, 0xef07facf49d21431U, 0xd8f5fed7222362ceU,
  0xe9d01d080713eeeaU, 0xf60c0b08ed1f2725U, 0xdffada14d218f816U, 0xc20600f9bee808deU,
  0x7f2828dda413cd1dU, 0x12110b2bedccf811U, 0x61150c1b42ea01dbU, 0xfdfe8c52c7cdbf3U,
  0xc1d323d74b6af5a8U, 0xd97f9b234211a760U, 0xcfda140b3408287aU, 0x4c0c08e808b5f420U,
  0xe14bf223ec38262fU, 0xf4e22febbbb6f922U, 0xf19c01153a7f80dU, 0x182943511a32e42fU,
  0x16275fdfb9afd405U, 0x24ed50f2ae3317afU, 0xbb130f14a7b2d9e9U, 0x1e126bdb44332e6U,
  0xc043f974cb320a7fU, 0x1622f2f91b285084U, 0xc9eed9ff68fc40dcU, 0x98d2c0c0d22bec8U,
  0xc913e57f0dcc0402U, 0xc7c038e4063c140aU, 0xfff2e7c5001707e0U, 0x3df9083c5706e10cU,
  0x91261f1fde4331e0U, 0xe00acd35cd292703U, 0xe10cec15ddfac00eU, 0xd60e1b0b1026f2e8U,
  0xdfdc1ee70314e6f7U, 0x1bf2e4dbfb5218feU, 0x23fb01eee6ffeaf4U, 0xc113e7cece0918cbU,
  0xfb47e67fad310615U, 0xeadfe6ced4bdfbe9U, 0xab2bc61fb00b0652U, 0xda16101d002bd4c3U,
  0x35fa110ee01ef3c0U, 0x22ead0391fbef8feU, 0x50edc77a5f14e10bU, 0x55cad7f57f19d723U,
  0x364fe946dd201bf5U, 0x620e0c30e5dab014U, 0xed2a32e44226f72eU, 0x24f927fa2bf82608U,
  0xcafdfa04e98141baU, 0x2aa40517131cd215U, 0x29f608e936fa140aU, 0xe108f03f2011ee11U,
  0xf0201f1a08c02f1aU, 0x32e4ce0aefaac4e2U, 0x1e0638e2c80085cbU, 0x18fc7fdfe2060affU,
  0x381cf3130fe7a4U, 0x5001696f5d2141cU, 0xe42b151a0040ee45U, 0xff05d6dcf8191ed2U,
  0xfff3d5236c19f0edU, 0x2535d3e803f6fc01U, 0x3713d9dd204a40e9U, 0xfff73b151a2d222bU,
  0x23d00636f55bdeeeU, 0x29ce2ce21101db26U, 0x40ddf201e2f31012U, 0x58e3f27fb10df33aU,
  0x1afbf7132b121845U, 0xff02ffece80ef831U, 0xd253113c727c513U, 0x7ff218ff342b1cbfU,
  0xf1d0a54cfd14ba16U, 0x1c0c160ce805082fU, 0xffd6ecf5e4152b0aU, 0x4cbedd5f411616f1U,
  0xdd19faf90815f60aU, 0xcdbc3cf00329d926U, 0xecf6002a0ffa46f4U, 0x161008b8ebf9fad2U,
  0xec20fefc057fc6deU, 0xdce12ffaf113071fU, 0x1508fb20e62a0bdaU, 0xea04defcf2a61fd8U,
  0xddf5f5f9cfe3fdf2U, 0x191a2f13f922dbe2U, 0x21faf819060bfe1aU, 0x16f2aed504d6d3fbU,
  0xe33d5619222381ecU, 0x46e9d417ed9ff00bU, 0x34fdd6e3d22ddde4U, 0x37e02406fba9f70bU,
  0x1c1c141f0a3afc0dU, 0x7dc0623281b11d6U, 0x381519d0c90b93fdU, 0x4ead1e0c8a9cefdU,
  0xfb3457d31ae2049dU, 0xab0019e3ce2a0be9U, 0x2504f1babafd05feU, 0x22f4fd21204ca314U,
  0xfdd1133120c35423U, 0x7ff208f90400103bU, 0xfc3313c1d12bcc2eU, 0xcad2d33d5879d902U,
  0xf2e1d1ba3037d545U, 0x41810decd81a062aU, 0x12e0d92af113e045U, 0xe432e1dfce500fdcU,
  0x1102ce37c52bf959U, 0x11fdc2eeb55201ffU, 0xd9fdfbf2de1cf657U, 0x214499004428dde1U,
  0x23d0f8e90767e5f1U, 0x37fe810644a20518U, 0xcce4e91eff2a46cdU, 0x1fc0dba7fbbc54edU,
  0xdf161b22cf222beaU, 0x39f43742fe531cefU, 0xbe5eb40e201d536U, 0xee2401fd1c34ebdfU,
  0x20baf609ee1acf43U, 0x1805eabe1ebb090eU, 0xcdfdf1e602df6114U, 0xf9e704b827073eeeU,
  0xe3f1ea7f04112ce5U, 0xddfa1e092d0035f4U, 0xfbbece0e051afa01U, 0x1d1b5e16bacd6635U,
  0x480755bcec1e05faU, 0xfcbf92a07e8fcbbU, 0xdfd922478114f043U, 0xbef223dcfee4fb16U,
  0x30f1d50628e8d327U, 0xe82cd01577e1f826U, 0xf52b3a03d832e513U, 0xcf0efdfcfeddb7efU,
  0x34e23e257d23f643U, 0x3613000a1dee7816U, 0xf323de14b33bf52fU, 0x607fcf181d3362cU,
  0xbb142bcbe70cda06U, 0x51c4f84bb328231bU, 0xbc350a0114d6e315U, 0xf40f2ac10df5f022U,
  0xe30207e35316cbc7U, 0xf5eb1b17d9f3ed04U, 0x3cfc0aff7f3ef7f3U, 0xd028cde7da260a0bU,
  0x221c0d13f5e8ec12U, 0xe716d806d3e8f104U, 0xedfd0ff51949f809U, 0xe3f517ef3aec240cU,
  0xedfbc2321fbb0a1dU, 0x15b42152fc02c7e8U, 0x540bf50d6827ebf6U, 0xce1c086b8177df17U,
  0x3bcc18edfae4d900U, 0xeae20e309b2803baU, 0xfd1fbd232cad2716U, 0x576d103e2c2a0147U,
  0xd9069db7205f3e1bU, 0x9c47fcdf4222de5U, 0x672cbf1074ecdebU, 0x57ced1f8ef5bec21U,
  0xf92017461108e6a1U, 0x363bb89b2411e2cdU, 0xe4278092622b8beU, 0x8ead7e60bf90313U,
  0xd91d04c20144e0b4U, 0xe34311f82c07f21eU, 0xaa19ffc8aaed1938U, 0xfa7ff4de2dcb1445U,
  0xdeff1eebe8d5f43eU, 0xe106e3b642f307d8U, 0xcdd17fb9d210fc19U, 0x31e12ceb11122f4bU,
  0x2c1a024e34e10112U, 0x1e210c14ebd23018U, 0x19d4230b3dc8d200U, 0x324201ed0e101c0eU,
  0xfeb503e123df1a09U, 0x344cf6e47001c00U, 0xfacf7f17f034af06U, 0x31e742ea0c1febbfU,
  0xd9e122e20fe2c0b6U, 0x11e803dbff46d817U, 0xaf31116e8fb0df8U, 0x5d2e160305e5280bU,
  0xd210090beb2feb56U, 0xc3fbf60224df070aU, 0x90620ee9eb0269e4U, 0x383b1dcdc0e9b4bcU,
  0xb61615f7de7fb924U, 0xf7500cc95df5f500U, 0x1a9e03b85ef9f4f6U, 0x15d8d8f75559e6bfU,
  0x483f321f5d1302c1U, 0x682c3e1a20279c6cU, 0x26f90d015763f311U, 0xff41d38a3709f133U,
  0xcefafc99ea81ebfcU, 0x7dfccb60cf4dd10U, 0x416f934213b2a12U, 0xd7a802af00bc05ccU,
  0x4f213c9b300e08bU, 0xface02a4ff40d125U, 0xead0f73bde369a1eU, 0xee2b13d7eb819ca6U,
  0xec36c8fae919d7d6U, 0x103ef1fa00a0c9d2U, 0x1b6bc8c4ee2d26f6U, 0xfc190d0ab7190857U,
  0x391e66f33d2de6dcU, 0x251b39e90cffe9d5U, 0x4173100d2f3d542U, 0xfcefa621df030ad6U,
  0x21ebd4be213db43bU, 0x20f1c4d6bdf9f413U, 0x149c04e0efec4040U, 0xe414bdf6ba814543U,
  0xe31f032cec91143U, 0xe4db0edb2f2f5deaU, 0xae7f13f4e3de05dbU, 0x1a231649f9f95cc8U,
  0x10f9f0c6fc07fd5aU, 0xdb3a0de4cc0c2c01U, 0x1a04e3fce2eddc44U, 0x1ce91a22c4f3dd2eU,
  0x13001d6d0c1508e5U, 0x1b06fddeee58fbaaU, 0x5a80d58dee83c34U, 0x3102c5cf04cbcac0U,
  0xfbfdb72dc020f18eU, 0xb6027f1ab65af9b0U, 0xd02422d5ed2c0d8aU, 0xd60c51f0439f0e46U,
  0xf6fdeb26ca2e1cd1U, 0x24b811312faffef1U, 0x502f9eb0b0de0ffU, 0x8f5c9b1241efcfdU,
  0xf924bbe5fe0b1e56U, 0x206bb38e713dcd6U, 0x5950fa147f4b0519U, 0xc036f3f7f5193214U,
  0xffd0fb412b093921U, 0x7201353caf7fcfcU, 0xf9ee2bf72c097f25U, 0xfef848f0df410c06U,
  0x25efffecf6c2275aU, 0x27f70fbcdd09190eU, 0xe04dcc17210e2524U, 0x23f0d8100436daedU,
  0x31cfbf84e231e21U, 0xec1212f523022d33U, 0xd03d47d3fcf2bcaU, 0xe2cca9b21a1aac1fU,
  0xcb73a2b7c11d3635U, 0x48f8e79b61481fcdU, 0xba7e811b57663f45U, 0xe23429af07feef56U,
  0x34cf13cdeff5cfe8U, 0xdaf43cf8d82dca89U, 0xd6f80c2bfdf50a35U, 0xe904272cc85004dfU,
  0x3f0de7b6ed1d1650U, 0x3dd116cfcdbb0234U, 0xd781131d0aeb4249U, 0xe21108cb18fd20U,
  0xe40afc2208056bfcU, 0xe4e1f0ded31405d0U, 0xefe46081025eddffU, 0x4f2e7f39c9404624U,
  0xeab334e24f1cfeaeU, 0x5eddb9e0fb31fd37U, 0x806f264f4062144U, 0x20d4f4fab5ebfe45U,
  0x5794d3ff15fd6003U, 0x5651fd92ad55ce4U, 0x110d24e7f603fffaU, 0x6e60f2e24b40f738U,
  0xe3cf10b04032cfaU, 0x2cffaeee1f7f18f7U, 0x1e001f866d13e0bU, 0xe3e92457d739ef41U,
  0x210fcd23ecf7f240U, 0xf519efd809db161eU, 0xfaea0cbb171c16d8U, 0xfa0c0d2dd6e60335U,
  0xedd21023ffe1054U, 0x131981213bcc25faU, 0x33ec190a203ede0bU, 0xc220de1027cbf603U,
  0xe2482adadfc9d327U, 0xdddb41819b9d6cdU, 0xfbcb0425f10b28f4U, 0x18f6ef00e9e215f7U,
  0xf100f0f5f00108f9U, 0xed1bf77f29eefef9U, 0xec0c1601130a0dffU, 0x20d1fb010c11e9f7U,
  0xe4f6f6e91801eaeeU, 0xfdeed2f31ce9d0ffU, 0x26f5dddf07e8f0f0U, 0x272013bae9e2fbd6U,
  0xeaeab0f837d3e6caU, 0xcae0f31aecece517U, 0xf27fe1edf713ffdeU, 0x7fae6df0443d5f4U,
  0xfb00f6f3fbbee0aeU, 0xe832e4e0e3eef8f7U, 0xe81f2106da1eeb02U, 0xc5cec0ea26f2fde2U,
  0x34ebde26f1c6f0d2U, 0x1cc41903d111060dU, 0x3cf13819e3f8060fU, 0xf1efce28e1d0312fU,
  0xdcddb129cf0b7f57U, 0xf2e70a591be02aebU, 0xd756d5f569dd0d0dU, 0xa31fcadb02ea9a41U,
  0xce7f41b4de21090bU, 0x11cd2212fa0909dfU, 0x44ebbdeffc12df08U, 0xe5b03e3ec24ff1f5U,
  0x13e930db1a58c53fU, 0xef1234dcb83f3313U, 0x132fc68142a97df3U, 0x4dfdf326041be1U,
  0x24d2e2dbe21ffac1U, 0x2ee16582ce912b1U, 0xf0de3a4f5d3c7f1U, 0x72eb53179047ea15U,
  0x1c27a81205f5db45U, 0xbe2f0ff72210f056U, 0xb4211de7db116346U, 0x555100e4f04cb294U,
  0xf207a5e0d7c4c70cU, 0x1bd2c61652adf256U, 0xd6eab8ee14f61968U, 0xdeee30eabf7211eU,
  0xff055a0e329bb8a4U, 0x6aeff60ffed5f97fU, 0xece2b4e9e2c1f6U, 0xd42b3c7f26ccf71cU,
  0x5dd3fae810e21f03U, 0xfdf1c4f326a8f908U, 0xc5ad49ce34e1ccf1U, 0xec0419871418de08U,
  0xe08da15f528e700U, 0xe80ea2f809044e53U, 0xffebebe5e9cf2aecU, 0xb6f6de6402e7d6fdU,
  0x3c3b43efa154b8d5U, 0xd74a2d12f04908ecU, 0x2dbd3bcad5de1c10U, 0xf1e1de6a34813718U,
  0xfbcff55e1d221411U, 0xebb21065e60eb398U, 0x5f40b0fdcf8db18U, 0xe2ff0dcaf31bd4f7U,
  0x1be9f2164035df02U, 0xffd44f8ecef1f14U, 0xe57ff10201271d1bU, 0xe72bf6c2e1ec1817U,
  0xfecaeeeb02e502fdU, 0xee4e016fb264dd8U, 0x1803eb12040bead8U, 0xcef9254017ec11d0U,
  0xe4523af8ac7fcf1cU, 0x627bd12100fba14U, 0xfdbafcd8fc66dbebU, 0x79ebff1af0e6ecc9U,
  0x25f7e7ecf262fe19U, 0xb91af01ce6c035e4U, 0xf0e9f8dbaade6a5aU, 0xf07f01fd297ac2e5U,
  0x13e8e40fe3f3c8f0U, 0xfe0798f8484bf1f3U, 0xcca11536e728f822U, 0x2f59c9db151d3cf5U,
  0x28211e4fc16b1be0U, 0x1f01d1f10cfefe29U, 0x12152628bbfd2edcU, 0x12291c0d32a6434aU,
  0xbbcbdf5fbce2e0cU, 0x37ff1535fadf22bdU, 0xf76066c05a65f104U, 0xde0e5a03bfbd274cU,
  0xe5132ca3cde9f2f5U, 0x2d08c9f003212e81U, 0xffee01f8fef445caU, 0x33d6ed010e54015aU,
  0x3f452ec3e77e7f4cU, 0xdc4aa90c1647ebf5U, 0x3112f6d73aba2813U, 0x35f72ba5c2c9ee54U,
  0x2f120dd1afedebfbU, 0x90d5ec3b4af007a7U, 0x2a21042f54f6d8ecU, 0xbbbee0c9f9fd9a39U,
  0xe9223217dc111011U, 0xf01949c63affd6c9U, 0x127ffec3eff505e9U, 0xd7e8243cecf80a19U,
  0xfbdeec29f1d9dd15U, 0xf8fa15b7c9f723daU, 0x1ee51d00329fef2dU, 0xd504fccde9f721f8U,
  0x24f41d7f24f40f13U, 0xf5fa4d0208df3d03U, 0x3c12e141f1d7feefU, 0x47fee0fc0b08fcbeU,
  0xe520f4d81af002bfU, 0xc7f5f17c07e8e71fU, 0x6f433abdc7d00f4dU, 0x41ed29debe9f1fddU,
  0x1aec09733916f6efU, 0xf726a9fea7c8ef37U, 0x19b2f08108f5f9e1U, 0xebf9d32ee9e80513U,
  0xf64de302b5cf1950U, 0x2b16d4e51dacda30U, 0x3a243f4d0fdeb302U, 0xfdeefd73d4e3233dU,
  0x66a110125efe447fU, 0x751251509fb04ddU, 0xf6ed0cd250b3e92cU, 0xa32439a8ed380104U,
  0x13c8f7fb35c2d9e8U, 0xa21f7e90b38f904U, 0x2ce14c42be340220U, 0x1e143148fe5ceac2U,
  0x3981e80d14e9865eU, 0x209fecd4e8e77f1cU, 0x528a5145019eec1cU, 0x59b5d3abda450ccfU,
  0xd1c7df4d256a3b01U, 0xd9dd443d0eeb511eU, 0x3be6ed3904290b67U, 0x2c36c54650e7c1acU,
  0xebe7b3c012ba9505U, 0x3312892cee3d0309U, 0x2af4c44a14fdfc11U, 0x3ed5a1b46ae55781U,
  0xc908c00602b209c4U, 0x224622f322e2e42eU, 0xd2f918130902b11cU, 0x501241f18090612U,
  0x11440a0a4df608daU, 0x3234fbf0dab8fc14U, 0x2e49f4e27ff4082eU, 0xf31af01a55fe26edU,
  0x222ad19d03f52a08U, 0x1fdce4f90ec7e41bU, 0xffffc6e30000037fU, 0x149800000e03U,
  0x27dfffff7ceU, 0x2815fffff653U, 0xfffff2c6ffffc0d2U, 0xffffdc36000009f7U,
  0x8ce00000169U, 0x493fffffe5dU, 0xffffcf38000005a9U, 0xffffef3efffff6ffU,
  0xb92ffffd7fcU, 0xffffdae7ffffef00U, 0xbe0000002fU, 0xffffd909fffffe65U,
  0x228600005565U, 0xfffff47c000016baU, 0x1f400000f14U, 0x26ebffffc79bU,
  0xfffff434fffffd28U, 0xfffffb68ffffd326U, 0x24a1fffff547U, 0x24400000ee6U,
  0xffffd77a00002968U, 0x78e000025a5U, 0x49cfffffc08U, 0xfffff166fffffe35U,
  0x27a9fffff59eU, 0x2654fffff5c1U, 0x3dafffff99bU, 0xffffff47000008c4U,
  0xf7eef0f573bbe8U, 0x5327a7a353e83465U, 0x428f2b48f1382e21U, 0xe133670e182bc2faU,
  0x657fd263a52c8136U, 0xd73738dceae49c59U, 0x1a0f2a7f565a17b3U, 0x39058a7f810f2bc7U,
  0x67dd237fb91feb81U, 0x2c7b5df33a7b813aU, 0x744381181cde4e68U, 0xa3510622f2267f44U,
  0x1181b37f59f7c57fU, 0x7f11e38181ef57ffU, 0x9f64449878445552U, 0x818104153ec0d378U,
  0x27f9e7f42d72f43U, 0xed32323f373736c5U, 0x78101473e18ac13U, 0xf6e1b8430353150aU,
  0xe1813c0a2fa7d86aU, 0x6f5a55093e8181b2U, 0x587981b4d36827c3U, 0x48885e4bef470390U,
  0x505f52b47227b7afU, 0x5b67b1157fb84566U, 0x81819b637f4e1798U, 0x3c8fa13f71ccf639U,
  0x575f45ac56586298U, 0x273e36fd35429d28U, 0xb524383a7f6dde39U, 0x7f5b8ee77fb67f71U,
  0x6e497f7f7e7f7f94U, 0x725e18ce7f7f8268U, 0x7f34aa4cd9a61b7fU, 0xef2b7f997f85817bU,
  0x7f7f24a36ebb6e91U, 0x5b121763dc7f7f09U, 0x35b43a22cfb85552U, 0x472044815756d75fU,
  0x4449a57ff57f403aU, 0x3605ff162c8dac2fU, 0x52c4e66de4f58a23U, 0x409e11b618853703U,
  0xc15d3f186e727fcbU, 0xeb2f819351208bb3U, 0x3ef59e0109c5550eU, 0x1fef2814602b2997U,
  0x712fe1cc2d5eef18U, 0x46f816fa8c2ab23bU, 0x610a38bf66b5b537U, 0xa6a8299262bcac8U,
  0x5a7fdfe051471e67U, 0x1a817a2493eeca5eU, 0x7f13498e6df9849cU, 0x3c5bdf3f3f674014U,
  0xe400275e6f3ee781U, 0x7dd2935943c2cd05U, 0x16b8fdcceb533781U, 0x593a377f136f9be0U,
  0xbbc609071b4f4505U, 0x7b1ee31206812625U, 0x156d2ff6430430adU, 0x2efcb3b01a2a0b4bU,
  0xe90811501ee0210U, 0xe39e12f41df3dc1cU, 0xff1a0eeaf6c1e5f9U, 0xfffffa393a0d1a2dU,
  0xfffffe4e000026d8U, 0xfffffdbfffffec03U, 0x2c7000000c5U, 0xfffffd6200002827U,
  0x290dffffdcb9U, 0xfffffa8dffffea73U, 0xffffdbb000003fa0U, 0x3518ffffd7c4U,
  0xfffffd750000000eU, 0xfffff7bafffff4a4U, 0xcbfffff412U, 0xfffff1e8ffffe705U,
  0xfffff4fd00003952U, 0x13a0ffffed63U, 0xfffffcdbfffff875U, 0xfffffcd1fffff330U,
  0xfffffae0000010eeU, 0xfffff52c000027b6U, 0xfffff7e7000028deU, 0xffffd87cffffe645U,
  0x4532000047d6U, 0x22cbffffef58U, 0x39ffffff89U, 0x3d04fffffe7aU,
  0x564fffff685U, 0x144ffffebc3U, 0xfffff0bbfffff959U, 0x5c8fffff067U,
  0xffffebc6fffff080U, 0xf3a28c500000428U, 0x4317f5f64c23fde7U, 0xe7d01fb6a720f324U,
  0x7133195fb8cdfd0U, 0xadbaf783d60effa2U, 0x7f2a40a9bd0ee004U, 0x50d066cfdd875fbU,
  0x3e93060fc6bd051bU, 0x680d19d49f7f00f5U, 0x47472023d17d5e04U, 0xf6eea28122f16348U,
  0x316b6737f8182bcfU, 0x3c5e60525eb1b36U, 0xe904554ed1c934e6U, 0x4f09efc8620c0559U,
  0xc498cf4db2fccc3U, 0x6c186cddeb2506ffU, 0xdba9bae904e7ced2U, 0x2c0035d43a10d648U,
  0x19c00a263c242249U, 0x428114c4f5200503U, 0xa0d7f5f8f920e9acU, 0xfc0bfed4c6260d21U,
  0xff06f725e6d8f2caU, 0x1eeccdb416e6e462U, 0x9fe9fbb8c91021e7U, 0xd8e8f4357f30d621U,
  0x5f814fbeddbec0aU, 0x1ba9dc2aa930fce7U, 0xe50b22efda09fb3aU, 0xc82ebfefc05a0802U,
  0x501da0a3aa0204f6U, 0xbaff458e69168703U, 0xb21ac33458e8b4c0U, 0x1bfee82fc909cb1bU,
  0xfefcbc3ee908ba63U, 0xfc5f4ff02962bb9U, 0x43217f2a771dd1dbU, 0xd71cfeea5a08006aU,
  0x37dab2ef7fb0b2f5U, 0x3d09a70fce3a1de2U, 0x482fecfed60ec812U, 0xf0c991c10320a57U,
  0x25180deee6f007d7U, 0xbb402027243f1aacU, 0x27edd5f3f4b1e2e2U, 0xebf0e60225f3e844U,
  0xfedfffef14b121beU, 0xfcf3c0f9c93839U, 0xc3f581b924ee31fbU, 0xf222b91ae309e0fbU,
  0xefc3e2d0b31d01edU, 0x2f0e9630b5192be9U, 0xf215e1fed42ee9d2U, 0xfff125e5c3d9cc9aU,
  0x7012db3f423d0acU, 0x100ff43bdf9981faU, 0x1f03a1462ef310a2U, 0xd01eb1ffd0ed253U,
  0x13d8c0ebdb20f3dbU, 0x100087fe8301d5fU, 0xe8de0b2eed01e73cU, 0x9cf8eeb3de01c7e8U,
  0xfdddc918d2aa6e3aU, 0xe6fdfb4d0120f8a9U, 0xc4a2e707dc18fbfaU, 0x22ccf9a2fa1b072fU,
  0xdad2ddfff34c9116U, 0x3b5ca1d0e12d42fU, 0x4d21ec4d45e02568U, 0x3cdcfb1411fbc71aU,
  0xba2428c71605ed4bU, 0x1271f01e11a11cfU, 0x24f77fa905198741U, 0x53e9bc0eca0dffecU,
  0x410a1217ecb8f59eU, 0x1510c754b5dffa1bU, 0xca18ff11eb241720U, 0x5be713f70c221dfcU,
  0xf9fb0ec219e471ffU, 0xfb0ed8e4da0bc516U, 0xf0110e0bed302dd6U, 0xe5297f3dd6edf95fU,
  0x24f027dfa832bcc9U, 0x62d2058282b57edU, 0xeefff1bb1dbd3f07U, 0x37150c03100f260eU,
  0x290621761c1fee38U, 0xff1e526afbf710c2U, 0x1bb07fd96815ee1aU, 0x20ff0ceb0feddf0eU,
  0xf403c410e113fd05U, 0xcc2448adaf003516U, 0xd5d8dff7fb81eb08U, 0x4d0226f20dfadac7U,
  0xe0f42902230016fdU, 0x1808d9e12f4ccf16U, 0x2d1a491d414dd1f6U, 0xe9ddd5f10c1017a5U,
  0x2b46ae1af50bdd73U, 0xc11ce017de2239c0U, 0x1d1efd38092281eaU, 0x160ccd1a14db01e3U,
  0xd309d8ee08fa2ff6U, 0xef33cbf15262913U, 0x31df17fdd62cff5cU, 0x4618f7f7c30700f6U,
  0xd0e805cbcfdbddf9U, 0x94bbebe603ab0ae1U, 0xf044f3cdef270dU, 0xe1b2f9dfe50856daU,
  0xbdde5c313d3d2c1U, 0xb17ff824386f36e3U, 0x7f22dc09d6bde8f0U, 0xe870fb001809ec1fU,
  0xd51c4e052fd4102eU, 0xea1853c8273ac839U, 0x5ca0fd203ec0d75U, 0x49cf7f5deaf01e0fU,
  0x920dfe14f40deee3U, 0x16d5eb38ece422dfU, 0xd2dfe4a30010fc03U, 0xcb09e2c0afc909ecU,
  0xf1ba3fdb0c3b7fU, 0x2f155722e319d7eeU, 0xe1f9eb346ddd0c40U, 0xcb010e8509c10f60U,
  0x19da4f9c001bd5e3U, 0x9502e4044c1e8e0eU, 0x73cc8ff32ce9d3cU, 0x25055fdbe03aeb12U,
  0x3c62acc02f5610eU, 0xe702de359416ff1cU, 0xea0225248145e915U, 0xc58db10d10a10f8U,
  0x163bfc07dae290bcU, 0x20d90933d90a0018U, 0xf86a19d919f8121aU, 0x3b12cb1e0cee0402U,
  0x161903e40913e103U, 0xe2fff2f7030ae609U, 0xde080cee07fd05eeU, 0x97f460e633eedfdU,
  0xce1a010cc89de75fU, 0xc11ae609ed170b56U, 0xe1f449c4ddbcadd7U, 0x52f93d2813eefae2U,
  0xeec8042ee1090cafU, 0xa222e28cbe04181U, 0x1cbff5f99200f570U, 0x3c48b3eeb026e824U,
  0xfd06470be423f62cU, 0xb4c00bc242ebea1fU, 0xd301226050fe211U, 0xfdf1dccf1713a416U,
  0xbe44d00e46140a44U, 0x111edfef34bc7f36U, 0x32f2de0356dd11e0U, 0x49ecffe80209f5c5U,
  0x14af5060ff00215U, 0xac0ee9bd09f7f42eU, 0xfbd4f0d95fc9e2f6U, 0x643dd1af3f8dbU,
  0x8bcdcb07f25fae7U, 0x1a13e500eddf0717U, 0x290a42110916e301U, 0xf11db0ffe7fa1b19U,
  0x6cfd2a1092fe3ef7U, 0x51c4d623ad04350aU, 0xf1f515da810af5a4U, 0xc1e21bc870f0aad6U,
  0x18f5f9ff02f8290eU, 0x21afa47e00eb305U, 0x201f005d8d54318U, 0x2af7b4e5fdd3b50eU,
  0x2ee2185439d40ebbU, 0x22e5e72014f69a42U, 0x81e3a979c4329d24U, 0x1d0842bc24382bcaU,
  0xa091a8e1101ef908U, 0x74f63c1329b3fe1fU, 0xd62a33d5e307fae1U, 0x3a1808fd4b9814deU,
  0x12ce74e8f9ebe4e3U, 0xbe1cbf211efdee2U, 0xe62e074b2a0cfe32U, 0x1fe0d07f0003f32cU,
  0x554600d1e3bc2028U, 0xe7fbfcf341d80010U, 0xc30eb3eab52fd4f6U, 0xc6d52526a4fb32d8U,
  0x122f3535cd36ed0cU, 0x30a18e6f7de1c51U, 0xf407dfffc5e27fe5U, 0x4effed500d2eac5U,
  0x577fade504cb16bfU, 0x1cd2ce16ba161823U, 0xaa1cda0af4341125U, 0xf70363f60bf992d3U,
  0xd9d03efdd709ff01U, 0xe22a68fd021ec17U, 0xdae8f60dd7000e0eU, 0x500b0e16cb2007dcU,
  0x19f7fce711d914eeU, 0x5f01ce8e509e707U, 0xed0be5d712dafd2fU, 0x5f20eed00092bd2U,
  0x19183c25020b12d9U, 0xed2d2ce7ea0afe7fU, 0x1510ebf024f4fc0aU, 0xec2add101d1de4f0U,
  0x312505123df12310U, 0xfd4f219effe001dU, 0x590ff90d3f12d5e4U, 0x11f6e5f23d1cec3bU,
  0xda34ebe4d90510e6U, 0x72c1635c8fc7b23U, 0x161f25241e1c7f07U, 0x1506fd2c049e2421U,
  0x2f10eb0044bd54e8U, 0x154d5b18d2a420c4U, 0xf6f2f8c4b53d81fcU, 0xfbf7dbe5192ae2b3U,
  0xf83313e8d2d1b72eU, 0x5c241ed45202dae0U, 0x617fd4b239e41ec7U, 0xf7c02807a0f0092aU,
  0x7b0423d9cdde2d0fU, 0x2d6213f4ab631faU, 0xddeee7f3512319e9U, 0x3dd6d7abdef7d80fU,
  0xf1f2fbfc06f2e101U, 0x1b46cd70bbe6f2f4U, 0xe71adedbe0f1d2d3U, 0x2cf1e7ea7fe1ec19U,
  0x3ad0202f11e9e905U, 0xee0c3ed54456330aU, 0xdf4e7e503eaf628U, 0x19e028ee3307dce2U,
  0x4ae445e7ee5407ccU, 0xec2101d4d33b27e7U, 0x321d4f234293027U, 0xd34a67e011382908U,
  0x5e9f652ed06c70cU, 0x11f00d81c620f54eU, 0xf9f70f371ac623dcU, 0xe4f315eff903262bU,
  0x291814c2ee04fffbU, 0x1ed8f6f6263e3b01U, 0xaa2fc2f1062000efU, 0x493f330dd50dec28U,
  0x5cdda22c3bbd9132U, 0xc62908dde940293cU, 0x1315049dc037cf81U, 0x5717ee2ff9e703a0U,
  0xec5cf55e5ca19123U, 0xd583d110c1d55e7U, 0x1a05f02f121d34d9U, 0x8e0307ab01cb7f0cU,
  0xd6dde9edc9e2103fU, 0x6dedefcc4df02c11U, 0x34d914d3d2f5fd2aU, 0xfe2def13c0e23517U,
  0x15cee5ef4afae8f7U, 0x2a90f90f04e9faf5U, 0x2e040fd74a12c921U, 0x7f20e4fe5ea4c728U,
  0xb413070de50f010fU, 0x3f30baa1b33bbc4U, 0xe2fdda23e5d9fbdeU, 0x39a70b8138d5c70fU,
  0xe5d8980bb9fdce34U, 0xf22922deb424e40eU, 0xe11f225fc12e225U, 0x3102121c4fdda25bU,
  0xc4df5523f318c608U, 0x3016a1dff7da7e9U, 0xee10180011fde901U, 0x3c390de8a861cdf8U,
  0x2c7fb2565f3c2897U, 0xdc1b0cc4a09a2741U, 0x192ce3f6b3e2e20cU, 0x2df731083ded3e00U,
  0x1bb72862f89109b5U, 0x7cce3ad9e9f40824U, 0xcdeb0cfed9e99ca8U, 0x13e2a7dbcb023a04U,
  0xe859b4dbe1faf71cU, 0x68cfda08e6fccbd8U, 0x2016cac57e23c27fU, 0xd2ec510922e5f029U,
  0x1fe0026f420c662U, 0xcc1f1c3937d43a44U, 0x8b827240cfcbacfU, 0xdc03133d3fc7011dU,
  0x1bf3f40edbc849ecU, 0x45ea25e4bd36812cU, 0x470aa51b401a1fb7U, 0xfcf03b249ac347f7U,
  0xdbda1ed30c4c181bU, 0xa06dc0fd9bb1ae0U, 0xfcce2a778112f220U, 0xcffecfe8e5d915b7U,
  0xd0163f4fcfd4af9U, 0xdfafbc556fadadbU, 0x746061338f30521U, 0xb0f7ef2c00caec46U,
  0x1154eef35ef3130bU, 0x2ad5ea2a8d0f2bf1U, 0x43be64dbe44f02c6U, 0x50f481d1c0d038d5U,
  0x4bedafe22a8e20d1U, 0xf8f93137d70bd1f5U, 0xfcac12e04908d7fdU, 0x7ef0d175dc5fae6U,
  0x4f25077f1948e343U, 0xf2f42f9052cfb03U, 0xfe0ada01e5181716U, 0xfec6f60de512660eU,
  0xec133b03bd071efcU, 0x6c81ee842fc20faU, 0xd00fb0af2fce01aU, 0xde06dc07f520af40U,
  0xf0d60e135ccd2108U, 0xbd09412a1a21ef19U, 0xce9ed06e1f6aea9U, 0x7f19dc19d6eaf247U,
  0x51f3fb24132ee2c1U, 0x70fd11f07e70b6bU, 0xda0e0221f5db2241U, 0x370af20b12c60112U,
  0x2afef698164e35fbU, 0xf417edbf06eb1af3U, 0x8ff19e1ee92af71fU, 0x381ff1e50271f956U,
  0xe4a415f081f89f0aU, 0xe7fd1dba2efefccaU, 0xf3a2f92c1de1d8f7U, 0xa4131e00bac5c9d7U,
  0xb5e7fb2be762d7c2U, 0xfd8fef0d5a7bc5e8U, 0x55c72753cfb9692aU, 0x2b1a7fe7c8bdb71bU,
  0xc94ceb3af6f9147dU, 0x2d44e7fb11e9ceffU, 0x58fb0c7fc22be67fU, 0xa1f9fe3531bdde2fU,
  0x5bc5f5f7d1bd2f10U, 0xd556bd93b95e1eb6U, 0x71c975dd533cdc2cU, 0x9212d2e9f0fce700U,
  0x6516f4340c0bfd0bU, 0xf00d13dfe642fdceU, 0x1e19d3203ab40daaU, 0xed27db18c3fdcdfcU,
  0xb7e8e87f32e15240U, 0xe8ea55a9073be053U, 0xe60619dee8f2f130U, 0xde1117e11f0a18deU,
  0x931eefbcb1403c6U, 0xa21fe8e1ebf018a0U, 0x9b1317dde0fe008U, 0xe51b35ec21f12ce0U,
  0xb07f26b718f59af4U, 0xc3e5b4340cd003e8U, 0x12f8e27dd4fcfa0bU, 0xe35efead13d5b6ecU,
  0xd0495408ced7db13U, 0x3afdfb00da081d3dU, 0xe4808f3e0e5d517U, 0x8dc211ef924fc0eU,
  0x3e117daf61eb705U, 0xf411e00fd91f190cU, 0x1e1008ed060cd6cbU, 0xb3eecdfe7ffcf3e2U,
  0xa5de2ae602eeee0bU, 0xc9d3e8094f0c0e2aU, 0xba17dcd328316fcbU, 0xf613b51dffe60942U,
  0xfe1bfcd81c0517dbU, 0x1feeaffcc5fdc131U, 0x24fd33870cf602dfU, 0xbc81ecd502edec00U,
  0x201f80a67d3f3f2U, 0xebf4ed0c141d02fdU, 0xc8d8100735eff3edU, 0x6fe0806e2d1e216U,
  0x905fce91ff711e0U, 0xf0f5faf3e520f514U, 0x427fd8fee0e80d0cU, 0x2cf8980111160900U,
  0x6801fb1329081542U, 0x60ad31dee9080d38U, 0xe00524fffabbd0f3U, 0xf3f5d1df02f9da09U,
  0x3ccd7fb4ecddbcd7U, 0xdbd90d4f14ea3009U, 0x462b34af193b3bc0U, 0x9ee8ec0355541d55U,
  0xb7ef5d9e2b101efaU, 0xf9ce22edfea6efd1U, 0x160dcd012d1b1d33U, 0x25f5c58148fd0b06U,
  0xfb350aae36d1ec9bU, 0xb5262ef4af03241cU, 0xd324f4493243bc0dU, 0x307e32c0904f40dU,
  0xe17f2bd2ef0b1e13U, 0x15e708e31bf6c6b9U, 0xe61ee7df2aebfa20U, 0x23dce01fd606e110U,
  0xcb0226d613163105U, 0x1eda423598efdc1bU, 0xbe0b00fe060a0e24U, 0xcc75ef222fe8f320U,
  0x73cd4f9e0d70d06U, 0xfddad4c40e3ad7eeU, 0xf717dc11250e1c41U, 0xeb0103e802f405ddU,
  0x7ff1f41fc5100227U, 0xc92df42deac91ff6U, 0x350b64ebfce3caceU, 0x90dea2dbe9bf1605U,
  0xb62a89b4db45720cU, 0x2b27d11cf90adf52U, 0xafbe259d4be70b14U, 0x551ff3cafe0bda65U,
  0x1baee00ace507f06U, 0x2dee10103d71efd2U, 0xce2914297ec2f8b3U, 0x213122bad9f4d5c1U,
  0xe324e46d8a56767fU, 0xaae1bb0bc701cd8bU, 0xdcd6e9c2430d000bU, 0x3a8a6dfa0f04596aU,
  0xd29f21b0065c5e6U, 0xca0f162500f031f7U, 0x17fadc3945f51a29U, 0x7f05392f201f7bdcU,
  0xebe6a118f5ec3521U, 0x2226f2e4ebfb12f8U, 0x43e9f245e80ee0faU, 0xd621f1ed113c252cU,
  0xe02b1616182f48f6U, 0x921eb5fd24c5ab53U, 0xe5e2f2f5037c4781U, 0xf734be120e32fe36U,
  0xd2fd0d140e180eadU, 0x7e9740ad0dbf82dU, 0xfcdf35e467eb00f7U, 0x1b10ced104383bf4U,
  0x1aeb1204d821160fU, 0xd2593d95031bef26U, 0x25e9e3bc190fb5bfU, 0x371b10adeee1cbfaU,
  0xc4f1d7ed96cdc7ecU, 0xd95efeed34c77ffdU, 0x29732a2331e61dd5U, 0xcb48fc2001b0d9d3U,
  0xdc36fe13d00ee4fdU, 0x11833104d30335bcU, 0xc881ca0fefe2fbc1U, 0x70210fb8f04ca20U,
  0x2fd4ab32e6d91902U, 0x168db2f1f99d4d6U, 0xbbe1d9fe100905f6U, 0xe7fffa0f4b1cd404U,
  0xd14512291bb09cd8U, 0xf06d36ebfe1c0ddcU, 0x12e5367ff00435feU, 0x23d3491c960dfe68U,
  0xd531dde90e3617c1U, 0xf9cc0d02d5a83cd4U, 0x2c2117120b3eab1cU, 0x10dc0ef843106e12U,
  0x33d2690a1dfe0afbU, 0x15e918fa1fec13afU, 0xfdf2e525f6e80befU, 0xfed01ffb7ff309bfU,
  0xf24709cefdce2fd5U, 0x7ffd1218ce29f9acU, 0x5e29d6e3dff30909U, 0x3ce82e00c5dd4ffcU,
  0x20f623021b3cc1bfU, 0x51022492e3069cefU, 0x3f2d47fce5e8fff0U, 0xee141330f9e052deU,
  0x363a772c291b0408U, 0xfb18fceb1626d1ecU, 0xf7f608f7efeefbe5U, 0xf7001804090dfdffU,
  0xea070bee1e09ebf2U, 0xf501e1f2fae616f9U, 0xe50ff4e80ceee081U, 0xfc060713e1f410e8U,
  0xf3f56ccefd160802U, 0xf630a3e41c27a6f8U, 0x764eb13a8c14fe8U, 0xcbae30211b2c810eU,
  0x110d06f316ddce18U, 0x6b66f82e15e13cd0U, 0x4500190a02bbd4b7U, 0x43d31a5c0430fbdbU,
  0x3ffaeaf830041581U, 0x2e782802c6f2f9f0U, 0xe4eb9ce3f125c12cU, 0x3538f639fdf20847U,
  0x82bf2f31bd7f2fcU, 0xd36f1ff32e001406U, 0x37deef20e212330aU, 0xced1f6fe210f0e9U,
  0x5bb9dbefc02047e2U, 0xce33ebd9e5f80e13U, 0x16b7c9ec3d05edd9U, 0x3cfc0531f7b1b727U,
  0xeffe06c7f6dae27fU, 0xa02e06dfedfb0b26U, 0xfbd65f07d96c0f35U, 0xff3af638f64002b2U,
  0x16b801f103ed0eabU, 0x2b5e6f8224116e0U, 0xe220c630d486f8eeU, 0x11e5e57fed2602cfU,
  0xd6dfb24dd7edebf0U, 0x4219efd90c201cc9U, 0x312f2205eb19e324U, 0xe3e616bfce1d1f32U,
  0xe77f14c8d510db03U, 0xc409222e82ce1b0fU, 0xe12a073fee3b3829U, 0xc9e419d3e504063eU,
  0x1b0513f11ce5000aU, 0x2f13c8e20c07dbe4U, 0xba061c08180c3208U, 0xb0000210dd130c32U,
  0xf6e47fdeefdff621U, 0x1636a6be15d9ecdeU, 0xbc06e9dac61510ffU, 0xd8103136ddb2df05U,
  0xf086bf564208fbf6U, 0xdb2c49e1e75d59aU, 0x3b254681fafdabddU, 0x44b41f1309b61826U,
  0x366ff825acf1d3bdU, 0xebd95d44194a42ebU, 0xfe877d1ad0dc1927U, 0x2cefdd4dd0362b24U,
  0x2792e806ffd12fa5U, 0xfd401c290ef1fde1U, 0xd6f60f10f6eebd1bU, 0xd2ec0122ccd5051bU,
  0x1d63d83219f3e97fU, 0x340233560702f9fcU, 0xe1efe04807ea2a27U, 0xfccac2fbdd05f716U,
  0xf2c70110f9c39efaU, 0xe4f01fded6e31e1dU, 0x5f05de3c27103bf9U, 0xc04a8ef8d9f338caU,
  0x10fd40b781000f0eU, 0xff01a0d2cfbe7efU, 0x343001162a281a42U, 0xe109eefd4257fba2U,
  0xee0dd5190290e8c7U, 0xf203de3a0e2de3e0U, 0xee061adfa9f1ea1eU, 0x202af82e38d5b8edU,
  0xde617162c05d0fbU, 0x131400b8efd10607U, 0x7f3ac4efdefe12faU, 0xd681d8d1dcf149deU,
  0x1de8b57be106e20bU, 0x39f93a33facbf445U, 0x4a13be66fdc3c8bcU, 0x92ebdf56c1f1541U,
  0x2e0df39aed1dc06U, 0xee1e32f32a127defU, 0xd131ef363dd9dbddU, 0xd0df1ef302bd3623U,
  0x914408e2184ee1bbU, 0x13f7d8d8592bdb00U, 0x4c4f8fc4f9d7fc0U, 0xb4ed3c1b0bed11eeU,
  0xe3f90fc7022b0d29U, 0xa7a552f1ded8fa2dU, 0xf62d112202ebeef8U, 0xdaf7e7af4f19da2fU,
  0xaa4fa6d9a3f52711U, 0x35d98e08062b8121U, 0xbf3426c845eb7023U, 0xcd346e12f70a107bU,
  0x902430f606010f1aU, 0xfcb471fab0372b1eU, 0x5a16ead1d0f51704U, 0xb18120a792c4e9bU,
  0xf6cfdcd821e9aa7fU, 0x11d246fa302ef3f0U, 0xdfff9c0dc9fc1150U, 0x28e41bd9614939dcU,
  0x11d0f30e961c1e48U, 0xfb81d612d3b5f0daU, 0xbb0ec03a48def4e8U, 0x21040d0de5c7ebc9U,
  0xe3c693ebd11f1e2bU, 0x9fecc1ec8f24fe2U, 0x8422c1837071b4dU, 0x1303f1f8fa13e84dU,
  0xe3d21740f5b650dbU, 0xf523d9fcdc2efe2dU, 0x30f5060d15d725eeU, 0xf7e77f1e34e59c05U,
  0x1b070605eb44f1d6U, 0xedf5daf5fa2beef8U, 0x3bf51d1825d2b5f8U, 0xd9159ecf3ae60e0aU,
  0x7b34228d636090eU, 0x30dbcf28eb05e7d8U, 0x70e1bd3c2bb0f4dU, 0x3de8faf7fce0f0feU,
  0xf319f181f2d1bd12U, 0xeb321703ec11b7f2U, 0xcd2422221e790dd5U, 0xec17f4e504dd0612U,
  0xf1f247e617184101U, 0x2fd226300cf0f818U, 0x1fbe7f0c26edf9fbU, 0x31e71fea19c2e410U,
  0x18e0f5ebd905c1b4U, 0xee36d72223321d02U, 0xca10ed20ecf81b2eU, 0xd1bc0f1909d84414U,
  0xdd6c1c0d6efff0f1U, 0xe3fe0309da3bf80fU, 0xf2fad9eaf37befc1U, 0xf2e90d7fd9e61853U,
  0xb9e5070b88f75019U, 0x9407252007cb0ae3U, 0xedfbf20a443eddeU, 0x5fcee2df4fbfddfU,
  0x8e07ae25bc040ca3U, 0xef18bfbfe922690bU, 0x1ff74f0cf2b85733U, 0xad0bf9088ef7de70U,
  0x26bdfe2431e24adcU, 0x813921d2a7fef102U, 0x15de27281dfb1511U, 0xbacfb481d9102ae8U,
  0x2138a5cece0f1cd1U, 0xf1de16203cc6eb25U, 0x1b00e31b0ed3effdU, 0x3734f5f737eadf56U,
  0xbfeffdcbef01d5bbU, 0xfeaf69e82d321324U, 0xa6f8c21a02beed09U, 0xd2fa98bbf2e9f3efU,
  0x7f1e52ebc4f229fdU, 0x58de4c0118e126d3U, 0xcd35e5a9e40ee923U, 0xedefe7123503c71bU,
  0xe1c8b65a5a0e0ad4U, 0xff371ed429ca0a30U, 0x1f3dcd80deff91aU, 0xc7084cf2f3fbf013U,
  0xee0dfd220d2edbf0U, 0x9e7fead0f0b1a2bU, 0xd81dfb1ff906ebeeU, 0xdd3223e4da1a0a44U,
  0xfefefae6c4d97f2eU, 0xdf00eb3bf4fa0fdbU, 0xf31626f87fbc1fcdU, 0x2e05c1d61d07b6e2U,
  0xf3ddb91007dedec2U, 0xc6fb00cb3aed56cbU, 0xf521b6f312c50f28U, 0x1df9021c12fb0739U,
  0xdaf316b81d023e2aU, 0xf0cd6d0b6c61116U, 0xc1112681161ee7d4U, 0xbadd3123f027432eU,
  0x4de814fe443cdcfbU, 0xca726e8e6e6d53dU, 0xd40a024dbce6ea26U, 0xf6ff4021fc962aefU,
  0x241bd5ebe3fd0eefU, 0xb92c1215222540c9U, 0x9bcae0ef802f5d1U, 0x6816beee1110c72fU,
  0xb40bf300ea0d247bU, 0xec1b54e5f70057e7U, 0x3206ba027febe2e5U, 0xcc002b771e980429U,
  0x1308efdd743afe07U, 0xf2c7f4bf07e71ebfU, 0x29818ed054e039f6U, 0xfb0a94cc01c9eeddU,
  0xb0392f32d0edb03eU, 0xaf08f1f5da1858bdU, 0x32d61edadb1154f8U, 0x12f014dee1fa0425U,
  0x2016bf3bdf90e29U, 0xf8153324050707feU, 0x13afeae51afe8106U, 0xf708ef21fdf7f7efU,
  0x36471c2bdbfa0d02U, 0xd3f9d8192f09dd03U, 0x7e808d2e6f1ef08U, 0x47bbb45ccd13e420U,
  0xb527628c8110e72aU, 0xa49df6505d2cbceU, 0xd2f6faaa2e37b006U, 0xa4fe115e0110c813U,
  0xf53b31f205eb2a28U, 0xde101f06f1cc2014U, 0xebf7dbf31ce0c7fcU, 0x7feb0c3d3f0602ffU,
  0x1202b81e332640dfU, 0xf218d02ff10cfb04U, 0x21f4f7fd59061acfU, 0xfbf451d8db2a1e68U,
  0x4ae4459ce517279fU, 0xffb1ecec081002efU, 0xde2082cf31af300U, 0xc5400dc7e8f2c4fcU,
  0x5beb040dfd540310U, 0xec2d314ae4e70f63U, 0x4f0177f1202fb71U, 0x952325e600fcedf3U,
  0xc60444d1f2e4e049U, 0x1ffaf30c2be709f5U, 0xeedb0924bfe3e3cdU, 0x9f6e22aeac4f41dU,
  0xe3f50c051e10dd7fU, 0x2afbf4edeccc1513U, 0x52f7809d114ebe6U, 0x1318fce12006bcfdU,
  0x6c32e72e062da6c5U, 0x5de981d8c6f5d12fU, 0x351d1d222046bb30U, 0xca2d32e8d3f1a310U,
  0xf5f31203e1e625f1U, 0x47242bdbd633b848U, 0xe21430f330d3279cU, 0x21bef2bddd29eef5U,
  0xc923f31b00d4d434U, 0xd3d2fef54d18e939U, 0x11cb2edeeac804d9U, 0xf316cb097f0b08baU,
  0xe50dc43144250be6U, 0x1bc47feea51deff9U, 0x2cf0f8ecef28ec26U, 0xefcc21bfeb76053eU,
  0xf510efaa2ce1d1bdU, 0x2deaaa3cea79390dU, 0x2a949f6e8f174dc5U, 0x56f6ea8d55106c2dU,
  0xb3182d2837051818U, 0x23faed580c330734U, 0xe993c5105d81aff4U, 0x291ae64ddde51cf1U,
  0x170db6d30d01a50cU, 0xe0c94b5fe8e456beU, 0xba2c1103d149e42fU, 0xa1ae7bb23fcd511U,
  0xfb21d9e5e8c900ceU, 0x5dd8eb317f2be2a4U, 0x1a1e0af012cbf8dfU, 0x9cedf42cefe3e411U,
  0x51f53beebf32200U, 0x17e4a9dccf0c1cf8U, 0xdecfe2adff03ccecU, 0xc1d01fbd2cccbbeeU,
  0x6cf4dce2e94fd87fU, 0xff42c172d903e309U, 0x2fb1c2dd1580504U, 0xca04133fb9e4b4beU,
  0xe0bfdbebe54f7fe1U, 0x8374d7d04c22020U, 0xcf0010d4c0f9e2acU, 0x2a01354c8c2bd547U,
  0x9005380ba60de79dU, 0x42f4e7b7ce60ce32U, 0x6da121cdb02e335U, 0x43f121cb08dcb025U,
  0xe3f7c71bec2cf9d0U, 0xedf3216ffcfb0ef6U, 0x4811a2cfa02c32aU, 0xa6fb2011fc23000cU,
  0xf9d6070a106619ccU, 0xd4e5e7edd2c7161aU, 0xbadae4f706e5c52dU, 0xc250de7dc03e3c1U,
  0x92cfccb27ffc91aU, 0x13e7064a50401a99U, 0x13062f5c3a54433U, 0xa81000fd8ea1007U,
  0x40f1e8d607b8320aU, 0xbdcaf6a202f30ee9U, 0x24d73bd5421b41f0U, 0xd1d5c00f2db8177fU,
  0x201d45d36d25a7f9U, 0xf60b09ea43f9954dU, 0xf2c43eff72ecb39U, 0xc0dad9f83ae8cb25U,
  0xffffa77c00002b22U, 0x1a8400004668U, 0x4ac00003c9dU, 0x4f86000032b5U,
  0xbd400003bf3U, 0xffffbe15ffffdf6dU, 0x13b4000029c5U, 0xffffedc500002ab0U,
  0x37200001032U, 0x3bcf00001c53U, 0x126b00000ee0U, 0x2f610000146fU,
  0x118dffffdb70U, 0xfffff3a700001d87U, 0x3121ffffc773U, 0xffffe4d400001ec6U,
  0x2bf8fffff6c2U, 0x147fffffd1d1U, 0x6c300003159U, 0x3ba2fffffe1dU,
  0x13bdfffff98fU, 0xfffffb70ffffda4dU, 0xffffef2b0000403bU, 0x14c6ffffe898U,
  0x124d00002977U, 0xfffff954000069adU, 0x17e5000026ebU, 0xa18000021cfU,
  0x4a1dfffffbeaU, 0x2110ffffb287U, 0x3d330000743fU, 0xffffe14effffea1fU,
  0x184500000a49U, 0xffffef7500000260U, 0x24af0000530bU, 0x3dacffffed8aU,
  0x9a400000077U, 0x19b4fffffec1U, 0x34aa000014d6U, 0xffffe6d000000f1cU,
  0xffffec0a000011b6U, 0xffffe2ab00003110U, 0x245100001046U, 0xdaa0000244fU,
  0x220500001408U, 0xfffffbda00001994U, 0x109400002dbaU, 0xbfb00005cacU,
  0xa1e00001897U, 0x10ddfffffb81U, 0x110d0000893cU, 0x2a5500003354U,
  0x588b00004259U, 0xcd81e6890000152cU, 0x417f94c484a9f803U, 0x1c5946fee87244beU,
  0x70681fdd0fb47b5U, 0xccc090e981c6a8a8U, 0xebde4fea097f110eU, 0x2a170c7f939cd10eU,
  0x9afa7fccdc0f1676U, 0xedad16351dd2bc2fU, 0x56c96b648199ab1aU, 0x8fc281bb81bdb81eU,
  0xf97fca241496ec25U, 0xf0f30b0a08f2fd09U, 0xcddb7f03de143030U, 0xeab331d8bc43c5f7U,
  0x9b05620d81d9af7fU, 0xaabc2dceb981cdbbU, 0xe7cf7e747feee128U, 0x2a27aeecde90bf08U,
  0x3f0a0dd67f2acbbfU, 0xfcf37ff36b41cd26U, 0x198181c5e5ef0cefU, 0x4976290d7ff5484fU,
  0xce1f01f4fe7ff6c7U, 0x7f0ef41e120014cfU, 0x22ebf26d22d84d1dU, 0xcb37710672b581cfU,
  0xe9d76d79ee9f7fd1U, 0xe8cfd67ecc810ca1U, 0xd06ce455ff377f15U, 0xa14fe469d981ac32U,
  0xff0b4452d5813620U, 0x81002bcfdd72d1eaU, 0x44edccc4b181c1c4U, 0xe9f2cbed3ff5e950U,
  0x3284ee0398add181U, 0xd58ed9c303c881ecU, 0x65afcf80dc7af81U, 0x41020a6c7926787fU,
  0x597f6bcbc74d08c2U, 0xfa13ef1f7f43bd06U, 0x7fa28c78b6c1a1edU, 0x3ee52e7f0dfce2f1U,
  0x1c369bea681d52fU, 0xf3e8eb007f0e5f73U, 0x25edfbfd9a0150f5U, 0xf2d4ec17fd7f09f6U,
  0xaa7f50f5d17f09b4U, 0xefd92ebc1f15d317U, 0x3661b80d1c08c281U, 0xb48199c9f2d1d3cdU,
  0x6793ce9fdf29c286U, 0xd6d73cb0da7f5d7fU, 0x81d254ee09fdfffaU, 0xb7bbe6c4284d338cU,
  0xb097bcd0e281bfd8U, 0xc0c125690cd5fc81U, 0x7f26642b81d2a8b5U, 0x2a07ea2efb00c71aU,
  0xfc35196d0007e6a0U, 0x6695027fc4d72a7fU, 0xc6ccf217fd1c4a2U, 0x2a3cf21affc16c9U,
  0x42648c330ccfaf81U, 0x27df08fe7181accaU, 0x4e120a81af29f6faU, 0x81417fda050cd840U,
  0x28182c175626b99dU, 0xc929c74825e95581U, 0x3901c359458130e5U, 0x7eb747ebb7279f90U,
  0xb2c161e0d962da81U, 0x7fcdd031d97f62edU, 0xc205cb0f1b1cf90fU, 0xb351b8bd81b1dcccU,
  0xc7efd154ebda7fc5U, 0xc8da0cbb7fb601cfU, 0xd151f8fa7f2feca1U, 0xaabb4f40ea7fe39bU,
  0xf51e205e147fda9bU, 0x1d180781aa0ee6ccU, 0x4032bff4f3554ffU, 0xa8012e26051a7fefU,
  0x39a95ccf8109f219U, 0xc1177fe90e5ae533U, 0xe8cfc1eda481b1e2U, 0xabbf207f025426eaU,
  0x1effded0070612c0U, 0xdea581cab59b7f57U, 0x81e6db9b16c5b78eU, 0x15cdd1eb490e1c17U,
  0x268e0be7657fd35cU, 0x18e59b35b6db137fU, 0x4522f7d0e57fb6b2U, 0x817bdcb55fb7c8f3U,
  0x94daadcaf481c6fdU, 0x47bbc1603c637f87U, 0xe47f3585b7b014e5U, 0x81fcfc4926ca22dcU,
  0xd9dd39e530cb1647U, 0x4be78f37efb8f47fU, 0x3d8181fa7b171905U, 0x8bc12be0b979ee92U,
  0x27526edbdd34b181U, 0x4c6aed89d442587fU, 0x1dfce2dd7f43c96dU, 0xb33a73f481f098b6U,
  0xac96ca481d6f535U, 0x81a2f289cfd2855aU, 0x5b7fdaf92eddc384U, 0x7f1e07cf0cefe80bU,
  0x3b3a1a6decc11c31U, 0x22dfe7e7cd3b8118U, 0xeb357fe6afe78d9cU, 0x81c64543b33e11c9U,
  0x7f0039d29be4e7dbU, 0x67ff3f1ee23c1f0U, 0x4bccec810cee215bU, 0x18d7bce3f5e2f654U,
  0xbba191cc43b5d81U, 0xfee881c32bf3efU, 0xffffebc900001ca4U, 0x1fc4ffffff2bU,
  0xfffffeb2fffffbfdU, 0x127400000073U, 0x1cecfffffe17U, 0xfffffccdfffffa92U,
  0x87cfffffe9bU, 0xfffffe800000171bU, 0xfffff51c000000a9U, 0xffffe20fffffff40U,
  0xffffeaa0000000cdU, 0xfffffa7d00000739U, 0xfffff0640000004cU, 0xfffffd1000000092U,
  0x152b00000c55U, 0xfffff9dc00000ecfU, 0xffffd4f00000184cU, 0xffffed72fffff3fbU,
  0xfffff57dffffff60U, 0xfffffb5bfffffc51U, 0xfffffc22fffff971U, 0x69efffff588U,
  0xfffff55800002875U, 0x902ffffff31U, 0xf9e000026d7U, 0xfffff15f00001032U,
  0x3d1fffff298U, 0xfffffa86fffffe8eU, 0xd92fffffdccU, 0xfffffc3cffffef3eU,
  0xffffff470000008aU, 0xffffffa500000128U, 0x2825fffff851U, 0x1efffffae1U,
  0xfffffdb1000001e2U, 0xfffffd63fffff7d2U, 0x5ddfffffaddU, 0x4102fffff232U,
  0xfffff775000003e0U, 0xf91000033e3U, 0xffffff5ffffffd84U, 0xfffffb77fffffec4U,
  0xfffff83500002c09U, 0xfffffef700000275U, 0xfffffe24fffffd3cU, 0x1cd000002a5U,
  0xffffffcffffff586U, 0x96efffffe3eU, 0xfffff98b00001bf7U, 0x1a3fffff334U,
  0xfffffe2ffffffdfdU, 0xfffff38efffffea0U, 0x190000027eU, 0xe63ff4fcfffff8b8U,
  0xf496ea1a380b97caU, 0xdb001cec1f2724b6U, 0xd8b631285642fadbU, 0x5defc000060b1fe9U,
  0x91ed462efb23f612U, 0xc15c533080840ddU, 0x51183902ff13e0b5U, 0xfbee37aede3a0454U,
  0x9181b37bbec5d0eU, 0x217d7c5f1dc131eU, 0x11081406d43909caU, 0xbffd1f07fb343ebeU,
  0xfdfd05ce5ecb7f09U, 0x3b16063ca91e212cU, 0xef37282fcf1a00efU, 0x2ed94731d6ec000fU,
  0x1bfcd82d17ff211aU, 0xcb24cd30eff300ceU, 0x19c431320010fe1dU, 0xfd001b0107142634U,
  0xcd0723cad8d30cfcU, 0x1d4524f431e89905U, 0x44fb2c42e0628112U, 0xabf81ae0c7f4d316U,
  0xee12021bd617e1f7U, 0x35caefd208c11509U, 0x1300251852d601beU, 0x9ed10c3e4fe44ebU,
  0x34faeb00ba12c2dfU, 0xd1c92a1485dafd01U, 0x83b120deee804efU, 0x320bb419f6c2bb2eU,
  0x28e439deebdff2eaU, 0xc81976f0c3fa0022U, 0xe5d3f8faee2ef181U, 0x1ee96e36f64645fcU,
  0x4c02c1c10ab5e6f1U, 0x180618fa07feffe1U, 0x9090ef7ec73d31aU, 0x46f91cfeb4dd5f54U,
  0xc40f1e02a912082dU, 0xe7e228d8062f11U, 0xf02510f208edebd7U, 0x2d24180602100108U,
  0xf3d79df8eae7fa0fU, 0xfbee03f5d2eff41aU, 0xcc1f21001932e630U, 0xcbf2b611f3e0e81dU,
  0x33f49a091a1eedfcU, 0xa6d351dc21c10052U, 0x20c2e401042dfeecU, 0xf042e80b3adade40U,
  0xffe07f52220d0a11U, 0xe0a74d62bf1950bU, 0x1f29fb1c81f92c15U, 0x4b08f2fe2f001223U,
  0xfbfbec2208c0f1aeU, 0x2136c915d4d28614U, 0x45e3b99f0b20b7afU, 0x4a1ca4fff1e989U,
  0xa539f14c5bc804edU, 0xd8cac3503ba7d5e5U, 0xe08e9152c8b67f17U, 0x3ef6d20108441843U,
  0xe927f6eef023624fU, 0x5a0fc3073e32ddecU, 0xed18f7d628034e1bU, 0xea34d7f92b0f2424U,
  0xfce300fc2b2a09fcU, 0x1d3f30def1cdc41U, 0x36f30a33fe0428U, 0x2d67eb333bd73730U,
  0x4e93e1c5c1b0705U, 0xb0dfe6343801a010U, 0xdfd91cecdd22dd16U, 0xdb180f10211adaedU,
  0x44170b26d82243e0U, 0xe61dda2c05fbd7feU, 0x58126e72e01dc15U, 0x2e4020befc80c1aU,
  0xdc11f51e1acb502bU, 0x3d0621461883ebf3U, 0xb3fe1215d1fe0400U, 0x3a18030ff9e319f9U,
  0xe7bd2919c6fee4f5U, 0xe5ccfd0f28962d17U, 0x6350133ec98a4f9U, 0x1bad040fcddddfbdU,
  0xe5e4dd1f0fd9cffeU, 0x2804fddde8f47fe9U, 0xf4f8fde64ab52afaU, 0xcafaf8c4143fbde3U,
  0xc9c6094817fa030aU, 0xfce23d01e5ff5ffeU, 0x1b21e1e4eafaec3dU, 0xb0e31ab4002231faU,
  0xe0c9d632bcea0112U, 0xbe9fedbdaf8f300U, 0x12104ff1faad81ecU, 0x2ddf7f10101f745U,
  0x53e210eef40bf2ffU, 0xe630e3fb0b22ebf1U, 0x7f833d461f1b7bfU, 0xc930eb0aeef943U,
  0xaecafd23f52ef90dU, 0x3f19f9d7540a1107U, 0x4032a2fefd2611e5U, 0xebddb812e63030c2U,
  0x1300f7344f6749ceU, 0xbccf5ed0537c61bU, 0xb3a8a7dafef9e226U, 0x442ae9c2c720be2cU,
  0xf4ebafd7022f1ec8U, 0x48ce531bff0ee974U, 0x17422f81fb392b32U, 0x9eddfc8d401ee1dU,
  0x210c330ff2a6bc41U, 0xe71dfa4c1b1c16e3U, 0x1feb491f36dec715U, 0x2600781bf6d3dcfdU,
  0xf1f3f019c607f32dU, 0x12df1d2114091e21U, 0x2ed9e3f6f4e600ceU, 0x2f90332e892e3c2U,
  0x1ef6130400461a02U, 0xf81135312407f3c2U, 0xe00014f82a322d14U, 0x7f0b21ff383609c8U,
  0xe5e00d003a16f4fdU, 0xe143100a141dc228U, 0xf71f1c1209f8edeeU, 0x14d820ee0a040e41U,
  0x1bf205fd07f0f3d7U, 0xd700f92fd3eafeb2U, 0xffdbfa4a100a220eU, 0xfeec4e004901fa27U,
  0x3f120b3f2aeb17f9U, 0xecc9e1b930f40205U, 0xe7feb07013805faU, 0xebe9d607f41333caU,
  0xf93b4513f322013fU, 0xd92bfa142cf9e6f7U, 0x2835fa040f0e0fedU, 0x43d810f3dcded8b9U,
  0x11fffcf2e60c27e2U, 0xf60831fc05d523f8U, 0xe2e52d020b010408U, 0xd3fffdffd43421feU,
  0xef0a297f550f02U, 0xe1016aeb0917030cU, 0xd1cbc3fc1209f344U, 0xfcbbdddde81528d1U,
  0xf1bf9e2c7fdbd25U, 0xf2bee3012d1518ecU, 0xd53de2e033393206U, 0xdef0dfac433b3818U,
  0xfd0dcd17ff2d27c8U, 0x2a2949291b253a10U, 0x415f1013feb115aU, 0xfeba7d14ebe21116U,
  0x101eaf2bd30e1c27U, 0x48e63706ce39d5efU, 0x80794e41b00a7ccU, 0x379d08f5d70e15U,
  0xfddef802c8e5a8f7U, 0xe926122bc8fdfa1fU, 0xfff5e8ee09d8393eU, 0xc09f4091dbc04d1U,
  0xd9f5061d07cc272aU, 0xd37fc1f6d9f0dae5U, 0xd7faa577dbfdf3c5U, 0xfcc2a7fcf4b0dfU,
  0xf1f42301a91cd1d1U, 0x46aefe195bfecc05U, 0xb4d0fcffec243627U, 0xd9d6002e28d12a1fU,
  0xdb119f22eff80f87U, 0x19a9fa15f5fedac4U, 0x86ded4fa0759e5d2U, 0xe9d6f904bff127f0U,
  0xbbf80953df00f0d4U, 0x3be589a12b71bd9U, 0xe92a0f143e09d5f1U, 0xc542fa14057fe9f4U,
  0xfb3eeffc110603b1U, 0xffdb373a2cebe2fcU, 0xf4cb00abc401dadcU, 0xf1f710fcf4d83920U,
  0xfef8163214e529e6U, 0x3c303f906e01000U, 0x132eff2befdeffcdU, 0xfcbe9032108cf2cU,
  0xeb181dff240ec620U, 0x924ff13d508dcc4U, 0x24f9d8d814050513U, 0xd561fe18dd21e1faU,
  0xf706fa0811020802U, 0xaef8f5f5fc81ffddU, 0xf13407bfe4c8f715U, 0xeafee00cebfd14ebU,
  0xe50c21fcf5fcf8fdU, 0xdc40edff042f42cdU, 0x15130a00dbf610U, 0x403ff70629bbed1eU,
  0x7ff11d00173edf01U, 0xf10f21fe14210102U, 0xfd2ebb293b1c5fffU, 0x8513edcfd19f300U,
  0x390c0d0815284bdcU, 0xbf0a04cedb1e04e8U, 0xf94ee4e843ac5d25U, 0xf8f31e0af004fc31U,
  0x433fffdb0af2dc48U, 0xd8eed67f00484628U, 0x655f2f873f11dfaU, 0xdd00f2603db3322fU,
  0xfd0963e6c51b8fe5U, 0xe29ef10400351240U, 0x582dd6d5eeeabefeU, 0xc5441d051e0ad3acU,
  0x109f68f10173d21cU, 0x3e97a0cdfa23274dU, 0xc0bb212bd80c37daU, 0x1c5d1ff0ebef904eU,
  0x38332c4622694f48U, 0x1d2a90bf2717a5abU, 0x17042c2a03d5fe03U, 0xf909d9e7c137eafeU,
  0xa101335d5ec0a31U, 0x26060b23dc8100f4U, 0x302de14c7c92fe5U, 0x15101cfc19f86215U,
  0x1c1e1a171017e424U, 0xddfffed2fdd1d4b3U, 0x2923c8da02ce0af8U, 0xade1d7cb33f815U,
  0x3ef1cec5e7d3e31cU, 0x5c3b08dbcb0a0fdfU, 0x1f13123f9fc551fU, 0xf4042e18ff4dd0cdU,
  0xe6ffdc030687fcd6U, 0x4dd61b0bd94a1636U, 0x1d60600013026ce2U, 0xcef1ecf23f5c2b2U,
  0xcb43eff3d1040b0eU, 0x3c91ded0ac312c9U, 0xce1924e62bdef10bU, 0x55af5d9dddf0043U,
  0xe41e0a4745e1f305U, 0x622cc5080176d27fU, 0x60bc00d4130c2c19U, 0xb4f2de23d525ff1fU,
  0x46f2f3bb4cf00cbdU, 0x203616fef855e3c5U, 0xc861c12eeef4b52cU, 0xf3be133116d20eU,
  0x477cfbee2742a7d9U, 0xebd92d011c4cea54U, 0xe5aff12ed74a0a11U, 0x366c442a01fdd6ebU,
  0xdeecfe02a5c26ae9U, 0xdade1b1dd3215410U, 0xc2c6437fde50d2f3U, 0xfcc1007f026b43bU,
  0x4e516bcc0f50110U, 0x54e8072ae94fd946U, 0x2d763af17e504e3U, 0xf51347fbf77f09e8U,
  0x1537070c42db253eU, 0x361725624200f9e7U, 0xfc12f464da16e324U, 0x18221133c8fcc5ebU,
  0xfdfb17082ef142edU, 0xff5e1e04ff47d7e7U, 0xffe7f30878e728f2U, 0xdf3ad1fc06cc2323U,
  0x62dd2413cf855d8U, 0xd4d9fc46f1360cddU, 0xd41d3aff1106f7feU, 0x5f38f9f8122f151fU,
  0x59ff06df7b0543f7U, 0x47e001c0327f1712U, 0x5a5100180adce7f2U, 0x4c029225f13d302aU,
  0xad3dabf1303e4daU, 0x1fc524dca2baf613U, 0xe219c1f9b740e9f7U, 0xe63fab35120026e8U,
  0xfafffb13e39d1145U, 0x2bca2927be0e1e6aU, 0x4f0d74af2349e78U, 0x34d90b06b31e09eeU,
  0x1dc344ab8e5e7eeU, 0xe9e7ffebf31cd702U, 0x4cebe066ff7fdcf8U, 0xe8b522fa04d72325U,
  0xd4ef23faa825c500U, 0x80708e73820b3d6U, 0xea1bfc0b09e38700U, 0xea00a1efe926b029U,
  0xf70afdf321042bd3U, 0xd22d3cf113f60bebU, 0xda2547fe03330ad3U, 0xe4f8ff13dad40e1bU,
  0xd00bbfe5ea20c6b1U, 0x2b2230cfea18faeeU, 0xfd181ad300f91b10U, 0xf629be1afeac28f3U,
  0x3b0da6f0e3ec37c6U, 0xfdac0c6800defbf5U, 0x1cd3f3ed26c1a21dU, 0xd7ecf63619004400U,
  0x4bb2811e031bdfe9U, 0x2b2f16f6c31032b3U, 0xd6e708d90b971100U, 0x32e1441bde9e0826U,
  0xf2474fd010eaadfdU, 0x3eabf8313b34d3f5U, 0xf0c03de2101e9a59U, 0x173201e7dd3ee6abU,
  0xd41ff7e7fcfcf4b6U, 0x9db042ccb1fd1d9U, 0x8002d1d55df0aeeU, 0xb4b5e7d6f0e1f61fU,
  0xd4ddcdd3042c01efU, 0x602dd29e23de054U, 0xe9fecbf3182756f7U, 0x69f8f7ed0004d0ceU,
  0x249d6bb4d0e10646U, 0xfbddef8127b3cff6U, 0xf13322dfc240dd42U, 0xe21c140dff0cd412U,
  0x22de2c13ff3dfb40U, 0xc0014ef7033e6feU, 0x3b0a2027f50ae5b4U, 0x422c16dfcbeb070bU,
  0x63eefa73b120035U, 0x1004ee0d2cb8e4c8U, 0xd3e0dcd4e1e3e6adU, 0xb1e2c1f03c13c6d2U,
  0xeaff7fd5dc0ad90bU, 0xb53608f701b6fe4aU, 0x4bd303bcf6350a0eU, 0x51ac9fde3fc0d33U,
  0x182a1f1914f6dbf4U, 0xf1f4e224ee01fbfeU, 0xfe00f004f9f42632U, 0x33e7f1cbff15041aU,
  0xf91c210ee3fffa13U, 0xfffd1800e6ea0d13U, 0xd4ef3b0f08fe2d0dU, 0x280d1a3709fdfb23U,
  0xe9d801f10b19e814U, 0x1dfb070be00bc0eaU, 0x6e1feda0d12ffe0U, 0xfc01f91305e717dbU,
  0xe036e617027f01deU, 0xd81f1de9030af42fU, 0x16eeefea1f25fc1cU, 0x27ff1af81014f900U,
  0x42fd0fff09f7ef1eU, 0x30a2c1cbd2f312eeU, 0x32262b7ffb23d6U, 0xe4f7b71b0548cc12U,
  0x30ea060a92f11adbU, 0xd3e34c6344cd0bdeU, 0x59140940ee43500eU, 0xebe1d000e41fe3c7U,
  0x23e22114f6390d78U, 0x21ac376702dccb21U, 0x1e8d200003b2f00U, 0x2de20fafbd3c3befU,
  0x5c8beaec0e1acffaU, 0xff3bfecf12e7f67eU, 0xd021fb30483305d4U, 0x10125682b8ee40dU,
  0x30f8d4869800efd6U, 0xfac036d9052ea71eU, 0x5e2dd020d3c2d0eU, 0xcae2f884f4d602adU,
  0x1baf1de25c1e72eU, 0x3ec4c4e6c7341d2eU, 0x75cde9130f060aU, 0xc0191e2522391537U,
  0xfe135b43206df7fU, 0x161425fe4ddf0cdeU, 0xec1ed502e2b0e0efU, 0x3f81f203fa021a13U,
  0x1c27c8f00ccd1dedU, 0x42c0025fce4f22aU, 0xf9fb041f4123fe2bU, 0x1939ed0be6f5171fU,
  0x480b0212e8e30416U, 0x33c60830f9e0e5caU, 0x190dd712e200f9f6U, 0xe6e707f5340a1238U,
  0x9adacea9bfee7d6U, 0xebb08c2cb30d217U, 0x2a0cf20c4817dc63U, 0xf7ecf4fbf710f4c5U,
  0xd635fd171ff1b5a8U, 0xddeefe1b7cc1e805U, 0x55e1d41cd3c0143bU, 0xfbe3f324e29df800U,
  0xc2fbf20a1fd5f3dfU, 0x784652b8d1c2cfU, 0x39f6b14be530b0e9U, 0xec1a003853fabbedU,
  0x2924abc0bb080cf5U, 0xea17d3b211750ac3U, 0xeffadf007fcf59d0U, 0x161a24ebd525fdb6U,
  0x8bded2533b021ce1U, 0x2fe30cbf9efd4253U, 0x9ffaecddd6f1f204U, 0xd8efb70ec7175b27U,
  0x5b49f66400eaa7c5U, 0x11e32218ec3dedb3U, 0xdd7f24c0130017ffU, 0xcd2036fc1c35fde0U,
  0x14d3cf2e18ded90bU, 0xf84506f023e00effU, 0x103cfb052efaa304U, 0xfa6ef51fb106cec1U,
  0xf211eaccf0e5db18U, 0x1a19ee09f202fb43U, 0xd35002f823d0f9ecU, 0xc8b512f3050114bbU,
  0x2e236ae52ef221d9U, 0xe8002f2dd9572e22U, 0xfc7f42f4fdf01cU, 0x3d6fffc05617115U,
  0xe3cab9f8dcfdbf27U, 0xd44161910dfcf09U, 0xf20b0c1001ec3ecfU, 0x2bfdd81e231448ffU,
  0xebddc236bede5965U, 0xf9efef15fb0fc6d7U, 0x3e1009331e60210fU, 0xf42401fbf726f000U,
  0x6602f12050ebe805U, 0x3546ec241306e4e6U, 0xed3fbb00ff02d803U, 0x22c30938fc9900bfU,
  0xf0fd74d703c70c3bU, 0xaaeb0630eccaa3faU, 0x102dc1051cd8f60dU, 0xe401ae98f455cafaU,
  0xf7b1233b05d9db3eU, 0x10bdf63df61af576U, 0xd4f70a1be6f8cc0bU, 0xf38ee35ddfd23f1U,
  0xd8142ce00910eefcU, 0xeafee67fff293f0aU, 0x175c278aeb1102d7U, 0x557fb05cdc4eea9U,
  0x604c5800a8d6d7f7U, 0xe07e3e0d6052a10U, 0x111435c7e4f30bbeU, 0xe0e7f9f820d21c37U,
  0xb77fe9fa39194bb6U, 0xeef208bf1e1600feU, 0x5cbffff4dc361debU, 0x4c35a4da1bbd1bf4U,
  0x27c307fbd3892ef3U, 0xc74612ebd101272cU, 0x1601eb1de3c14402U, 0xe2fe0cfe0e3dd3e6U,
  0xfb1c4e2ca923f12cU, 0x65c8fe28fef73dU, 0x5f0d704fefb1b51U, 0x49fb6704ec7010d2U,
  0xe1963904f9e1d418U, 0xfa111e1e9d055837U, 0x53f9deff03f9bf9aU, 0x180c940009f8f2bcU,
  0xe7a3f50926150cebU, 0xcf346a230e740f7fU, 0xe58c2a9dff9e54cU, 0xd658f25d1b51dc25U,
  0xac82cef13c80ecdU, 0xcd18fd25d9fceb13U, 0xfbecef48e8f1ed11U, 0x6920e1f2ee00e67fU,
  0x1a03efda3200U, 0xeeebdd2e0cfd26fbU, 0xcf0d8e202f153a9U, 0xf809e90cd703e2U,
  0x1d11f110dc80d10U, 0xe80ee81d27cae1fbU, 0xfca7e1d8cfef0801U, 0xfed07dafad9fe1dU,
  0xe9571871f01807fcU, 0xe8ff21fd01ebecdfU, 0x16204c33ed00e92fU, 0x3eff1517e72631f9U,
  0x4ac1001d08bb0cf3U, 0x311222252be4d4cfU, 0xdf1b4dfeebfef4dbU, 0x91229f034f62539U,
  0x542273610ca1c14U, 0x7fcdfe243bfee841U, 0xf51213ecaecb3428U, 0x2d1428c5e211fb03U,
  0xdaddf8f630e430feU, 0xd70541fa22f7f434U, 0x22b254d0e320b14U, 0x914fe1909f72ff9U,
  0x8bae70c32d99bf1U, 0xc4fb1310fa08f6faU, 0x34411527e404fb00U, 0x12cc00f41af533d6U,
  0xc7235341ed3efbdaU, 0xdbde30a5f7d5f4f2U, 0x96fd00c923d9b205U, 0xf123e530273f3bffU,
  0x3ebe29413115f9U, 0xc5cc2103f6d4c728U, 0xfd1509202306dde6U, 0x1ff1f27f3dd52f22U,
  0x25085512e2fc121aU, 0x2f9ad981ee3ab2f5U, 0x4112ed624ddc49bU, 0xaec506ff00b6490cU,
  0xce2b3fd0de653222U, 0x10a441e83ff38603U, 0xa114eede2f16e36bU, 0x26ebc6afd3eff446U,
  0x124b165702baeb00U, 0x9330beb2d0654f2U, 0x21b99b03c0e8351eU, 0xf205faf60025ce24U,
  0x3c096527fed41705U, 0x2ef2f74423cd2708U, 0xcf182e3ffeec1a75U, 0x7e1cb5864fc1d38U,
  0xdb0045d7c8dcf2b3U, 0x10dba0a55b4edc9bU, 0x37db847100cb14f1U, 0xb3ef5f96edf15ebU,
  0xfda7bffcf79fd781U, 0x80a001200511106U, 0x42bdd99321190c11U, 0xf40a3ab109511d74U,
  0xb6d5b50db9cb1502U, 0xd45e10bae2faaa1bU, 0x1f73a790fb2c371cU, 0xc605ee3ee5a728f1U,
  0xfaebfdf2ef0008e2U, 0xcbdbbf16defade2eU, 0x2eecdfe20b0800e3U, 0x440c55ef28f607e7U,
  0xff033b41d8f45dc0U, 0xecec1d1342edf419U, 0xed003f17e8c31627U, 0x1debd1d4dbe921bfU,
  0x201df0c9fe273010U, 0xe13819063c18c6ceU, 0xee3b07f22308811cU, 0xf8fcafbf1fe922e5U,
  0xf816f654fff42e1dU, 0xcaf100157fd50126U, 0x1febd416d9e92315U, 0xb1511f0020da3dffU,
  0xc9010c19ed08bf15U, 0x17f420e5f5e50604U, 0x167ae4f5dc57f9eeU, 0x421d521c265cf00eU,
  0x917f8f64f550194U, 0xf217094af71c70eaU, 0xc4fbf516eb122a94U, 0x2b03dc08f3bc970cU,
  0xe9c0cafadfecfe25U, 0x11fdee0502db20e1U, 0x11dd2c02ead002d1U, 0xbc081f27fa04f8c8U,
  0x14755c40269c03U, 0xe059fa0d697af122U, 0xd9532dea1fea48e0U, 0xd1abb8c3f1d22cf0U,
  0x1eb7b4000af3d17U, 0xb9e262020cf110c5U, 0xa1f09f0dafe46f2U, 0xe1ce01d49c7f04e9U,
  0xf327ce07f12c5418U, 0x56e4182d151e01ecU, 0x1db75bfedb003e41U, 0x2c11c40a0404d7U,
  0xca2c43d1173bec03U, 0xdc0948e41e48e7d0U, 0x2e2fe51363001c17U, 0x8fb2127ce06d105U,
  0xcf380d0fefe5fd5bU, 0x11ffec4c0232041aU, 0x847f99ed1c2d44U, 0xc05c80616341e01U,
  0xef7c8553c06d543U, 0xcce1d4448ccef114U, 0x38e856ced64b1bedU, 0xe0203fefffb2bf6U,
  0x21c250056c15cfcU, 0xdbf218fd39fe1bf4U, 0xc69ad57e36341430U, 0xf3df00e1171f0d13U,
  0xcf421718f5361b1dU, 0xeeffa02c0cfb2781U, 0xc1f4de1d9df527ccU, 0xeec8bfbed7fc3505U,
  0xed10cc15f000f424U, 0x20cd2feed6d7fd13U, 0xe4d3c517fce0f114U, 0xba0b2601db420306U,
  0xf0edfc14fb2521feU, 0x2e2c9fdfcce2b6aU, 0xef2501d4d8ff0f31U, 0xf3fdebe027110311U,
  0xf8ee0fdc1907ab28U, 0x7f24c00f2c002d00U, 0x31070a1ff61de61dU, 0xeceddabffd32e0f7U,
  0x35fad7d1d2effee6U, 0xf9f000fe31f6ee01U, 0x98e816331cd3ee3cU, 0x28370f3a1ffc0de0U,
  0xb9f4082cc105d122U, 0x1f2ffaebf7f507edU, 0x8d707e0dc042517U, 0x13dcf61afffe22a0U,
  0xf83e0dc22bb6fffU, 0xca0551f1cb10fc46U, 0xe12d4f300fd11fcU, 0x4f3fd2fa0b7f1cd8U,
  0xb9d7e8d706eedb00U, 0xc40b0dd0f3f336a7U, 0xb8daaad1cb564706U, 0x3e50d7ce2979a900U,
  0x694dc603ff51f3bcU, 0x32884c0e0dcd4dcU, 0xe622e003c5ff0315U, 0xf3e6b05614c2f2ccU,
  0xbb6503c6b9d1ec21U, 0xee254ddb031139edU, 0xe42d42dbe15a3381U, 0xa60041c6e5740344U,
  0xb32d118120dd3e0U, 0x47fa512bfc8b1be6U, 0xa16e31af602d90eU, 0xe6afb2cef0d524dbU,
  0xeae71103011e09f9U, 0x923ddd44530f114U, 0x3228db1be71d29U, 0xe0215685d61d2ec9U,
  0xda9f3e5f948731aU, 0x1d0d17070fda2701U, 0x26fcce072548e60bU, 0xf7f2f2f4220c2dU,
  0xf71212251f311ebeU, 0x49f7c705228700e0U, 0xf450c3c52cc00fU, 0xfb1fc62dba49e954U,
  0x7fb93131f9fb1bbaU, 0x1d00a3010b30eaf3U, 0xf7091309e4c3071aU, 0xfc1a1ed6ebd2feaaU,
  0xb1da22fbf0b304cdU, 0x24f3e4d4ddc7ece2U, 0x8e3f55e38f6ceU, 0xeed721d6fddef103U,
  0x136bb5ec2b1bff01U, 0xf07ee00522e3cb11U, 0x4fc3cb00b014dcc2U, 0x9dc126e11a2e1c4aU,
  0xb0dc06dd6dcdf918U, 0x47d8e1cb3e06dfbcU, 0xdddfdcb4a3be2a37U, 0x4c03c2d67f190039U,
  0xffb1e8ef4ecebcd0U, 0x2fb6210f619ff051U, 0x65d5d9ce0d9d1a62U, 0x2e5f2bd70aef14dcU,
  0xd02e2e516f715e3U, 0x230df4fdaded2f31U, 0xd3f6387f00dd32fbU, 0xfe8d60021980bU,
  0xe2ee8fd1c0c143cU, 0x27ec0c0071cd100bU, 0xd20b719fb05f5f6U, 0x10e20e508103d11U,
  0x240fa0027e8abf4U, 0xf062b0c33b0dedd0U, 0xca16f9de2d1feef4U, 0xecf107eef9571b0eU,
  0xf6e6ff9ce9feb1faU, 0xf42ed0f4f61dedf2U, 0xd9ee26b129fef3U, 0xe62d1ce202f6ded8U,
  0xdf11e4f0fccbf1d2U, 0x131607f7cf00f228U, 0xff2bfa281ed8e1U, 0xd7f5fef3147f3ef6U,
  0x11b1eee715073605U, 0xfa07d1f2f12204U, 0xf6c0e7f1f364ddf6U, 0xf0506f9fdf8dcfcU,
  0x14f2b3112a0ef9b2U, 0x8204fc0ee9ebee0cU, 0xfce7f5f512f1dd02U, 0xa070501fdf8ca33U,
  0xefdcd5d7d8fee6feU, 0xe57f07b2f24cc120U, 0x3d1800eaf43c24ffU, 0xe8354638e7e6054eU,
  0xf91b1bebe7fed5f1U, 0xe0070ecc333d6453U, 0xf2290cf327ef04f4U, 0xff16ad9c12022affU,
  0xcbce26e2f9eae60eU, 0x5f8a84011312bd1cU, 0xf2eb06e4a81de44eU, 0x1445f718231efcffU,
  0x7136406dafe100fU, 0x2ff5fec61bed0807U, 0x4d336c0311f7e923U, 0x38c20259f6ddaedbU,
  0xfd400b46affc4100U, 0xbe01090a57e8fa27U, 0xd529fde1d2202eefU, 0x1d021e512e49e8fdU,
  0xeb17fe3d26e8c92bU, 0x274be2f80024783bU, 0xe8c91d35183d14e2U, 0x1cbdb5f466232bd5U,
  0x9d0f5fae39fe018U, 0x1cf9007f65f637dbU, 0x52e4f31b108feffU, 0x41f2cafd7fdeecfcU,
  0xbf5ef2b25ec01dbU, 0xbb061ce60049e5d3U, 0xd8e7e027372466e0U, 0xcb080a27f1fc0605U,
  0x113d2ff718df26c5U, 0xcc34211703352bcfU, 0xe6fb3021fd182200U, 0xcee903e8f8c60710U,
  0xe35a2f033fe40d73U, 0x19bf560bf64206ffU, 0xeec1f4fbe6e8f9f4U, 0x220c0439db1e1121U,
  0xe303b21301e9291eU, 0x7cfd83a3d4a68b0U, 0x690048ad461d40e7U, 0xbdd9cacd0c3fc4efU,
  0xf9fc8839010905d0U, 0x1115de0ff02b3e2dU, 0xd4aeb845ccfd16e6U, 0x5bf5020eff242740U,
  0x1b38171acbe8ea0fU, 0xc2f5ee29c00b22caU, 0xe2365de915c72a1aU, 0x381cf5e6c5dfa0b6U,
  0x66d17fddb8033136U, 0xfb4625b7dfec06U, 0x2189ffffeaf0U, 0xfffff02600003499U,
  0xffffd8a1000029c6U, 0xf9400002c63U, 0xffffdf94000002eeU, 0xffffda07ffffce78U,
  0x225e00002b98U, 0xffffbbdc000023bdU, 0x1149ffffeab3U, 0xffffda5800000600U,
  0xfffff320ffffa406U, 0x5c460000562cU, 0xffffedc300002855U, 0xffffcddffffff223U,
  0x64e00002562U, 0xeefffffc01U, 0x2f1ffffcf1dU, 0xffffc34c00000f69U,
  0xffff9d2500001b3dU, 0x344c00001c13U, 0xfffff844000020efU, 0xffffc515fffff877U,
  0x1f5dffffe29bU, 0x2a0e00000b0cU, 0x2ef90000351aU, 0xca40000365dU,
  0xffffeeac00001d2bU, 0xffffe4d5ffffcabdU, 0x45a295b900000633U, 0x7f17f3ebe8c17f6eU,
  0x3e5966f91655d68aU, 0x581be8aec101c3fU, 0x7f020336e4ab6619U, 0x7f55cde7eb163100U,
  0x385b3f7fa1e6d715U, 0x56255d81c8814636U, 0x3542b7e87f7c644dU, 0xf2f00d7ff1d70deaU,
  0xe0f15b4a430dded4U, 0x5a80a03e8fe0a7fU, 0x5c7f5b464c4c322aU, 0x2b1cb6ded81dea7fU,
  0xebf230427f3e2b6cU, 0x4cdb7f14294509d2U, 0x43c23264838b658U, 0xa8d7286b7f81b4d9U,
  0xf12c1af4c7e0f6c9U, 0x7f42a7207fff1962U, 0x7f24d0bf373b26fbU, 0x7f9a9c0023f9e452U,
  0xf0fd2bfbee09132bU, 0x26017f15071096b4U, 0x16af4ed03ce14faU, 0xcf428fda17817f44U,
  0xa23677137fd1659dU, 0x3667367f08fa5b04U, 0xd7a2eee909da3e74U, 0xf3a8dd05c0d6497fU,
  0xd91dbffd7fb4b143U, 0x1bc8c54d1b0181c4U, 0x8176f3f34cd412f3U, 0x4c815b2d651085e7U,
  0xa81eee81c84793dcU, 0x7f274bde917e1394U, 0x24d7f295cd506df3U, 0xf4e6099e11ead67fU,
  0xeedf7f6f161eff1eU, 0x496c31007f18072cU, 0x2e5a7f9b113f9ffdU, 0xe381f1faba24f4f4U,
  0x3b127fe4f62e37abU, 0x9c4164941c74fb33U, 0x1d27d8e0f2b5727fU, 0x127ce87f203f7f07U,
  0x9735bf2b0a1848f2U, 0xdafcff16a6bc7fadU, 0x2c6f7f281a0beeefU, 0x1a963d1a814833d3U,
  0xd9fefaf8f6fb7f1fU, 0xfb545b467b7f67e7U, 0xfe21287f2e38d0fbU, 0xe700f1c8eb91b4caU,
  0xabe9fd891f7f50ecU, 0x3f946597fcde913U, 0x467f6ee47f1eb531U, 0x25400eec06ec0d48U,
  0x11fde5c5c3d981faU, 0xde9ed51bbeef1081U, 0x7fc6f0f0fc0ceaf3U, 0x5e0fba1139e9ff37U,
  0x3213e500dd41b081U, 0x2202477f7f16ed33U, 0xf0fdd22327U, 0xfffffce5fffff2cfU,
  0xfffffa8afffffe3cU, 0xffffdf59fffffd31U, 0xfffff615ffffda11U, 0xfffffbd9fffffc53U,
  0x93ffffd052U, 0xffffec2dffffe12bU, 0xfffff4d2fffff9a4U, 0xfffff2a6ffffee54U,
  0xffffeb31fffffbe8U, 0xffffecbdffffec9bU, 0xffffe973000011b8U, 0xfffffc3dffffe4a6U,
  0x9b500000a7cU, 0xfffffcf6000000bcU, 0xfffff28200000221U, 0xffffecd6fffffe70U,
  0xffffea17ffffeb6cU, 0xfffffa3700001e84U, 0xfffff534fffff95aU, 0xfffff6ceffffef55U,
  0x794ffffe4c0U, 0xffffd4cdffffff4eU, 0xfffff58cfffff118U, 0xffffd95e0000033dU,
  0xfffffae6ffffe8f5U, 0xfffff9cbfffffa8dU, 0xfffff131ffffff7bU, 0xcde9ba04fffff045U,
  0x19f4dac115b803fcU, 0x2cdc2fa01ffe046U, 0xfdf1fcad0cf6e7f8U, 0xfde0ed01fdfa2a0aU,
  0x131fc7fc512e619U, 0xc2afa0d140b20U, 0xcff7fa3b20ce2d00U, 0xadb325bfba26fdf4U,
  0x46047fee6a09dd45U, 0xf2d6bdbe1425fa69U, 0x646f11d5413cfc27U, 0xf1d1140cec06204eU,
  0xde02ebb6f0ed01ecU, 0x9e11f50235f20000U, 0x81ced29fdafbf03eU, 0xfe7de751c7e0e4c3U,
  0xf7088aa582b1e4dU, 0x63f78bea4d5f1cd4U, 0xc8cc150505c13238U, 0x4cd5bdae0c21adaU,
  0xecd8cb3f9a000026U, 0x511ecda7283a504dU, 0x3ef4fe060f7f9c49U, 0x31ea00a70ed4383bU,
  0x1b50e9fdebe7caf4U, 0xd60d10fff1e4d549U, 0xf42013d53b20bceaU, 0x1cb24c0b0000fbeeU,
  0x5514483340815efbU, 0x1aba6cf7fe27c8dbU, 0xba2c96dc50e501e2U, 0x13cf06fc0a38efb8U,
  0xe9d8d304dd0d2d29U, 0xcfb515f9f8aff2d9U, 0x8f8370000c91621U, 0xf4d6babea4b4ccb9U,
  0x73e5dbd1f3b83b1cU, 0x3cfb0412f506be19U, 0x113ab31c71e89cf2U, 0x960cfa35f0a43dfbU,
  0xf6d8282305fe3804U, 0xd70dfeffcf812700U, 0x48dfbe8bf56cf2dU, 0x476dd8bf5c361e2U,
  0xa901acfa2124cd02U, 0xda22fc3201e51f22U, 0x1218a153813cbcccU, 0x63b32a13febf2c06U,
  0x55ff00233c52aa1fU, 0x3415fbc237d0ecdcU, 0x3ed54744f7b918f5U, 0xf4b9cb296501fcdaU,
  0x4b3a2bfc2e462c47U, 0xc4ada27f7dffea0fU, 0x3cc4a804fcc506efU, 0x100bec4160108e6U,
  0xecd26017ca30ed1bU, 0xe2ecd5b206250cbcU, 0x1324f0d120382e4dU, 0xe7d3f3f10efdc5edU,
  0x23e129dfd5fbd3f0U, 0xe700037f04d01c1eU, 0xf41e00d6e426fbU, 0x37fd42e4f7efe604U,
  0xdcfd00ffff0000U, 0x26000f0044fe0a00U, 0x40d500000101U, 0xf6ff05e200000000U,
  0x100000003ffU, 0xfefe0000028100U, 0xdc7fd2ef01e00000U, 0xfeaec74ad7bac016U,
  0x20055111b257f020U, 0xe216150714ebdbf2U, 0xcd3bfc05eddf0ebaU, 0x1dbdfa9dc442023U,
  0xf734eb5bc72ec6ffU, 0xfa853d579ff009aU, 0x430ac81b319f44c3U, 0x5ffa4281f7d0d2ccU,
  0x7d17e4ad2c27646eU, 0xf8f24e8311a0d54U, 0x8bacbdd4c4fae239U, 0x7421baff621deefU,
  0x28f4fde000000e0cU, 0xa709f29f3d04f1fbU, 0x1693b520ff6917f1U, 0x1a73e9005bbc4c0fU,
  0xdf33e1e319c3ceb1U, 0x81c1fc69fe43cf05U, 0xfef0f723e64218d4U, 0xffc724ff00f81ed0U,
  0xfff228f7ff020346U, 0xff120d1afdf17410U, 0xfc0bf6f30717f3ffU, 0xfffffef20e02071bU,
  0xf70202f80f1dfe03U, 0x20345ff03004619U, 0xaf700000e000105U, 0xeded3360c447fffU,
  0xf8dc966005c1f570U, 0xfffe202b3df83acdU, 0xe19b1403f5bd9d3eU, 0x5a3704a4c2c3fdd7U,
  0x2132d636fee18a81U, 0x7ff00ad26322811U, 0x2551713c26d84ab9U, 0xfef7cf36db09c99bU,
  0x1f1e61e84ae84808U, 0xe1f9bbd820ce00a9U, 0x1ac5d91e7b30f522U, 0xb28e4e8e14746f2U,
  0xc8dfee7f301eU, 0xdeca171fb7a84a40U, 0xac0736c1fa7b68c5U, 0x1803b610f8f5ad60U,
  0x28c21e2f4fd0dd1bU, 0xca12cb3b6bf87600U, 0xf5cb1b1ddb04e0e0U, 0x3ae581c91136dfU,
  0x1aee7f0845df4e00U, 0xc5e5051ce60af808U, 0x3203ea25270e1007U, 0xdbcb19e2f9e035ffU,
  0xf0e6fe2def120d05U, 0xedff03e4ec04fc0cU, 0xed00f8fdf815d3fcU, 0xb3371e092af30100U,
  0x6ebb15003cdd2de2U, 0x12df01f9da44eeb2U, 0x5a35d1727b1132fU, 0x18f820f8c5183a3dU,
  0xe4e319acb3e60360U, 0x41092e2e7fed04d6U, 0xf0db29d41e030078U, 0xd8a9ed240dc8edcfU,
  0x236ab693cff319daU, 0x20b250012da3b37U, 0xbf3c07d3cd3fb9edU, 0xf832c11b25b40b71U,
  0x774164eb7fd90c38U, 0xc77a3d47fd00b502U, 0xfe427fff1207baefU, 0xfc2f916fa22f6edU,
  0xfb52961b01fbe5f0U, 0xf5ebc3037316f0ccU, 0x25993e2e4d59f8f7U, 0xeaf574ddf1121d15U,
  0x120af80000c638f6U, 0xdedcf31e2e0742faU, 0x1fe94ef9cbc5bad1U, 0xdedb57d31541e8e8U,
  0xdffdfd27ffa7ee03U, 0x9a1b2ddeb016eed1U, 0xd48197e572191b11U, 0xfae6010095e6fbfaU,
  0xfa223dd634e03d13U, 0x7fd514d8c1fcf914U, 0xedeb43fc2d20d9fbU, 0xdf7cceafd4e023cU,
  0xeecac5c34509f914U, 0xfb230ff3127ef331U, 0x1f010003e81b3cffU, 0xf0f13ce8f423d837U,
  0xf904b4c9bddcf60fU, 0x26b833fa61fa12c2U, 0x5302dce82fb50688U, 0x1f2f2017fd2e53eU,
  0xbbf224ea24afc508U, 0x37302a7a0fffU, 0xdef2181599df18f3U, 0x52c7fb6f26f201fdU,
  0xb45347132c0b0b09U, 0xee23211df915031eU, 0xe4dd2dfe1e05efd5U, 0x1ecfc239ccf02fdU,
  0xf7110d8112dc17U, 0x2acb2d351a01e300U, 0xfdf10e13d9f34abbU, 0x62cfee325fcd7c4U,
  0xf329f93af2ec36b4U, 0xec8102d135f4ecdeU, 0xe5f52ab3d9ea04d2U, 0xb5cbc6d405b71fd8U,
  0x2edc42c310ea0000U, 0x27c9bb56c68109fcU, 0xf3cc23cd1f14beedU, 0xebed733d212c604U,
  0xf9e32018c701edf6U, 0xd6e5d027e61712b4U, 0x1b1ed0b5fb00b836U, 0x3bf840121a00001bU,
  0xf902d00834de6129U, 0x261c3d1ebaf7ea3bU, 0x3be317de5a355de6U, 0x7f51331aaa0cd7e7U,
  0x386a28e5d09fd5e3U, 0x1dfb36f3da5dbff5U, 0xb12b7026ff00e5f7U, 0x3523d592b8fe4246U,
  0xb9d6352e1018bef8U, 0xa330892a1826e202U, 0xc3cd0bf727b819e2U, 0xe1ef5772eaf69503U,
  0x8edc3a81f35e0fd5U, 0xdd2bbeff00d705e8U, 0xac54e53bee26f0ceU, 0xb7ff47f61de8d026U,
  0xf70b1d36b006e715U, 0xd7021bee1df01bc5U, 0xb4f40b64d9ec3f73U, 0xc725a275daf3149fU,
  0xf62aff002dd70849U, 0x6cb000081ffU, 0x1d80ffffe47aU, 0x10f6fffff5feU,
  0x206c00004590U, 0x1a68fffffc16U, 0x179300002f7dU, 0x130700000e14U,
  0x34a6ffffe232U, 0xfffff5d1fffff0a2U, 0xffffef27fffff2e6U, 0x281fffff0b3U,
  0xffffeba90000155dU, 0xfffff8840000095aU, 0x44d700002f25U, 0x2aa6ffffd43fU,
  0x9590e7f00001642U, 0x60a7fffeac4f20fU, 0x417ff3112f14043dU, 0xeadcff24242355ebU,
  0xfff8d7137809757fU, 0x21c28f9121e0b14U, 0xbe17259b3068817fU, 0x56175ef80cfc2131U,
  0x2991ef7dca38577fU, 0xcd00373a147ff295U, 0xf90ef6819bcfbe95U, 0xf5f28191cd02f400U,
  0x63b7f1cee2520daU, 0xf93d5c0d7f72076fU, 0xee8f52f48102d5e2U, 0x1629eab603828142U,
  0x6007f26236aa0f5U, 0x72010a7f1e0cf53bU, 0x5388351d2bfce640U, 0xbad2fb81c8629700U,
  0x1dd97f2411ee0924U, 0x1a11d1d67f15ec67U, 0x2b0f38092d7f2809U, 0x711e4f8093f7f1bU,
  0x4c8091ab2c2e0feU, 0x3f22d813ffc37f09U, 0x7e62c27f3997cc81U, 0x3836362c08dcde69U,
  0x2f1106e2eeeffc7fU, 0x2d2820584d7c587fU, 0x21a8192f81022dd1U, 0x6567fba17f5a349U,
  0x1b69c50a7fdb3b6aU, 0x61221a1aeced0148U, 0xfffffb790000fe7fU, 0xfffff73ffffff443U,
  0xfffff475fffffc69U, 0xffffec1afffffec8U, 0x132dffffffd6U, 0xfffff802fffffef3U,
  0xd67ffffe8faU, 0xffffed90fffff5c6U, 0x1d8fffff063U, 0xfffff9b8fffffb1aU,
  0xfffff22effffebddU, 0xeb8fffffdffU, 0xffffef19fffff7e2U, 0xc4ffffdf8dU,
  0xffffe5eefffffc6eU, 0x1d3632fcffffeca7U, 0x79e300fd110fe9eaU, 0xff7fc6fa0cf4002dU,
  0x218301625fbf022U, 0x3a17340118e3de28U, 0x47413700ec0d0aU, 0x1720e07f3df90adeU,
  0xfe2b2915e2361825U, 0x9097f14e492e5b2U, 0x88b000aca8df00b3U, 0xdf09d42c64bb996eU,
  0xdd6f41e1ce90110U, 0xffb5e3262615e60cU, 0xcf2cffea00f7b3adU, 0x2506edc9b881fa48U,
  0xf1a2dc3ead0e11eU, 0x4a7a0067342b03e2U, 0x30f9f2ff6196009eU, 0xc107f07d3f7d60fU,
  0x28d7c7f5e5cb06e8U, 0x9333420005ae14U, 0x3a030f02219663U, 0x4e812ad5e0fb40U,
  0xf24ea406fbdcfe81U, 0xf128002dc4db00edU, 0xcb53dbbfa671038U, 0x1b10a03f179bbbe4U,
  0x7113e04e92013U, 0x2408130c00fb3f7fU, 0x3e3a1c15edfccfd9U, 0xe4ea346326032cd7U,
  0x2f7f0006ea291be4U, 0x163163eec31d00d6U, 0xb9cf900b03e40526U, 0xfe167f2c0bde4e28U,
  0x1f2ea9003e18eaU, 0xf9f2c9d9a70a49e0U, 0x23ca051d6a2a1320U, 0xcff5b57f2303bb06U,
  0xf2cf001536020005U, 0xf6d3dec730d20ad8U, 0xd7d217cb36ef191eU, 0xc207433d58a981U,
  0xd8c9d45300acba4aU, 0x94e5d4d5ee105b26U, 0x3e4c4abfe31da69cU, 0x529102013ba6d97fU,
  0xba9e9ef655b5ff33U, 0x38f67f5132d1c2c1U, 0x2b49af08eb063fc4U, 0x69f27f001faaf2U,
  0x2745bb9e134194caU, 0xebab9c58edc78a39U, 0xfdec72fa8e502f5U, 0x9b5d00e5f8c600beU,
  0xeded3c36f4d47fd9U, 0x29d316f5ae81305aU, 0x1bc7521bf0f0d2U, 0xb21ae47f00bcd423U,
  0x95daa336e619fa1aU, 0xfaa4aa012a040cd4U, 0xe87f00b4c61c0f30U, 0xdbe92c34b01800e5U,
  0xeb0305f9d21d1d5eU, 0x3c0181b1b86dfb22U, 0xe5ed14000c8739U, 0x275915251821ea6dU,
  0xef720e22b3b8b156U, 0x36a5d249657c53e5U, 0x5cce00464acb0202U, 0x12ea0cf7d3a00df5U,
  0x42de37f67f58U, 0xffffd695ffffe50eU, 0x1c450000283aU, 0x1640ffffef0bU,
  0xffffd90e0000161fU, 0x34400001b3fU, 0x3d260000018dU, 0xea200001256U,
  0xfffffedf0000163cU, 0x132c000010cdU, 0x24faf27fffffe2e5U, 0x5a62e2af615d7d4U,
  0x7fbe4681e4239721U, 0x81e93017d93ad9acU, 0x11daad3f4c1b99c7U, 0x902020fed297f06U,
  0x2d59e69914d8810eU, 0x20257f15cb485a3dU, 0x99e2aec2cb21e229U, 0x122afd157f6f54b3U,
  0xebe7817f1ff214f4U, 0xc9ca0b4228215b15U, 0x1949da816effab0eU, 0x491c117f2d163df4U,
  0x7659057f0feab5a5U, 0xa838b9e15181fa3aU, 0x8f61d4b1b270799U, 0xc67a52117f5b7f3fU,
  0x40170f917f930f8U, 0xbd93899e25fb0d7fU, 0x89817f684c4251e6U, 0x15612c205b1bc4U,
  0xfffffdfdffffdafaU, 0x116fffffe358U, 0xfffffeb5ffffede6U, 0xffffe10bffffc913U,
  0xffffff3bffffea22U, 0xffffe7940000227fU, 0xfffff343fffff6c8U, 0xffffea30ffffc830U,
  0xfffff09affffef1cU, 0x2759f406fffffc5eU, 0x7f4ae8094b3daf13U, 0xfe29df744240ddeU,
  0xdc07f6370242e0fbU, 0xa0bfb5057ff52e1dU, 0xecc3f9dd267f2dU, 0xf67fe5280319dffeU,
  0x2dbff1e4ecf5de1U, 0x2c31ae89f1d6d1aaU, 0x3ca1b954e2f57f0aU, 0x86a2a097cd3f9e1U,
  0x7fd7fcfc6f1ec159U, 0xf7ede6f9f80f4dffU, 0x7ff3273237ebfd32U, 0x390bff27cf06U,
  0x2101f7007f05ff01U, 0xf7fd11fb006d5ff9U, 0x17dc28fcf5f0fd10U, 0x1f12e3e0e008c9f7U,
  0x9811bfcca811705U, 0x7bf49db02d8c8c9U, 0x5d13d50cd2e40232U, 0xbdbfe9fcc9bcebf2U,
  0x9a7f06fd68f5fee8U, 0x93610a5e034d71d6U, 0x14e27f3be7f71e40U, 0xfd0b12f390084e49U,
  0x63c10e70e16f51fU, 0x48e0cbfdb4fe7f12U, 0x1fd01000000U, 0x6ff007f4afe1304U,
  0x2bb504d6050703e6U, 0xf41b42ee2912ef7fU, 0x404ba10b3c01604U, 0xe3031203b1cef2fdU,
  0x13bce7dd008381c4U, 0x68ba0f2b1bf007b0U, 0x210f816439c4596fU, 0xccdce70930b1a057U,
  0x28023c9681e3e6d7U, 0x2f9da73ae7fe55U, 0x6000010000000ffU, 0xb06ff00813200b5U,
  0x30f82107f9f0a921U, 0xe8d620fac8be1801U, 0xc54681f032U, 0xffffec8b00000211U,
  0x15fefffffdfdU, 0xffffff41ffffe195U, 0x1ee600029543U, 0xfffffc21fffffca8U,
  0xffffeb2a000007b9U, 0x2f4000378cdU, 0xb930000b4e0U, 0x346800001251U,
  0xcfde2b000000785U, 0x6e4d81277f363b27U, 0x17001001ea365adbU, 0xddfa0b01087f150dU,
  0xff1508157f152e17U, 0xe94113050b81a79bU, 0x5077f13172cfac8U, 0x237ffd2708eb0703U,
  0x300fb3b581de1803U, 0x3281b811a606d712U, 0x1c7ff3eafbfeb4caU, 0xd59cdce9f2f3201fU,
  0xdb527f335132e3ddU, 0x4fc02107f13376cU, 0x607e881f9dbb33cU, 0xffceca4f81dc4213U,
  0x219c8147bcfabc92U, 0x31191dfac103ece0U, 0x212154e60e7f2c24U, 0x819ae4fffff9157fU,
  0x7f19effcfffe0505U, 0xfa070fdfdaf727U, 0x85ea5ffffefffU, 0xfffff354fffffd5cU,
  0xfffffa54000011cbU, 0xbdd009a067cU, 0xffffffebfffff211U, 0x2348ffffed89U,
  0xffffeaa105e949a0U, 0xffffbe97004f9027U, 0xfffffb24fffff3e2U, 0xd723f57ffffff71fU,
  0xf86cb4fcf9000ea8U, 0x7f0200f741ffe000U, 0x3a009a55dae104U, 0xd6310023000f7f09U,
  0xe9ffbc81fdd64b00U, 0x4c6b1000200U, 0x92007fe400dcfd00U, 0x6ecc00050095008fU,
  0x3000c207000100e9U, 0x2900faee1162f6faU, 0x3bfff10000b67f05U, 0x10347f06fad8000bU,
  0xadb320104001aU, 0x7fb8ff3d0b00eeU, 0xd800f100bfccb9b2U, 0xd058011600f46fU,
  0x53017f77fd6068U, 0xe9002f643d011cU, 0x8185066edc005b45U, 0xc7509201e400a2c8U,
  0x8349008a7701e400U, 0xfd0026067f7500U, 0x2afa00fe00078428U, 0xede0e4dafe40ce00U,
  0xec00f953dc062100U, 0xb8057ff600ff7ffeU, 0x6718feed00c8a898U, 0x4100c57403ff000cU,
  0xe900d90ee5eaf3d6U, 0xd700fb00f1df81ffU, 0xe90861fafe3f00c4U, 0xecbf7f033100f7U,
  0xf6fde001fd3e00f0U, 0x7f042d00fdee1760U, 0x33b00f20004cbU, 0xdecde2d9f75dd1U,
  0x12b00fa3fc3ff04U, 0x194cee0df800cc7fU, 0xad57f033000faefU, 0xdcee01f840000f00U,
  0xeb0058287f5effU, 0x30fe0001002f0229U, 0xf6ec0c4aed13cb00U, 0xff0002cd7f042600U,
  0x7f0704de010e3f00U, 0xef2c010100271437U, 0xbdff420a00eb000eU, 0x17001fdb024c007fU,
  0x3100080017664a03U, 0xbf988107eb1d002bU, 0xc1bea20022009cU, 0xfa18600085e901d0U,
  0x7f001d00f4f3fbf9U, 0x1060f00fd0001ecU, 0xae02e70ec13f3U, 0x70019d17f063cU,
  0x2864010cde000452U, 0xfdd37f0216000419U, 0x10c0013c3002f200U, 0xfe15005b22517ff5U,
  0x5e02001700322568U, 0xe3ece9fa46be00U, 0xf900127ff6000d00U, 0xd500f57f00U,
  0x9caefffffcebU, 0xb8fc0002ec4bU, 0xfffffff3000002e8U, 0xffffe1a500003683U,
  0xdff70000b1ddU, 0x262a00000215U, 0x18b000037f1U, 0x1b7a000000a4U,
  0x4a287fffffaa6U, 0xffffff42fffffe6aU, 0xb413000009c4U, 0xfffff5de0000031fU,
  0xb7f00000007U, 0xf772309afffffef6U, 0xa7d9f1ab81e51311U, 0x16244009d41f0cd3U,
  0xfcb00329141c114aU, 0xe516097f7f7f5c78U, 0x7f387f7f13e457aeU, 0x7f7f7f47287f7f66U,
  0xc11fec94db34081U, 0x177f1f7fe1347329U, 0xa11091b230f7f0eU, 0x777fb169e520150bU,
  0xd013ddf4b374253U, 0x4d7f4e4d4245023eU, 0x3acd334c4d397f2dU, 0x2c7f4b53507f4323U,
  0x386352f77f018163U, 0x6c507f713e766f61U, 0xf6f5ac3081319169U, 0x1731ebda65546de2U,
  0xe8ebe1060408f9eeU, 0x3b222deeefef2f4U, 0xf448e01ffa0606dfU, 0x4152efe02311b2bU,
  0xfeea1df1ff22ef04U, 0x170102131921513fU, 0xa03513d48fe7ffaU, 0x825150dfe1b015bU,
  0x27dae032e21209U, 0x23f0e5702fef3ecU, 0xf6f2e40117f6f028U, 0x7ff0eee312ebebU,
  0x8a82f00000828U, 0x9f543700096c40U, 0xed2fffffc75U, 0x1f8a1ffffdbfeU,
  0x2402c3ffffe28eU, 0xfffff0bdffff8ecaU, 0xfffffe4cffffdfc7U, 0xffffc7c5fffffcb0U,
  0xc7b6dfffffb77U, 0xb7afffffcd7U, 0x21c560004ee71U, 0xfffffc4e00002cacU,
  0x62d2a00000641U, 0x4cbfffefea5U, 0x5ecff16fa190b46U, 0xa3dff2c112d7f17U,
  0xeaf10543222508fdU, 0x7f0ed33b380002fbU, 0x27b13756e509c400U, 0x722250020d472900U,
  0x21900010603f203U, 0x93ceedb00eb0717U, 0x10a0a1d007f0844U, 0x8fcf006177717U,
  0x3a005f075c516901U, 0x63007c505758167fU, 0xfc004d724afa0150U, 0xd841d3970000ffdaU,
  0x3b94a7fd4c0e0049U, 0x9dadf709cd810088U, 0xf20101fd07d004b6U, 0xfb812801870ca601U,
  0xf9efec00fbe8dcdaU, 0xfaf914ffbafedd02U, 0xe501814c4f00ffU, 0x35a142500a9debU,
  0xf4594012f3fa3f51U, 0x3da6c30000fe0301U, 0xaaada67f28004207U, 0xf8020cafbd00d22aU,
  0x913102df88bd2U, 0xa6a1017ffe8a00d3U, 0xece0faac8bd6e21bU, 0xb9db1c8faeeb30a6U,
  0x3200fdfb45030006U, 0x54f7385c31e2e601U, 0x47f050501e93bffU, 0xf6f400000003f401U,
  0xee226c120055ff7fU, 0xfd05f4f900f028f0U, 0x2fbec1bfff1f0fcU, 0xf7007f04cdd74a00U,
  0x520036d63373eeedU, 0xf200532654fdfae3U, 0xff34f4fd00ff01deU, 0x21f9f607757f004dU,
  0x2030c02f5000002U, 0xfb000009f85509eeU, 0xf777470014fe7ff0U, 0xef1fe00fa55f7fcU,
  0xa121501fff9fafaU, 0x76037ff8fb0101U, 0xff147500f21d2c74U, 0xbc127e51100e9f6U,
  0x9d9f8d04fd12c8dfU, 0x908714c2d7012605U, 0xc4f1fd818500a2a0U, 0xff04d411f09bd1U,
  0x487f001c0138e4ecU, 0xe3f200f125e5e2f2U, 0xf56106dff2fb0afeU, 0x15057fd9f0010004U,
  0xfe68f408f85e4400U, 0x21e61dff00e8ea00U, 0xf3f4ffff03d11302U, 0xe905537f005cfd33U,
  0x11fbf0f700e918ebU, 0x3d4640debf1f6U, 0xe701180800194c02U, 0x5f002ef23b7f61deU,
  0xf1fa3f3b0e07031aU, 0xfbe4023c01fc062fU, 0xd441375cbaf4000bU, 0x7ffd15f4f82c005eU,
  0x2dfe03f6f3f4fefaU, 0x1bffc4017ffecf02U, 0x15f5280031ad2438U, 0x4c1e300163424faU,
  0xff83fae295bf01feU, 0x4cdde9d81ea2bU, 0xfa89ee14f5139eecU, 0xee5145fb00fafbfeU,
  0x325a70fce2007ff1U, 0xee5071a4d0115bcU, 0x200044502d41333U, 0xdfed00de07223d08U,
  0x50f600e60603233dU, 0xdcf2027fd70906f7U, 0x1dff316666ffff02U, 0x5910627f0b72f500U,
  0x6f5e090002645e00U, 0x64240000063dfeffU, 0x3365c0d800ec033cU, 0xdfa691200f8041eU,
  0x20edcef007fee05U, 0xa700c3f983d7ef03U, 0xf1ffba81c4f90498U, 0xec10f6c10b0400d3U,
  0xe4eaf930fc02fe81U, 0xe217625af3e0017fU, 0x1a25f80be7310012U, 0x2eff0006b0eeec1dU,
  0x470fd4017f16eef6U, 0x13f51a0024b5293aU, 0xfaebf90a223505feU, 0x9cffebeadf0100U,
  0x5efe1b4d72503U, 0xfd811fd5fefac6d9U, 0x78f0eb00000000fdU, 0xe7e3005b00007f00U,
  0xf2f800f30aU, 0xffffaadf0000ddf1U, 0xd78ffff9188U, 0x66b25ffff1136U,
  0x268b000061a2U, 0xfffffb210000a0deU, 0x61ceffffece2U, 0xffffea5bffffc4d1U,
  0xfffff0b1ffffe758U, 0x1b850000cc7fU, 0x1004ffffe482U, 0x1ad4ffffc2dcU,
  0x6fdaffffcd6fU, 0xfffff0d5ffffc6f1U, 0xffffeb87ffff48a4U, 0xffffd32200009f96U,
  0x9858ffffcc3aU, 0x7f818610000042e9U, 0x81bff5813319a67fU, 0xfbd2b1c431ec8102U,
  0x3d811e811e15bef4U, 0xf9a5817f8894ae2dU, 0x9bbd7fba8143d5ebU, 0x7fed96ea7f55a9d5U,
  0x75c781d37f81817fU, 0x2dd89cfebfee817fU, 0xaaeeeef590ec81a4U, 0xd3d981b5e6dba5b8U,
  0xf4ef9ae2ff02a6e4U, 0xe3faf8f70effb209U, 0xff04f8eb11e8f22cU, 0xfdd7e3c9fc81bed5U,
  0xe917af11e4f300daU, 0xb46fc06ff08fefbU, 0x27f1a3ba4fd1daaU, 0x157f327ff5ed5f7fU,
  0xc8795d73edd4012bU, 0x903f9fdf37f0c07U, 0x24f500eee60cf0U, 0xf83c0839f8a2ec07U,
  0xe4070c1df9d200eeU, 0x17fcfdea0200ff05U, 0xe0edf335811750U, 0xddf3f20ea8c60fe3U,
  0xcce217e6bad10000U, 0xd13fe0700c4fcd1U, 0xef0ed940e5ea0fU, 0xd9d7ffeaf2f63729U,
  0x8113de07c7daff0cU, 0x1608fd04eeef05feU, 0x111f4012414dd33U, 0xd7dff7e715f8e915U,
  0xda21d31929ba02bbU, 0x55081f3fd15U, 0x29f000009f0U, 0xbb05dffffec5aU,
  0xc0c00000c1eU, 0xfffffa5d00001194U, 0x9c400000460U, 0x50600000218U,
  0xffffeb0b000010b9U, 0x8040000006dU, 0x54f00000b2fU, 0x48700000697U,
  0x14ac00000381U, 0xfffffe8500000969U, 0xfffffe2b00001619U, 0x1db0000151cU,
  0x1ef90000051cU, 0xfffff924U, 0x0U, 0x0U,
  0x0U, 0x0U, 0x0U, 0x0U,
  0x0U, 0x0U, 0x0U, 0x0U,
  0x0U, 0x0U, 0x0U, 0x0U,
  0x0U, 0x0U, 0x0U, 0x0U,
  0x0U, 0x0U, 0x0U, 0x0U,
  0x0U, 0x0U, 0x0U, 0x0U,
  0x0U, 0x0U, 0x0U, 0x0U,
  0x0U, 0x0U, 0x0U, 0x0U,
  0x0U, 0x0U, 0x0U, 0x0U,
  0x0U, 0x0U, 0x0U, 0x0U,
  0x0U, 0x0U, 0x0U, 0x0U,
  0x0U, 0x0U, 0x0U, 0x0U,
  0x0U, 0xe24db1f00000000U, 0x44ac4076b081a01U, 0xd27f13561505fc50U,
  0x22f627003cf604abU, 0xbfe3eU, 0x0U, 0x0U,
  0x0U, 0x0U, 0x0U, 0x0U,
  0x0U, 0x0U, 0x0U, 0x0U,
  0x0U, 0x0U, 0x0U, 0x0U,
  0x0U, 0x0U, 0x0U, 0x0U,
  0x0U, 0x0U, 0x0U, 0x0U,
  0x0U, 0x0U, 0x0U, 0x0U,
  0x0U, 0x0U, 0x0U, 0x0U,
  0x0U, 0x0U, 0x0U, 0x0U,
  0x0U, 0x0U, 0x0U, 0x0U,
  0x0U, 0x0U, 0x0U, 0x0U,
  0x0U, 0x0U, 0x0U, 0x0U,
  0x0U, 0x0U, 0x0U, 0x0U,
  0x0U, 0x0U, 0x0U, 0x0U,
  0x0U, 0x0U, 0x0U, 0x0U,
  0x0U, 0x0U, 0x0U, 0x0U,
  0x0U, 0x0U, 0x0U, 0x0U,
  0x0U, 0x0U, 0x0U, 0x0U,
  0x0U, 0x0U, 0x0U, 0x0U,
  0x0U, 0x0U, 0x0U, 0x0U,
  0x0U, 0xa14fb2e00000000U, 0x1326bcf828190601U, 0xaa6efe5932130553U,
  0xafde8f5520f2081U, 0xb144eU, 0x0U, 0x0U,
  0x0U, 0x0U, 0x0U, 0x0U,
  0x0U, 0x1d1ff73700000000U, 0x1023cbfc4f060b01U, 0xbe7f0e6738110868U,
  0x29040706531e1685U, 0xf40e5aU, 0x0U, 0x0U,
  0x0U, 0x0U, 0x0U, 0x0U,
  0x0U, 0x0U, 0x0U, 0x0U,
  0x0U, 0x0U, 0x0U, 0x0U,
  0x0U, 0x0U, 0x0U, 0x0U,
  0x0U, 0x241af44700000000U, 0x141ccd0351091b00U, 0xbe7718792507227fU,
  0x46fdf80146311988U, 0xeb1269U, 0x0U, 0x0U,
  0x0U, 0x0U, 0x0U, 0x0U,
  0x0U, 0x0U, 0x0U, 0x0U,
  0x0U, 0x0U, 0x0U, 0x0U,
  0x0U, 0x0U, 0x0U, 0x0U,
  0x0U, 0x0U, 0x0U, 0x0U,
  0x0U, 0x1f0aeb2c00000000U, 0xb1cbefa49fc1d02U, 0xb8700b7f1a0a1a78U,
  0x37f402fc3f1f0d85U, 0xfc0756U, 0x0U, 0x0U,
  0x0U, 0x0U, 0x0U, 0x0U,
  0x0U, 0x0U, 0x0U, 0x0U,
  0x0U, 0x0U, 0x0U, 0x0U,
  0x0U, 0x0U, 0x0U, 0x0U,
  0x0U, 0xf196e8600000000U, 0x1615cff31600d001U, 0x7fa0bfae5080413U,
  0x8124f4410a383105U, 0xd52aa2U, 0x0U, 0x0U,
  0x0U, 0x0U, 0x0U, 0x0U,
  0x0U, 0x0U, 0x0U, 0x0U,
  0x0U, 0x0U, 0x0U, 0x0U,
  0x0U, 0x0U, 0x0U, 0x0U,
  0x0U, 0x0U, 0x0U, 0x0U,
  0x0U, 0x0U, 0x0U, 0x0U,
  0x0U, 0x0U, 0x0U, 0x0U,
  0x0U, 0x0U, 0x0U, 0x0U,
  0x0U, 0x0U, 0x0U, 0x0U,
  0x0U, 0x0U, 0x0U, 0x0U,
  0x0U, 0x0U, 0x0U, 0x0U,
  0x0U, 0x0U, 0x0U, 0x0U,
  0x0U, 0x0U, 0x0U, 0x0U,
  0x0U, 0x0U, 0x0U, 0x0U,
  0x0U, 0x0U, 0x0U, 0x0U,
  0x0U, 0x132a7f8900000000U, 0x250dc0f00ff6de00U, 0x120707f5f3090d11U,
  0x832bf041050e4bfbU, 0xd73d9bU, 0x0U, 0x0U,
  0x0U, 0x0U, 0x0U, 0x0U,
  0x0U, 0x0U, 0x0U, 0x0U,
  0x0U, 0x0U, 0x0U, 0x0U,
  0x0U, 0x0U, 0x0U, 0x0U,
  0x0U, 0x0U, 0x0U, 0x0U,
  0x0U, 0x0U, 0x0U, 0x0U,
  0x0U, 0x0U, 0x0U, 0x0U,
  0x0U, 0x0U, 0x0U, 0x0U,
  0x0U, 0x0U, 0x0U, 0x0U,
  0x0U, 0x0U, 0x0U, 0x0U,
  0x0U, 0x0U, 0x0U, 0x0U,
  0x0U, 0x0U, 0x0U, 0x0U,
  0x0U, 0x264fbc3b00000000U, 0xfc25e6feb2e63700U, 0xd3bdf3d9e5f7e79fU,
  0x9710e0130081ecdbU, 0x32e436U, 0x0U, 0x0U,
  0x0U, 0x0U, 0x0U, 0x0U,
  0x0U, 0x0U, 0x0U, 0x0U,
  0x0U, 0x0U, 0x0U, 0x0U,
  0x0U, 0x0U, 0x0U, 0x0U,
  0x0U, 0x0U, 0x0U, 0x0U,
  0x0U, 0x0U, 0x0U, 0x0U,
  0x0U, 0x303c709500000000U, 0x2216b3f408facb01U, 0x2fefdf8f7091012U,
  0x8114e72b001b46f1U, 0xde3aa8U, 0x0U, 0x0U,
  0x0U, 0x0U, 0x0U, 0x0U,
  0x0U, 0x0U, 0x0U, 0x0U,
  0x0U, 0x63dcd5900000000U, 0x5e903f5a2011900U, 0xf885f6ad04f5fb81U,
  0xbc0fc01b23c5fbeaU, 0x20f35dU, 0x0U, 0x0U,
  0x0U, 0x0U, 0x0U, 0x0U,
  0x0U, 0x0U, 0x0U, 0x0U,
  0x0U, 0x0U, 0x0U, 0x0U,
  0x0U, 0x0U, 0x0U, 0x0U,
  0x0U, 0x0U, 0x0U, 0x0U,
  0x0U, 0x0U, 0x0U, 0x0U,
  0x0U, 0x0U, 0x0U, 0x0U,
  0x0U, 0x0U, 0x0U, 0x0U,
  0x0U, 0x0U, 0x0U, 0x0U,
  0x0U, 0x0U, 0x0U, 0x0U,
  0x0U, 0x0U, 0x0U, 0x0U,
  0x0U, 0x0U, 0x0U, 0x0U,
  0x0U, 0x0U, 0x0U, 0x0U,
  0x0U, 0x0U, 0x0U, 0x0U,
  0x0U, 0x0U, 0x0U, 0x0U,
  0x0U, 0x0U, 0x0U, 0x0U,
  0x0U, 0x0U, 0x0U, 0x0U,
  0x0U, 0x0U, 0x0U, 0x0U,
  0x0U, 0x0U, 0x0U, 0x0U,
  0x0U, 0x0U, 0x0U, 0x0U,
  0x0U, 0x0U, 0x0U, 0x0U,
  0x0U, 0x0U, 0x0U, 0x0U,
  0x0U, 0x0U, 0x0U, 0x0U,
  0x0U, 0x0U, 0x0U, 0x0U,
  0x0U, 0x0U, 0x0U, 0x0U,
  0x0U, 0x0U, 0x0U, 0x0U,
  0x0U, 0x0U, 0x0U, 0x0U,
  0x0U, 0x0U, 0x0U, 0x0U,
  0x0U, 0x0U, 0x0U, 0x0U,
  0x0U, 0x0U, 0x0U, 0x0U,
  0x0U, 0x0U, 0x0U, 0x0U,
  0x0U, 0x0U, 0x0U, 0x0U,
  0x0U, 0x0U, 0x0U, 0x0U,
  0x0U, 0x0U, 0x0U, 0x0U,
  0x0U, 0x0U, 0x0U, 0x0U,
  0x0U, 0x0U, 0x0U, 0x0U,
  0x0U, 0x0U, 0x0U, 0x0U,
  0x0U, 0x0U, 0x0U, 0x0U,
  0x0U, 0x0U, 0x0U, 0x0U,
  0x0U, 0x0U, 0x0U, 0x0U,
  0x0U, 0x0U, 0x0U, 0x0U,
  0x0U, 0x0U, 0x0U, 0x0U,
  0x0U, 0x6ee992200000000U, 0xbe04060702fa0bffU, 0x9f5f50012fa01U,
  0x101fe01fdf88103U, 0x69304U, 0x0U, 0x0U,
  0x0U, 0x0U, 0x0U, 0x0U,
  0x0U, 0x0U, 0x0U, 0x0U,
  0x0U, 0x0U, 0x0U, 0x0U,
  0x0U, 0x0U, 0x0U, 0x0U,
  0x0U, 0x2a49b54100000000U, 0xf8f6e3faa5f02601U, 0xcda0efbef2f9e98cU,
  0xa717d61d0681e4d3U, 0x1cdf43U, 0x0U, 0x0U,
  0x0U, 0x0U, 0x0U, 0x0U,
  0x0U, 0x0U, 0x0U, 0x0U,
  0x0U, 0x0U, 0x0U, 0x0U,
  0x0U, 0x0U, 0x0U, 0x0U,
  0x0U, 0x0U, 0x0U, 0x0U,
  0x0U, 0x0U, 0x0U, 0x0U,
  0x0U, 0x0U, 0x0U, 0x0U,
  0x0U, 0x0U, 0x0U, 0x0U,
  0x0U, 0x0U, 0x0U, 0x0U,
  0x0U, 0x0U, 0x0U, 0x0U,
  0x0U, 0x0U, 0x0U, 0x0U,
  0x0U, 0x0U, 0x0U, 0x0U,
  0x0U, 0x0U, 0x0U, 0x0U,
  0x0U, 0x0U, 0x0U, 0x0U,
  0x0U, 0x0U, 0x0U, 0x0U,
  0x0U, 0x0U, 0x0U, 0x0U,
  0x0U, 0x0U, 0x0U, 0x0U,
  0x0U, 0x0U, 0x0U, 0x0U,
  0x0U, 0x0U, 0x0U, 0x0U,
  0x0U, 0x0U, 0x0U, 0x0U,
  0x0U, 0x0U, 0x0U, 0x0U,
  0x0U, 0x0U, 0x0U, 0x0U,
  0x0U, 0x0U, 0x0U, 0x0U,
  0x0U, 0x0U, 0x0U, 0x0U,
  0x0U, 0x0U, 0x0U, 0x0U,
  0x0U, 0x0U, 0x0U, 0x0U,
  0x0U, 0xbe7932700000000U, 0xc609f40a02fa12ffU, 0x70af5f8fc14f001U,
  0x8010704f9fa81f4U, 0x7920dU, 0x0U, 0x0U,
  0x0U, 0x0U, 0x0U, 0x0U,
  0x0U, 0x0U, 0x0U, 0x0U,
  0x0U, 0x0U, 0x0U, 0x0U,
  0x0U, 0x0U, 0x0U, 0x0U,
  0x0U, 0x0U, 0x0U, 0x0U,
  0x0U, 0x0U, 0x0U, 0x0U,
  0x0U, 0x0U, 0x0U, 0x0U,
  0x0U, 0x0U, 0x0U, 0x0U,
  0x0U, 0x0U, 0x0U, 0x0U,
  0x0U, 0x0U, 0x0U, 0x0U,
  0x0U, 0x2b0af02b00000000U, 0x910beff41f92501U, 0xc476157b150b267fU,
  0x32ef09fb3a240891U, 0xfb034cU, 0x0U, 0x0U,
  0x0U, 0x0U, 0x0U, 0x0U,
  0x0U, 0x0U, 0x0U, 0x0U,
  0x0U, 0x0U, 0x0U, 0x0U,
  0x0U, 0x0U, 0x0U, 0x0U,
  0x0U, 0x0U, 0x0U, 0x0U,
  0x0U, 0x0U, 0x0U, 0x0U,
  0x0U, 0x0U, 0x0U, 0x0U,
  0x0U, 0x0U, 0x0U, 0x0U,
  0x0U, 0x0U, 0x0U, 0x0U,
  0x0U, 0x5e48d2700000000U, 0xbcf50b0a00ea0600U, 0x70ef0f9f60cf1fdU,
  0x801fdff04f88107U, 0x1ce4852b00028c0bU, 0xc5f3260d08eb0400U, 0x160deaf5f70d0901U,
  0xf806e206ffdc8112U, 0x9309U, 0x0U, 0x0U,
  0x0U, 0x0U, 0x0U, 0x0U,
  0x0U, 0x0U, 0x0U, 0x0U,
  0x0U, 0x0U, 0x0U, 0x0U,
  0x0U, 0x0U, 0x0U, 0x0U,
  0x0U, 0xf5d3877400000000U, 0xcd0d0ffeefcf3b02U, 0x6115d9ebe417eb01U,
  0x613d6113295840cU, 0xce8110U, 0x0U, 0x0U,
  0x0U, 0x0U, 0x0U, 0x0U,
  0x0U, 0x0U, 0x0U, 0x0U,
  0x0U, 0x0U, 0x0U, 0x0U,
  0x0U, 0x0U, 0x0U, 0x0U,
  0x0U, 0x0U, 0x0U, 0x0U,
  0x0U, 0x24fefa1500000000U, 0x418c7f939f42c02U, 0xc678137f06091d78U,
  0x37de25f52f1d049bU, 0x20633U, 0x0U, 0x0U,
  0x0U, 0x0U, 0x0U, 0x0U,
  0x0U, 0x0U, 0x0U, 0x0U,
  0x0U, 0x0U, 0x0U, 0x0U,
  0x0U, 0x0U, 0x0U, 0x0U,
  0x0U, 0x0U, 0x0U, 0x0U,
  0x0U, 0x0U, 0x0U, 0x0U,
  0x0U, 0xf32cd01f00000000U, 0xf728c3fd7fe63d01U, 0xd050104010100a35U,
  0xfef109f03ce8f0acU, 0xeef31U, 0x0U, 0x0U,
  0x0U, 0x0U, 0x0U, 0x0U,
  0x0U, 0x0U, 0x0U, 0x0U,
  0x0U, 0x0U, 0x0U, 0x0U,
  0x0U, 0x0U, 0x0U, 0x0U,
  0x0U, 0x0U, 0x0U, 0x0U,
  0x0U, 0x0U, 0x0U, 0x0U,
  0x0U, 0x0U, 0x0U, 0x0U,
  0x0U, 0x0U, 0x0U, 0x0U,
  0x0U, 0x0U, 0x0U, 0x0U,
  0x0U, 0x0U, 0x0U, 0x0U,
  0x0U, 0x0U, 0x0U, 0x0U,
  0x0U, 0x0U, 0x0U, 0x0U,
  0x0U, 0x0U, 0x0U, 0x0U,
  0x0U, 0x0U, 0x0U, 0x0U,
  0x0U, 0x0U, 0x0U, 0x0U,
  0x0U, 0x4f2972500000000U, 0xb6ff020902fa0601U, 0xff0bf7f7fe0cfaffU,
  0x6fe08fffbfe81feU, 0x4900bU, 0x0U, 0x0U,
  0x0U, 0x0U, 0x0U, 0x0U,
  0x0U, 0x0U, 0x0U, 0x0U,
  0x0U, 0x0U, 0x0U, 0x0U,
  0x0U, 0x0U, 0x0U, 0x0U,
  0x0U, 0x0U, 0x0U, 0x0U,
  0x0U, 0x0U, 0x0U, 0x0U,
  0x0U, 0x0U, 0x0U, 0x0U,
  0x0U, 0x0U, 0x0U, 0x0U,
  0x0U, 0x470ae22300000000U, 0xf209ef00d6080bffU, 0x230eedfaf7f6f8fbU,
  0xfd04d8022481e4f7U, 0xebf60aU, 0x0U, 0x0U,
  0x0U, 0x0U, 0x0U, 0x0U,
  0x0U, 0x0U, 0x0U, 0x0U,
  0x0U, 0x2851b24600000000U, 0xf9fcdffca2ea2901U, 0xce9eeec0e7f9e685U,
  0x8e12d6180b81e6cdU, 0x30de47U, 0x0U, 0x0U,
  0x0U, 0x0U, 0x0U, 0x0U,
  0x0U, 0xc000000000000000U, 0xc0000000c0000000U, 0xc0000000c0000000U,
  0xc0000000c0000040U, 0xc0000000c0000000U, 0xc0000000c0000000U, 0xc0000000c0000000U,
  0xc0000000ffffc86bU, 0xc0000000c0000080U, 0xc0000000c0000000U, 0xc0000000c0000000U,
  0xc0000000c0000000U, 0xc0000000c0000040U, 0xc0000040bfffff80U, 0xc0000040c0000000U,
  0xc0000080c0000000U, 0xc0000040c0000080U, 0xffffd8b6bfffff80U, 0xc0000040c0000000U,
  0xc0000040ffffbf63U, 0xc0000000c0000000U, 0xc0000080c0000000U, 0xc0000000ffffb481U,
  0xc0000000c0000040U, 0xc0000000c0000040U, 0xffffc223c0000000U, 0xc0000040c0000000U,
  0xc0000000c0000000U, 0x108cc0000000U, 0xc0000000c0000000U, 0xc0000000c0000000U,
  0xc0000080c0000000U, 0xc0000040c0000000U, 0xc0000000c0000000U, 0xc0000000c0000000U,
  0xc0000000c0000000U, 0xc0000080c0000040U, 0xc000000000001037U, 0xc0000080c0000080U,
  0xc0000080c0000080U, 0xc0000000c0000000U, 0xc0000000c0000040U, 0xc0000000c0000000U,
  0xc0000000c0000040U, 0xc0000040000028f3U, 0xc0000000c0000000U, 0xc0000000c0000040U,
  0xc0000000c0000000U, 0xc000004000001589U, 0xc0000000c0000080U, 0xc000000000001fccU,
  0xc0000000c0000000U, 0xc0000000c0000000U, 0xc0000000c0000040U, 0xc0000000c0000000U,
  0xc0000000c0000000U, 0xc0000000c0000040U, 0xc0000000c0000040U, 0xc0000000c0000000U,
  0xc0000000c0000040U, 0xc0000000c0000000U, 0xc0000000c0000000U, 0xc0000000c0000000U,
  0xc0000000c0000000U, 0xc0000000c0000000U, 0xbfffff80c0000080U, 0xc0000000c0000000U,
  0xbfffff80c0000000U, 0xc0000000c0000040U, 0xc0000000c0000000U, 0xc0000000c0000080U,
  0xc0000040c0000000U, 0xc0000000ffffff93U, 0xc0000040c0000000U, 0xc0000000c0000000U,
  0xc000000000003419U, 0xc0000080c0000040U, 0xc0000000c0000040U, 0xc0000000c0000000U,
  0xc0000000c0000040U, 0xc0000000c0000040U, 0xc0000000c0000000U, 0xc0000080c0000000U,
  0xc0000080c0000000U, 0xc0000000c0000040U, 0xc0000000c0000040U, 0xc0000080c0000000U,
  0xc0000000c0000000U, 0xc0000000c0000040U, 0xc0000040fffffe97U, 0xc0000000c0000040U,
  0xc0000000c0000000U, 0xbfffff80c0000000U, 0xc0000000c0000040U, 0xc0000040c0000000U,
  0xc0000000ffffc01cU, 0xc0000000c0000040U, 0xc0000040c0000000U, 0xc0000080c0000080U,
  0xc0000000c0000000U, 0x9fc0000000U, 0xc0000000fffffe9dU, 0xc0000040c0000040U,
  0xc0000040c0000080U, 0xc0000000fffff295U, 0xc0000000c0000080U, 0xc0000000c0000000U,
  0xffffc5d6c0000000U, 0xc0000000c0000000U, 0xc0000000c0000000U, 0xc0000000c0000000U,
  0xffffdf0dc0000040U, 0xc0000000c0000000U, 0xc0000000c0000000U, 0xc0000040c0000080U,
  0xc0000040c0000000U, 0xc0000000c0000000U, 0xc0000000c0000080U, 0xc0000000c0000000U,
  0xc0000000c0000000U, 0xc0000000ffffffc5U, 0xc0000000c0000080U, 0xc0000000c0000000U,
  0xc0000000c0000000U, 0xc0000040c0000000U, 0xc0000000fffffe06U, 0xc0000000c0000000U,
  0xc0000000000032fdU, 0xbfdfe0fc0000000U, 0x17fc1d06e5f60df6U, 0xf005160e080d40fbU,
  0x702040b0d17050cU, 0xf34df3ece8eb000aU, 0x4407ff0100ea42f8U, 0xfc410a14e8e50c10U,
  0x7fdf38402f70afcU, 0x1c0d03f1e6020814U, 0xa0991eb0ffe19f6U, 0xf8f101ebe504f9fdU,
  0xe1ff0d1a3708f8f2U, 0x2b0cf6fda009f015U, 0x2fbfdf5fbfbea02U, 0xef18fbfd07f808f9U,
  0xf8f2070609ebeee2U, 0x2edfe0d0a18000fU, 0xf3f710ff0005eaf0U, 0xfdfbfdf7b3f409e9U,
  0x110ea1d040d360aU, 0x14ff0d050b0414U, 0xf0afb040809fa04U, 0x8eecaf8feedfc03U,
  0xf60b0907f8ef0405U, 0x100c09f102f03fecU, 0x105b6b7080bf4e5U, 0x13f703ffd1050b07U,
  0x41bf41217370609U, 0xfff4170ef359150eU, 0x102f505f6ed12f7U, 0x1de50604aaf50300U,
  0xbfddcec0cf812fdU, 0xcfdfe0ff51d2de8U, 0x17fb1d07e5f60df6U, 0xf005160e080db8fbU,
  0x503040b0d17030cU, 0xf3c1f3ece8eb000aU, 0xc0070001ffeabaf8U, 0xfcbf0a14e8e50d10U,
  0x7fdf47f02f70afdU, 0x1c0d02f1e6020814U, 0xa0968eb0ffe19f6U, 0xf7f1eaebe503f9fdU,
  0xe1ff0d17c608f8f2U, 0xce0cf6fd7009f015U, 0x2fbfdf5fbfbea02U, 0xf018f9fd07f809f9U,
  0xf8f2070609ebeee2U, 0x2edfe0d0a18000fU, 0xf3f610000005eaf1U, 0xf7fbfdf74ef509eaU,
  0x110ea1d040ddc0bU, 0x14ff0d050b0314U, 0xf0afa080709fa04U, 0x8ee3af8feedfc03U,
  0xf60b0907f7ef0405U, 0x100c09f102f0bbecU, 0x2055243080cf4e5U, 0x12f703ff38050b07U,
  0x41bf41117bd0409U, 0xf4170ef3b3150eU, 0x102f504f6ec10f6U, 0x1de5060463f10400U,
  0xbfd23ed0cf912fdU, 0x5b7f51dd2e8U, 0xfffffa49U,
};


ai_handle g_network_weights_table[1 + 2] = {
  AI_HANDLE_PTR(AI_MAGIC_MARKER),
  AI_HANDLE_PTR(s_network_weights_array_u64),
  AI_HANDLE_PTR(AI_MAGIC_MARKER),
};

