/**
  ******************************************************************************
  * @file    network_data_params.c
  * @author  AST Embedded Analytics Research Platform
  * @date    Tue Jul  9 10:51:30 2024
  * @brief   AI Tool Automatic Code Generator for Embedded NN computing
  ******************************************************************************
  * Copyright (c) 2024 STMicroelectronics.
  * All rights reserved.
  *
  * This software is licensed under terms that can be found in the LICENSE file
  * in the root directory of this software component.
  * If no LICENSE file comes with this software, it is provided AS-IS.
  ******************************************************************************
  */

#include "network_data_params.h"


/**  Activations Section  ****************************************************/
ai_handle g_network_activations_table[1 + 2] = {
  AI_HANDLE_PTR(AI_MAGIC_MARKER),
  AI_HANDLE_PTR(NULL),
  AI_HANDLE_PTR(AI_MAGIC_MARKER),
};




/**  Weights Section  ********************************************************/
AI_ALIGNED(32)
const ai_u64 s_network_weights_array_u64[5398] = {
  0x3e0c0790bd193101U, 0x3e3d9f4fbe306e02U, 0x3e5945d63e3d98ecU, 0xbe028530bdaaed48U,
  0x3e744add3e42e261U, 0xbddc72933dffb1d0U, 0xbe0c7fc8be46ba59U, 0x3d49aae6be1bb1d5U,
  0x3d9e59193e2c2a58U, 0x3e52c618bd4b9bf9U, 0x3e3d4c6a3e777e1aU, 0x3e8a11cf3e34195bU,
  0xb94de3e4be3b014cU, 0xbdf4ff76be62ba81U, 0x3d5971bfbd682a50U, 0x3dc80e83bd784a2bU,
  0x3dba42ca3d20a551U, 0xbe28fb8dbe58426cU, 0x3e24c3babddc5766U, 0xbde37690be4a2858U,
  0x3e0f9dc7bddbceedU, 0xbe039f683de605b0U, 0xbdb08ab13deddc40U, 0x3da07d663e23f798U,
  0xbcc698dd3de9c2efU, 0xbde55579bdef4d43U, 0xbe563ab2bd85b70cU, 0x3e1178ccbe5099b7U,
  0x3e4674b6be3ad0b3U, 0xbe76498a3cd04bc1U, 0xbe6427dbbdc7ed8cU, 0x3e446a2bbe6a24daU,
  0xbd24d4c43e4c74b8U, 0x3e5cf08abe08576eU, 0x3e67f4833d15d790U, 0xbe7eff59bd52b22aU,
  0x3e782b6dbdccfaa7U, 0x3e63797c3e15c9e1U, 0xbdafbc1abcaa4b31U, 0xbe52f0b1bd33b78cU,
  0x3df468143e5b8abcU, 0xbd89520ebe49eb16U, 0x3e7a8f2bbe4da40bU, 0x3d9455cd3d86dbbaU,
  0x3d05b7493e362685U, 0x3a16f4ee3d197c68U, 0xbc53963eb8f891e9U, 0x3be2ad183c82f9d8U,
  0xbb94221f3c22d285U, 0xbb4f8adebaa51eb3U, 0xbd75a9e63da85d5aU, 0x3ded3c773e001d97U,
  0xbd6ef3323dfba69bU, 0xbd879db6bdbcc8ceU, 0xbe19d183bd3dbf1dU, 0x3d66208ebd30252bU,
  0x3daa2c163d874741U, 0xbd960a273c3ff89bU, 0xbdddc8053d89c0c7U, 0x3da47c38bc198af5U,
  0x3d9d06a33cdbab05U, 0x3e19fbfc3d2cf054U, 0x3dc9652abbe68647U, 0x3d1a4d05bda63faeU,
  0x3ddd912e3dff5d72U, 0xbcd5ed80bc004e87U, 0xbddbaecdbda96a58U, 0xbe05deebbda0c97cU,
  0xbcc6d10a3db901fcU, 0x3d6c2fa9bdb31b4dU, 0xbe2216563cf94298U, 0x3d5dc207bd8c33dcU,
  0xbdb4b2a73dc2c7b5U, 0xbda171463d0abf1cU, 0xbd249571bde9b587U, 0x39ffc3d6bdaf9352U,
  0x3d844b4cbd917c56U, 0x3d9dbb753d3e326dU, 0x3d78ee123dec6109U, 0xbdf5381ebc92a079U,
  0x3dbae6263da4cc98U, 0xbe16a304bdfe9f71U, 0xbd80c7253c6ce65eU, 0xb963d6febc9bf9bdU,
  0xbd0f8d183cd14ec6U, 0xbd9d7a44bd0c2b62U, 0x3de00025bdaaaa59U, 0xbd775859bddb83c6U,
  0xbe1d5dedbdfa9af2U, 0xbc246f5dbc906d1aU, 0x3db88b17bd032d31U, 0xbc025be4bdd37e4fU,
  0xbe179cc3bdd96cd2U, 0xbe168ebe3e07abf1U, 0x3e1db0f8bd8fa503U, 0xbbeffd743d74dfabU,
  0xbe0e2a2ebd8450a3U, 0x3d21be613a446f30U, 0xbdad1268bde92717U, 0xbc346b8f3d085fc6U,
  0x3ce43ebb3e164866U, 0xbde0c9cbbd9fa74eU, 0x3d9e7918be04bbe8U, 0x3dbe225c3e17f630U,
  0x3dba36393db8b5c7U, 0xbe136888bdc55003U, 0x3dae3645be056a14U, 0xbddf65623c85ae4eU,
  0x3d9d58cb3d35e3bdU, 0xbd94d2bd3b910d7eU, 0x3baa23c73d9fc344U, 0xbdfb9cdebd75b12aU,
  0xbd812d743e246a1aU, 0x3e0ca209bd3928b0U, 0xbd547ce03db83178U, 0x3e1f0dc2bc0865f4U,
  0x3e0d338bbe09e204U, 0xbdec7a3a3d2c0b7aU, 0xbd9b18f4bd9759d5U, 0x3e1b8af2bdd20251U,
  0x3d500b0bbe133802U, 0x3e19b6df3e12b3aeU, 0x3d40fc7e3dffd47bU, 0xbd274550bd730167U,
  0x3c95e5383db26e09U, 0xbb94604e3db644f6U, 0xbcded84c3c8d440cU, 0x3bf9ee213e10cac2U,
  0xbda1fd4e3e2f7dc0U, 0x3da1fe79bd9c3598U, 0x3d324305be0a7a90U, 0x3e15088a3dcd21f8U,
  0x3dd94a403e176e5eU, 0x3d6c2406bb622516U, 0x3e09f553bda37068U, 0x3d5c59e73d73d489U,
  0x3e23172fbdf302f9U, 0x3c2c8d73bdada040U, 0x3c934db73bb1dd5cU, 0x3cdcbce83d804767U,
  0x3cac788e3e0b1373U, 0x3d9fb9fbbd67e40fU, 0xbcb03213bb52be49U, 0x3d5147763e25358eU,
  0xbdd5dab5bdbd9eadU, 0x3e1138243e15f2eaU, 0x3e06cd323dac3bf5U, 0x3e1d5f383e2ac1edU,
  0xbdd3ff313e2ffd68U, 0xbded62ecbd7dde26U, 0xbd1e22fbbc52cfe9U, 0xbd1ba2293cef6e45U,
  0x3d895c6ebd4a9cfbU, 0xbe00deeabdca8da7U, 0xbd2c23483e311355U, 0x3d7d26f8bd94f2b7U,
  0xbdd0fd6ebc841743U, 0x3b35d1a2bdc2a657U, 0x3de94d48bdedce92U, 0xbd5825b3be0a8171U,
  0x3d0067ea3baf4512U, 0x3d7e1f6abe0dcadfU, 0x3b2890f0bcf0c5d8U, 0xbb342349bdb47e2fU,
  0x3d0db67ebd389c00U, 0xbd8f9da6bdfba863U, 0x3cf5fa00bd4f539fU, 0x3df0a3eb3da3aa34U,
  0x3d513e82bd9f9047U, 0x3df44a7abd1917bdU, 0xbc8d3cf03e164417U, 0xbe065f6e3d8f35edU,
  0x3adea500be118175U, 0xbe178cba3e279b54U, 0x3dc6201fbc93a25dU, 0x3e0617e1bd48f3d6U,
  0xbdd92706bd85aae5U, 0x3bd1b4293de5e588U, 0x3d9804bd3dc65000U, 0xbe068c1abcb993e9U,
  0xba80639fbd840778U, 0xbc228e32be1742acU, 0xbe076d9fbc9d9cb9U, 0xbb015228bd994c32U,
  0x3d0ffaf2be328984U, 0xbe09ff933d510420U, 0xbdef22163d114edcU, 0x3d96749a3c43cd4aU,
  0xbdc59ca53d086292U, 0x3cbd8d833e0cae12U, 0x3bcd607bbdbff96dU, 0xbd615315be1b5349U,
  0xbcd98f9d3ce78b57U, 0x3db6adb7be0e70aaU, 0xbccf2d1e3d8f04e5U, 0x3d9647a43df9b749U,
  0x3dcff8793d2af74cU, 0x3c9ddd77bd7362d6U, 0xbd7236c63c948c1fU, 0xbdd41dcabdb35410U,
  0xbb06a8b3bd9d5ee3U, 0x3c790619bdc34e3eU, 0xbe0a446e3cd3786aU, 0xbc14de6c3e0b1ae9U,
  0x3d9a59683d6bcee9U, 0xbdfa29f43e032e95U, 0xbd1368373e0dd705U, 0xbd11b54a3dda031bU,
  0x3dbcf70fbbc47a94U, 0xbdb8b7af3df6b76cU, 0x3c45fd42bdffbfd1U, 0x3d2f78e3bd27dcd4U,
  0xbd09079b3d48c32bU, 0x3ae8f550bd0cd13cU, 0x3bf6afc7bdeb7cc1U, 0x3dcfe9f0bcf4186cU,
  0xbd675959bccbcc90U, 0x3c265a6e3df38ce3U, 0xbdf3d3c2bd676836U, 0x3d7f83d0bbf802faU,
  0xbe0047ac3e17267bU, 0xbc1bbdccbdb54409U, 0x3db8ff173b4a8c77U, 0xbd071b1bbdb703dbU,
  0xbd87aebb3db18652U, 0x3de451d4bd43e353U, 0x3d846f86be0f63c5U, 0x3db0cc41bdb5c2fdU,
  0x3d7d26923c23bffeU, 0xbd3c9a823dabd5dcU, 0xbe0f2b193c1c8063U, 0x3d07674f3c1b9b46U,
  0xbdc2a4bd3ddb8d5eU, 0x3de7263dbbd11acfU, 0xbcc99817bdabc84cU, 0x3c99e1053dbfbc27U,
  0xbe1c7e713d2e66a0U, 0xbd6d0159bd818a83U, 0x3dc9a4e73dd0ff88U, 0x3cba1bf13d3d1878U,
  0x3db3dafbbcbdebc3U, 0xbab9f3a13cfe6bc7U, 0x3d06ff24bdb696a1U, 0x3c7b1c16bd84afc3U,
  0x3d7e45c2bc9d532eU, 0xbc9d1673bc2873b6U, 0xbac4eceabcd725c5U, 0x3db896cbbb996a18U,
  0xbc54846a3d0459b8U, 0xbe0e83c1be069095U, 0x3dbe45da3d193667U, 0x3d9b44a7bda81b88U,
  0x3da07776bd95d93cU, 0xbd617a67be26f992U, 0x3de70dd63dc19bfeU, 0x3de01d2cbaec1770U,
  0x3da1b1e9be1d8883U, 0xbdbe72ad3dba2f19U, 0xbdc29d8bbe0787b5U, 0x3dadf1a53dc0b3adU,
  0xbd8c0c94bd9f6071U, 0x3d84e4b13dd52420U, 0xbd1eda393dcae346U, 0x3dc30a0c3e1206c4U,
  0x3b07df12bde83782U, 0xbd2e7987be01955eU, 0xbe18f413bcbfc9feU, 0xbd8dfaf13deee43dU,
  0x3d05cedd3cde63f7U, 0x3de9e5043d95a735U, 0x3c417493be132c0eU, 0x3e094a223da850e0U,
  0xbdd92b31bd3feeb9U, 0x3e021ff13e126d6cU, 0x3c5acf123dbf260bU, 0xbe047cadba425f6fU,
  0x3d7ec3cabda6aebaU, 0xbd85c365bdcc5664U, 0x3dda73823d99efe9U, 0x3d65cfbabcea12b5U,
  0x3d9161f23e335365U, 0x3e1144273d53056dU, 0xbd5e32f83e1912c4U, 0x3cde99ef3e368697U,
  0x3e3f1056bdbd47b0U, 0xbbde0afc3c0ea443U, 0xbde42c2bbe0df335U, 0xbce75989bdab284cU,
  0x3cdfe8423c1052abU, 0xbe40b2cebc16ba29U, 0x3d151b953e0d94f8U, 0x3dc990783e0195c9U,
  0x3dcda29a3bdbb542U, 0xbd67c241bdc07162U, 0xbcfaf0ea3b8ad8a9U, 0xbdd5c38fbc168ac9U,
  0x3e0a80dbbde2f383U, 0xbd698e8bbe0b7f33U, 0x3e0f1f5bbd21a3b6U, 0xbe20c3ff3dac90f8U,
  0xbdc3df253e03d698U, 0xbd25fe763c4bdaf8U, 0xbdbcc363bde25133U, 0xbdf082fcbd311298U,
  0xbdfe8e97bd4bca25U, 0xbd5ee620bd8ea334U, 0xbdf3ae133cd62ae1U, 0xbdd9732fbda341d2U,
  0x3d087414bd898a32U, 0x3ba29bf43d2c4f02U, 0xbdb9d55c3dcae708U, 0x3d6485183e01e115U,
  0x3cce83cebd9ed68cU, 0xbd8c8672bd12f762U, 0x3dba536c3d562da2U, 0x3e1557023de86c81U,
  0x3d0e0358be0c812dU, 0xbe02964e3d22e6d6U, 0x3d5635453dc1ce7dU, 0x3d51e9b5bdf152ebU,
  0x3de5e1003dc46f9bU, 0x3dab8737be19a0feU, 0x3ddcfc44bdc5b02eU, 0xbe1d94113c89debeU,
  0x3db9926fbe0ff9e7U, 0x3d8a08213d8a0862U, 0xbd66189c3d84e306U, 0x3e0ca74dbdbe8e0eU,
  0xbd975f8ebd8799a0U, 0xbe1c62a63d67b01fU, 0xbd81b9c3be20b0b7U, 0x3d9a96f63d3cf7f6U,
  0xbdf4ea53bdfb47b8U, 0x3e01ab85bd3c536aU, 0xbcdfae483bfc91c4U, 0x3d5ce0083b21a069U,
  0xbdbd3788bdaee19aU, 0x3d32469d3d4760d5U, 0xbceeefffbdb8704dU, 0x3da69cd3be0ccedaU,
  0x3e00a3aebdc2b780U, 0xbe0084d0bd2f2340U, 0x3cfd1f4b3d5ce706U, 0x3e14e8033e02cce8U,
  0xbd4ce1f23d794d6cU, 0xbd29cce63dc96d15U, 0x3dd4c42c3db05f57U, 0xbd5ed017bd5de0b3U,
  0x3c8e335e3e0b71f3U, 0xbdd7fa913d988645U, 0x3cdac7febddf2095U, 0x3d3ec31fbdf2f6faU,
  0x3dd7e79bbe18f706U, 0x3e14dcdcbd854167U, 0xbd5caa4b3dde6dddU, 0x3d1af5293dd46f0eU,
  0xbd27a563bd2310baU, 0xbddbd181bdaae49fU, 0xbdaaab16bdb9f6a8U, 0x3ba62b0c3d22d724U,
  0x3e04d7f43d799349U, 0xbe0ac9a53c26e057U, 0xbdf0b645b9f00268U, 0x3b44fdbfbd3c6981U,
  0x3cbd2580bdaf2dadU, 0xbdbc474ebd139aa9U, 0xbce50d02bde6b080U, 0x3d6e0c25bd0de5f9U,
  0xbd89aabcbe14b5d2U, 0x3e0723d93d7b9ed4U, 0xbdd83570bdd8f3f1U, 0xbd8bfec73d09b373U,
  0x3d7a5204bd8abfecU, 0x3d214377bdbb9030U, 0x3dc3c78639c8f9fcU, 0x3d98dc403d733f4eU,
  0x3d8df640bc4f3e75U, 0xbe028e103e093299U, 0x3a9f85efbce0ae1dU, 0x3e023558bdf62822U,
  0x3dadfc143d17247dU, 0xbe0ff8b9bcce89d4U, 0xbcbd509b3c1b898fU, 0x3ab874a53bf3a28eU,
  0x3dc692713d7c235cU, 0xbda732813d96252eU, 0xbdd5f8f13dbc7c94U, 0x3deb37863dd5c53aU,
  0x3deba27b3dcbcc94U, 0x3dec57443e096bf2U, 0xbdf0d3cf3da6cc6dU, 0xbdc084e73db0ad7bU,
  0x3c5d5b803d25ac86U, 0x3dedcf91bbf21c3aU, 0xbd7185e5bcb6ec8eU, 0x3c0691e13dcbc684U,
  0x3cbd8c77bcccd671U, 0xbe075ae8bd91ec28U, 0xbcb292f43b309322U, 0x3dc70fa6bd33f1acU,
  0xbd94db033cde34f5U, 0xbdd3db823db63d0eU, 0xbdae249e3db3e20cU, 0x3dfab17cbda6dd45U,
  0xbcc155b83cb2ca4eU, 0x3e046ee2bc3b5765U, 0x3de45dd53de5a70fU, 0x3d3b26b53e077e71U,
  0xbd5c52d53d399c0dU, 0xbdadbcdebd951a83U, 0xbdb12e19bd9af05fU, 0x3cf25125bb6baf4cU,
  0x3e086ed63db4e7f2U, 0xbccceb773e2c0988U, 0xbb817624bd1b6167U, 0x3d4806113dd3d31aU,
  0x3d563a043d90fc57U, 0x3e0f3f8dbdf55d5dU, 0x3e1f2cb93d87a9e0U, 0x3db805fbbd984b10U,
  0xbdeca9a73c21d29cU, 0x3e066bf63e1ad384U, 0xbdc7f6173e1a8098U, 0xbd5254623e1e6e76U,
  0x3e1f8ceabd77596bU, 0xbd3974f43d54650eU, 0x3d17eac33de841a3U, 0xbce39f24bca6f1c9U,
  0xbd79516f3d9d8719U, 0x3e02b3223dbc6770U, 0xbdd7f6923ddfd007U, 0xbd95d406bbcfacefU,
  0xbda5d2a8bdf3fb31U, 0xbc86083cbe0a8ab7U, 0x393778b9bd914295U, 0xbdee3a453d8b4f4fU,
  0x3df0cfd3bc3eed19U, 0xbdfdb2c0bcc5042dU, 0x3e01a304bda679afU, 0x3c8ef6a33dc00906U,
  0x3df838abbcbf7c43U, 0xbd2a1f38be04b040U, 0xbdac8a793d4863b5U, 0xbbe71e0c3b53944cU,
  0x3cd02905bd832502U, 0x3dc619ff3db4a1b6U, 0xbd8f8395bd0b376fU, 0x3d421430bdca272aU,
  0x3dc60d5f3dbcb442U, 0x3dd717b7bd9c3365U, 0xbd5ff561be1af84dU, 0xbddfe2dcbe00c170U,
  0xbd12ef7b3d90063fU, 0x3df2e81f3ddbf74dU, 0x3d5dd8a53e0cfd90U, 0x3dd40855bdd128bbU,
  0x3e0299dabe18762bU, 0x3d82644abcbc8610U, 0xbd12dc7e3d0c734bU, 0xbdcc51893da0ac18U,
  0x3db2c47c3cb8c227U, 0xbce2025dbd02d028U, 0xbdbc7df53dd6b0e0U, 0x3de81111bd0d8021U,
  0xbdd14d13bd7f22c0U, 0x3c702f563d72e07aU, 0x3d87c122bde60d61U, 0x3e0174fc3da95caeU,
  0x3c99d3efbc94c9b5U, 0x3de7670bbdefc4f6U, 0xbc92180cbcc2b449U, 0xbb85c0a63de5cbd7U,
  0xbe0845a6be0b826aU, 0x3c209014bd6a3b2dU, 0x3cab44d8bc8d57cfU, 0x3e0825cf3de55465U,
  0x3def8f5bbd85a9beU, 0x3baa879bbe0717bcU, 0x3ded8a14bdaf3102U, 0xbd81d4ebbc375acbU,
  0xbd8996f13dd198f3U, 0x3dd351d13d01114bU, 0x3e099222bcae694aU, 0x3c15b789be2143f3U,
  0x3deecb63bdd207c6U, 0x3db69691bd8a70bdU, 0xbdb4dbf63def9285U, 0xbdf2b444be25a998U,
  0x3dc63002bc86f2f0U, 0xbe0b1193bd3253e0U, 0x3aa5308dbddf7ecdU, 0xbd7d3b5ebcba529fU,
  0x3d2cc329bcbafd8eU, 0xbdc5ea973d57eb27U, 0x3bfc282abd0f0b0fU, 0x3dd01db03d1cd8daU,
  0xbd1a8f9d3c807624U, 0xbc38612d3e090d0eU, 0xbd54547dbe15068aU, 0x3e1cb52b3e156958U,
  0xbdec5cda3c5bc1d1U, 0x3d30a5b23c481acbU, 0x3d65b055bdfa48eeU, 0xbdd7e2113d1b4cd0U,
  0xbbdfe4093e1694d5U, 0xbe208eeb3def1312U, 0x3cd3840abd93be70U, 0xbd522a573dd9fd58U,
  0xbdb2e61abce3e29bU, 0xbdf0b66d3d3d7f3bU, 0x3bba48a03dac1356U, 0x3d9b3e68bd393d79U,
  0x3dbcc59d3c7178afU, 0xbd9b61edbe1ab709U, 0x3d952ec6bdac3460U, 0x3d8a3e95bdc97f9eU,
  0x3ce0bf41bd0afce4U, 0xbd10dc03bcd3ef56U, 0xbdb4c9053ddfa2caU, 0xbdb8f5a3be15c49bU,
  0xbe1254bf3da4cdafU, 0x3d3190bfbe176eacU, 0xbcac9a8ebd442240U, 0x3be5c1aabe0fd6ddU,
  0xbe1e009cbe0723d4U, 0x3e04f685bbe39b3cU, 0x3da0445dbe0c2d41U, 0xbcdf40d43dcb7117U,
  0x3dd1d647bcaa69f3U, 0xbdd4873cbce6a6c3U, 0xbc1eb4a33d3ee94dU, 0xbc263a1fbdf2f6daU,
  0xbd254b59bda2bc7bU, 0x3d70d481bd4eb71eU, 0x3d834fd33e038f63U, 0xbbef16b03dea9d6bU,
  0x3c78f2f43df5645fU, 0xb8fcb8983d2e693dU, 0x3cc98770bc44d00bU, 0x3c9190dc3d901d4bU,
  0xbd6d26853d90dfdcU, 0xbd3f5f0abdad7cd7U, 0x3d12ae403c366c3cU, 0x3df58c1d3d8887d0U,
  0x3dfe20003de45fa8U, 0x3dd9a4bc3dd4b529U, 0xbc63f0e23daa3bf1U, 0xbd1853fc3dbd9114U,
  0xbd600f053d63b3fcU, 0xbdc22d253e16dc02U, 0xbd44f2a53c68ce43U, 0xbd8215a63c6931c6U,
  0x3d6913673da6e5ebU, 0x3dce89273e0945e5U, 0xbd15ffa4bd8f74b8U, 0xbe2163aa3d312649U,
  0xbe1a7ad5bd73ce4aU, 0xbdc1a96cbda8f159U, 0xbda8f8b8bd0bcf94U, 0xbe2c7a36bda0d4f6U,
  0x3bbf1a593a9438b8U, 0xbd74f3ff3e1b47acU, 0x3d11b2843d0bb6a6U, 0x3abaa64e3e301fbeU,
  0xbda6bf0b3dc745c4U, 0x3d88c56dbda2c4e8U, 0xbdab7d643e09ad0aU, 0x3d92c6f83d69d49dU,
  0xbd29536b3c9d470dU, 0xbdd4fadcbc3c3825U, 0xbda51bc8bb83d547U, 0xbde5aa69bd5233e1U,
  0x3c31fcf2bd653884U, 0x3d7eb63b3e07429fU, 0x3d8be2d53d01f455U, 0x3b116d5dbdbc7e2cU,
  0xbcfa820dbda9c7a3U, 0x3d76848b3dc22103U, 0x3d2d794ebd9dceb1U, 0xbe0535a6bdbc5a13U,
  0xbcaace7dbcaf44e7U, 0x3cd20f7fbdcef407U, 0x3dc3de773da081d2U, 0xbd3391b9bdf47c62U,
  0xbe19fd4dbddc8fa7U, 0x3e0f2ffcbd78ce7bU, 0x3d8866253d35e2e9U, 0xbd8a4bd5bd4a76efU,
  0x3d35bfae3c28e174U, 0x3d2696c7be23d04eU, 0xbc3480d73e09f4f9U, 0xbdc6517cbdae30feU,
  0xbe05d53ebc9c62a8U, 0xbd77e08bbd8dcaa7U, 0x3dc8a9123dde9f68U, 0x3e041e0bbe0f158cU,
  0xbd01a4b7bd4d63d3U, 0x3d25076a3bc65a40U, 0xbda993553ccc5114U, 0x3d460cc63d78303dU,
  0x3e110b41be11d3cdU, 0x3e0f171f3d9409d9U, 0xbc026b703de14e06U, 0x3e042d5cbdf7abc9U,
  0xbe02a95e3ca21054U, 0xbdefc0ca3d50caabU, 0xbcd8e962be0ed2e4U, 0xbe14e09ebd2eea17U,
  0x3d84cac63cec3be0U, 0x3e110367bdace0bfU, 0x3d856b3fbd98b2c6U, 0x3cae57b13d5decf6U,
  0x3dfc22cfbcdeb427U, 0xbd5911933b754feaU, 0x3daae39bbd3cd0bfU, 0xbd854cfa3d1ce50dU,
  0x3bfb20febd5a2406U, 0xbba22eae3d9c1b76U, 0x3de8a443be07798eU, 0x3dcb66b13dcc29fcU,
  0xbd375e263dbc5423U, 0x3c278fe53c46ffdaU, 0x3dc538f33e013e9cU, 0xbc4178c8be014f4cU,
  0x3bd9b1083ccba831U, 0xbe1a54d33e10ff36U, 0x3d455a2cbd970a23U, 0x3d76cf24be10b8a4U,
  0xbe099216be0922b8U, 0x3da7b4afbd9d61fcU, 0xbde953843e0d8136U, 0xbca2de22be1cc62bU,
  0xbdbbf8343a537c08U, 0xbd85beb0bcd9a7f2U, 0xbd045f333e189b9fU, 0xbc084eb23e0b8923U,
  0x3c9bd95d3dd27566U, 0xbc866edb3db02efeU, 0x3e1e7fb23d22b68bU, 0x3d8e265b3e035959U,
  0xbc9068c0bd2fb636U, 0x3e1c44433d037bdcU, 0x3d6c35f3bdd8b55cU, 0x3c7d24d0bd3b9488U,
  0x3d5e08bfbd485d08U, 0x3de815973de72319U, 0xbdbec7863d0c33caU, 0xbdc1c09b3d1f419fU,
  0xbd153fd7bde02ccfU, 0xbd5b43553e204f14U, 0x3cd450c23d98bf0aU, 0xbc7af39c3e005227U,
  0xbe0dd6613d15ca49U, 0x3e1bc01f3d5581efU, 0xbcf841bcbb9be08bU, 0xbdb41f19bcdc6b1bU,
  0xbcb2bc65bd822db7U, 0xbdcc3d45be21c405U, 0x3dc191c83e113e3aU, 0xbc087af8bde6f1a7U,
  0xbdfe949b3da9c946U, 0x3ccf1ecb3d9559a7U, 0x3d966d0a3d38445bU, 0x3d0611d43d90e223U,
  0x3ddba925bdad29a0U, 0xbdc3c3d1be0999c9U, 0x3d9beac83df5b456U, 0x3d5aa43a3dac49a0U,
  0x3d0321f23ced4564U, 0xbbda0eddbd56dbd4U, 0x3de9e1e13bb39b5cU, 0xbe0e3e183de679b8U,
  0x3ddbb1583e0c9b8aU, 0x3ce2a4b4be2d81e7U, 0x3d0289083e14f5f6U, 0x3e066743be157a72U,
  0xbe09ec963d6a7c8dU, 0x3cedeb063bf566d7U, 0xbd18a8e83da41ffbU, 0x3c04b994bda053eaU,
  0x3d940c12be1e1051U, 0xbd240d83be0709e5U, 0x3db3bd923deae68aU, 0xbe05b30f3bdda5bdU,
  0xbe200a75bcfc0e56U, 0x3e0079243cd708c3U, 0x3e02fb6c3c5ba3beU, 0x3c773d2fbd55f516U,
  0xbd6d7f593de82f04U, 0xbd8d303ebd001679U, 0xbde24c4f3dcfa266U, 0xbde95a9abc4ff988U,
  0x3c9640bebe0d9e1fU, 0xbd4266cb3d99c212U, 0x3dcb48db3df0ab63U, 0xbc927c81be2178ddU,
  0xbd93c80bbc64baf2U, 0xbdbf50793dafea72U, 0x3ddea8e8bdb5bef3U, 0xbd8a7dcabd69bec2U,
  0xbe26226cbc3085d5U, 0xbe06a0323b3d4fd4U, 0x3d73baa63b8f4124U, 0x3de21b143db76f58U,
  0xbd5a1378bce4431eU, 0x3d287eccbdb56324U, 0xbd2af46ebd0d8022U, 0x3d9aae813da910d3U,
  0x3dbd9f57bcb5487fU, 0xbc5a020dbe1d7235U, 0x3daa63253dac30e6U, 0xbdb486d93dd6fa8eU,
  0x3d2f338c3d468be9U, 0x3d8ed7be3dc61169U, 0x3df4ae983dc52958U, 0xbd0ebd383c9ffac0U,
  0xbdaae96cbd6e18a5U, 0x3e0b02a53dae10f1U, 0x3d8d58cd3de2cca4U, 0xbc3be057bd6ac10bU,
  0x3d889b2b3e2ad68dU, 0xbbebe088bc8d9d61U, 0xbd61655d3d750500U, 0xbdcbcb1d3d7a0ac6U,
  0x3cbb44fdbd20789aU, 0x3d3c1b55bd9967beU, 0xbdd3f3753cec57daU, 0x3e17a6aebba86429U,
  0x3df5b75f3d82fb47U, 0x3d2fa705bd8d9571U, 0xbe14d63b3d3a7663U, 0xbdc48d9bbdde1fc3U,
  0x3d555134be24af13U, 0xbdaa5911be0bae02U, 0x3dd93a733d5bf842U, 0xbe015b643e128aedU,
  0xbe124e833d7a33c2U, 0x3de04e6ebd8be01cU, 0x3bf56780bdf725b5U, 0x3db4fb6c3d614b6eU,
  0x3c842f0dbdc8bd75U, 0xbdf113f7bce73d79U, 0xbe09b4abbddc8946U, 0xbe107d7cbdae2bb8U,
  0xbe0f92dc3e121f0aU, 0x3dfbcb38bdc6375eU, 0x3db93e54bd7bd827U, 0xbe232c783da75fa9U,
  0xbd75d28cbdcdd8b8U, 0x3d09f5663d87a851U, 0x3e0b4301bdd24090U, 0x3e0d56393d3e1a5cU,
  0xbb9e764c3e0cbffdU, 0xbd54c455be169b02U, 0xbd72239ebc8c023aU, 0xbda9b72f3d6b8a4eU,
  0x3dc17592bd33e039U, 0xbdaadb643d296c89U, 0x3be476fdbd85ac25U, 0x3cedc40e3c492738U,
  0x3d892c0fbe18f047U, 0xbe17a52d3d84d498U, 0x3dacfcf6bde4aeafU, 0xbdde9f213ddb5f92U,
  0x3db4b8ee3d80831aU, 0x3d8b9dfc3d3f5f7dU, 0x3df51d1b3c1210cfU, 0xbd7d26c4bcfd8271U,
  0x3c4dae343d772190U, 0xbd9f006d3da73e46U, 0x3e4960e9bde46530U, 0x3deef852be233f9eU,
  0xbdb1d149bd98283fU, 0xbdca57fdbde802ebU, 0x3e40e5d0bd23a6f2U, 0x3df1ab38bd13cec5U,
  0xb9ad966e3dcb616bU, 0xbde27d153dc8b9bbU, 0x3d9f34423e0a50a8U, 0xbdfec8b5bd94dd24U,
  0xbdecc7fdbdcae289U, 0x3c8166ffbcb93c5eU, 0xbdb03b2dbdfd7050U, 0xbd5016dfbd47b8bfU,
  0xbd243c2bbd8553d4U, 0xbdcc6ae3be114520U, 0x3ddd9f69bc8cea3dU, 0x3b92cfbe3e110916U,
  0xbd325fdc3d147b04U, 0x3d2d66db3c043920U, 0x3e12f2433cab0b0aU, 0xbd20a7163e03ea54U,
  0xbe07ab9b3da0feb3U, 0x3dff3e92bdcaf50fU, 0xbb05c6053ba149e7U, 0xbcabfcadbdae07e4U,
  0x3c388d9dbdb29526U, 0x3d81212a3e18826bU, 0xbc4beebebe0d66edU, 0xbd8c3ad5bc9fb668U,
  0x3e1f87c7bdc97c24U, 0xbd76f6c93df4d17bU, 0x3e020f54bd3ab053U, 0x3c9deac93c9b5cceU,
  0xbbdd8772bd9747bbU, 0xbcb6a698bdae12b9U, 0xbcb3c8d83cd7a8c1U, 0x3e06de633e26c49fU,
  0xbc92a4a2bd8ec249U, 0x3e10ef813d8c81ffU, 0x3de202de3d9d3c4eU, 0x3da3e2453d8aa2f9U,
  0x3e293ebabd3467b1U, 0xbd2aaac7bd36884bU, 0xbdd64f29bcbca062U, 0xbe224b6a3dd174cfU,
  0xbcb7c1743d689eb5U, 0xbd91c1193d899154U, 0x3d1e49e9bd6b75d8U, 0x3dbf9da1be0b44abU,
  0x3da8ea2cbe0e9a70U, 0xbcf40cdbb9e6be0cU, 0x3e152e403d296d76U, 0xbdc9d682bdbfb7fdU,
  0x3cd654bc3e14da8dU, 0x3d4bdb033c96ad47U, 0x3e12c89bbdce04b2U, 0xbdf6ac523ca5fae3U,
  0x3cddc993bddea61dU, 0x3d9b3de43c4c6407U, 0xbdb5f14abd7f50c2U, 0x3e06c3963c83b4a9U,
  0xbc749fe23c99400dU, 0xbcb30e383dad6c83U, 0xbdffa8b23dffbb03U, 0x3d729c8b3df7ef44U,
  0x3caeaa71be0df3b5U, 0x3e0e9987bd9638d0U, 0xbdf4aeb43da92b74U, 0xbdcad07ebdc33eb6U,
  0xbdfcc5553ca3659bU, 0x3c5dfd1bbd3fe798U, 0xbaa2984e3d1ef10aU, 0x3dc665073dac4383U,
  0xbc7570ed3c2592deU, 0x3ce03b343c5ac12eU, 0xbdd58d58bde645d3U, 0xbce7c58e3deba1eeU,
  0x3de5915bbd4a10b0U, 0x3df2e2b83d1a6f83U, 0x3d4b0643bb982585U, 0xbd983340be161498U,
  0x3b94c8253c631026U, 0xbd853994bd548b19U, 0x3d773673bdebade3U, 0xbdfd179ebe08fd0fU,
  0xbe02e73e3dc4a453U, 0x3de751bc3e103d50U, 0x3e06457c3dcfb410U, 0xbe06bd293cd7d0c0U,
  0x3db61001bd93294fU, 0xbe1a6cfebdb52fa6U, 0x3db662fdbdee2a65U, 0x3c375f533cf4b386U,
  0x3d74ea603ce3dad8U, 0x3a8e4bb23d7ef71aU, 0x3db770ccb8137762U, 0xbe12fbd6bdf3c38cU,
  0xbe1a8f7abe131186U, 0xbe156dc1bd88d4c8U, 0x3da7523fbe1e648fU, 0xbdbf251d3dd6afb7U,
  0xbc55430abdda7ec6U, 0x3d8f63923df1ce6fU, 0xbd8d7333be0a3c3dU, 0xbdac786fbe2176a9U,
  0x3d952f17bd1d0c85U, 0xbda716d7bdef1e41U, 0x3d5dc0a83d23320dU, 0xbd0a9b6ebd06dd68U,
  0xbd5240cf3df81364U, 0xbd04b97c3debe219U, 0xbd1febd73d695391U, 0x3dca22fdbe1d5680U,
  0xbb2bff5a3c040f33U, 0xbe104215bcc604f7U, 0xbe01c1f9be2391e6U, 0x3cbaa0813def3d23U,
  0xbd0d4eb03d33cb10U, 0x3d08a9873cb7e38bU, 0xbde12bc5bde7a60fU, 0x3dcd92843da5590aU,
  0x3d5c6a19bc9102a4U, 0x3e044222be209224U, 0xbddebf0cbdf0d2f7U, 0x3d20121f3db1b76eU,
  0xbdb8f4833d848161U, 0x3d91e25a3e0b8fd7U, 0xbdfe20ff3d615dfdU, 0x3cb372203dd3a3fbU,
  0xbd2bb511be16010eU, 0xbdc370053dd7935aU, 0x3e079ec3bc773433U, 0xbe1910b03d150edfU,
  0x3dab536bbc090f68U, 0xbdf69aa2bd5b963bU, 0x3d9d21323df4593fU, 0xbe0c76fb3d7e7c13U,
  0xbd6baefbbd8aaccaU, 0x3e09d454bc088830U, 0x3cf86c7dbcf1007eU, 0x3d1075e5bd6e035dU,
  0xbd02d7dc3cacc7aaU, 0x3d1be8eabe05b609U, 0x3e0b76e93d7f384dU, 0xbe07ca63bcbba670U,
  0x3d51308a3e0bba88U, 0x3d44900cbb8fcef1U, 0xbd996f4abc76d270U, 0xbe019742bdc2001dU,
  0xbd46bae93d9e64dfU, 0x3d90a3893dc1f3c4U, 0xbdb002f83c879cacU, 0xbd0285a43e03d29cU,
  0x3c93939abe21cd4eU, 0xbd96d79ebc02bbbcU, 0xbe043c9cbd39ecb7U, 0xbcd8415ebd76b3a0U,
  0xbddc55dd3d9a8b96U, 0xbd8719323d3d5d7fU, 0x3d8d02e83da66da0U, 0xbdc9fd7fbd4e4d4aU,
  0xbdb4f6deb9a3ae40U, 0x3d7b09eb3b8db08bU, 0x3c29d78fbde46aefU, 0xbd0c820ebba3d2f1U,
  0x3d8f2c6d3dc15790U, 0xbe0835e23bc5141eU, 0xbddf3847bd9ef2ceU, 0x3db65116bd29f6ccU,
  0xbb9b4dea3e126de9U, 0xbd9aa51ebda59c44U, 0xbdd936ae3e079ed2U, 0xbd98d0c53b530fb9U,
  0xbd646b423dffb205U, 0x3d55d3c63e084901U, 0x3e01285ebc5cf3c3U, 0xbdfa22523db33987U,
  0xbdc752ddbd77edbcU, 0x3e0849a93ddc7c1bU, 0x3d1f7cff3ce8c686U, 0x3b5c33b83da1b0a3U,
  0x3d8ca4aebc5f1ac2U, 0x3d6e7db0bb728cf0U, 0xbaad06973d0d10ebU, 0x3d80bc553c690925U,
  0xbc213f183a540181U, 0x3afedaa4ba2681f2U, 0x3c3b55913ce01f24U, 0xbbf20811bbcaf940U,
  0xbc97a3abbd07e841U, 0xbcf934373d8e9eb0U, 0xbd71136e3cb2e8ffU, 0xbda9c6493d8faff8U,
  0x3de9a7bb3d68e15eU, 0xbd639196bdb43462U, 0x3d9afe243d9791aaU, 0xbd8202813dd9682eU,
  0x3d39dcd2bbed559bU, 0xbd4c4b5c3d6ec92dU, 0xbd880ef0bd47c663U, 0x3c9bed07bc9b44f9U,
  0x3d3f0564bdb60879U, 0x3d379012bda6be2bU, 0xbd2dbe033dfcbbaaU, 0x3d9630d0bdd3aec8U,
  0x3d364477bc800109U, 0x3da669d63d09e432U, 0xbc67f2103dcd7c87U, 0xbd9c5acbbd00dde8U,
  0xbbc2266cbd3aab29U, 0x3e0c0eb03d90ab3cU, 0x3cbd9a4e3dd1c932U, 0x3cf2cb743e1780bcU,
  0xbdc73ce93cf5304bU, 0x3d324b2bbd815794U, 0x3ddb1c15bd4909f6U, 0xbd8635663d60c40bU,
  0x3ce3e9d8bd700c95U, 0xbc3b97d7bcc114beU, 0x3dba6174bdb680ddU, 0x3d65f067bd983b4fU,
  0x3dd320943d298aa3U, 0x3d0ac369bd92987cU, 0xbd2bd17fbd0f2b69U, 0x3d69468e3ad44a6dU,
  0xbd95ad4a3d948562U, 0x3ccff24fbd563fb6U, 0xbc83b17ebc91d7eaU, 0x3d1adaddbcf95d3eU,
  0xbda3c0963d826ab4U, 0x3c0d31b43c474cb3U, 0xbb840c0bbdc9b728U, 0x3dec8a083dbb71ddU,
  0x3d202c55bdbaf029U, 0xbdc81026bd9dc176U, 0xbd4c51f5bda3d72bU, 0x3cd552c13d64fa88U,
  0xbbec2b613ca92af2U, 0x3d8a8a72bb7d3a15U, 0xbdaf8b0b3d955a97U, 0x3be6fedd3c2de117U,
  0x3d14bcb6bdb9147fU, 0xbd3fc7d03c1ff0b0U, 0xbc760a3cbd3bf73bU, 0xbbabce81bd2a38fcU,
  0x3c75d1fd3d1a13bcU, 0xbd944a333ba7d05aU, 0xbd94548d3d7a1a2dU, 0xbd5dccf8bab640d2U,
  0x3dec8cc5bcfbb783U, 0x3c1bb9233d8361b5U, 0xbc4eae733d3136cbU, 0xbdb36079bd3800d4U,
  0xbd2cb0873dd95f3dU, 0x3a888b44bd8ba407U, 0x3dccdb853b9bacecU, 0xbd65be3c3cf92d0cU,
  0xbdb8f484bc5e103fU, 0xbccea0e2bdbb2976U, 0xbdb32495bd9e661fU, 0xbd97d159bc94ec6dU,
  0xbca8a366bcb73a00U, 0x3db4082fbcb82b91U, 0xbcd5382fbd62ddaeU, 0x3dde8cfcbca2b8c5U,
  0x3d8045c7bc7e13b2U, 0xbd911c7f3dd093bfU, 0x3d3e63093da30398U, 0x3d220917bca70b27U,
  0xbd0e4c9d3c8c4534U, 0xbc440b6cbc7cf139U, 0xbdcc2b0e3d241267U, 0x3c839fd73cd1a94aU,
  0x3935bcc23c885316U, 0x3ce8df5fbd09b7c2U, 0x3ddc6660bdaed817U, 0x3d7a4992bda01af4U,
  0x3dfb40d73c0a63bbU, 0xbe018fdbbdbad2c7U, 0x3d6e6f9abb96bcc8U, 0xbd7d4d103d1fabc3U,
  0x3d3de5abbdd54d41U, 0x3d6375df3c9265fbU, 0x3db4fcaabda6de48U, 0x3dc918ecbc12c58eU,
  0x3a7e0327bdd91109U, 0x3d5d76aeb8551798U, 0x3cb589263d6f586aU, 0xbd82d29dbdd01578U,
  0xbd83431bbd648901U, 0x3c2c10893d5a566cU, 0xbcdcddf3bdb04850U, 0xbcfeb8c63d0b3ab3U,
  0x3dc3245f3dc0ac3dU, 0x3d82c9eb3da596efU, 0x3cfb6f3cbd5db6dfU, 0xbd48ba883dcdd002U,
  0xbbaf9c17bda2ee22U, 0xbcd2a7c4bdb3e29cU, 0xbdad3611bd635405U, 0xbcf949adbb174b42U,
  0xbd4d60733c3d31b0U, 0xbb683e53bdba437bU, 0xbcff89f03c48320bU, 0x3d74c5cebdd8c87aU,
  0x3d105e00bdd62200U, 0xbbaa4dd8bd9e471dU, 0xbd96960abd2979cdU, 0xbd8f87bdbc244994U,
  0x3cc707553db6c649U, 0xbcd9e73d3d7c61b0U, 0xbdcd2af0bd8a7f27U, 0xbd2c12ff3da1cf04U,
  0x3d9cbc793d04d4c9U, 0x3dbcdae93d14c333U, 0x3d56d0843d613c95U, 0x3d98b3af3d67f56cU,
  0x3db029033d10fbc3U, 0xbdd15fb5bda46a8aU, 0xbdbb2de8bd607897U, 0x3c8d55dd3dacb808U,
  0xbd5fcce23d3db3c5U, 0xbd99644cbda942c1U, 0xbdb8e109bd335462U, 0xbc9d5d48bc99ae90U,
  0xbd2815263cad3d03U, 0xbd6fa2753db4e368U, 0x3d8d483d3dba7717U, 0x3c5f5b10bd23a01cU,
  0xbcd278d3bdbc8edaU, 0xbd2e946dbcd4974aU, 0xbd3bb898bbfde701U, 0xbd7e55f7bdc30ce5U,
  0xbd3dfcd5bd8b938eU, 0xbdd002cebd43d9eeU, 0xbda15887bd27d75aU, 0x3d8a5022bda2106bU,
  0xbd918bcdbd530348U, 0x3c861daf3bae45e8U, 0x3d647cbc3c578003U, 0xbd62d5a0bd83831eU,
  0x3dafbd86bdbfa1faU, 0xbdb1f165bcde1a5aU, 0x3d9ff904bde8e83dU, 0xbc85cabbbdd6db92U,
  0x398d9843bdcc5c9dU, 0x3cf45b3fbc69ca0fU, 0x3d8815843d45784eU, 0xbdd376343c9d760dU,
  0xbdd73c38bdaba884U, 0xbca78c90bd57f94fU, 0x3c4fe8593cce8833U, 0xbdc90e90bd2e523eU,
  0xbd7fb7a7bdae8a0cU, 0x3d4a9bc03dc8ea7aU, 0x3daed1d1bd8858d1U, 0xbd050f2c3d5b4dd4U,
  0x3da192bc3d9171caU, 0x3dbe0a95bd826f1bU, 0xbd8a84acbd975c91U, 0xbc32fcbebd82c316U,
  0xbdfbbeb73dbc6872U, 0xbc0872f6bdda443dU, 0xbd6a34703d0094baU, 0x3cc875603c422548U,
  0xbc8ce0d2bb00728dU, 0xbcf7af07bb375774U, 0xbcf41e95b9ee93a1U, 0x3c868affbdd23374U,
  0xbd91251abdd1a269U, 0xbc200e05bd87fc52U, 0xbd2f4b653c9230dcU, 0x3c52672e3cc300f0U,
  0xbdc10e793ca8b41bU, 0xbcc48dbb3d8bc3efU, 0xbc9f7d5a3db24a86U, 0xbd93eb7dbd1cd399U,
  0x3d073419bd207944U, 0xbd6ff3173d37720eU, 0x3d98e5afbd7684fdU, 0x3dc3881cbd4ef44dU,
  0x3c1a31ca3daebecfU, 0xbdbd0fd83dabfcd9U, 0x3d9a4f283ce6e62cU, 0xbcc3e5c6bd9bb4abU,
  0xbdafd60e3dabda06U, 0x3d6c1b6b3c34bb96U, 0xbcc47c303cd938a3U, 0xbdcf0004bc326a0aU,
  0xbdabc4a9bdb89712U, 0xbdb0baf43d80f6d5U, 0xbd124166bccf551eU, 0x3d81d8ddbdb95bc8U,
  0x378ef6e2bd90dfa5U, 0x3b8b9b68bb96c99fU, 0xbde01e373d44ddcfU, 0x3d9fa80e3d2b4c3bU,
  0x3cdaeb883d30f60aU, 0x3d8987073bb34ab0U, 0xbda05aac3cac472fU, 0x3d93ebb73c41d9adU,
  0x3d88d2553c890e3dU, 0x3c83f6cf3d84a08dU, 0x3d385f88bcf381f1U, 0xbd63c4523d1573e0U,
  0xbd129b0d3d8cc496U, 0x3cb342d43cfab21bU, 0xbdcf9095bdca4edeU, 0x3cc8cafe3bf2307fU,
  0xbd78c1933d6f34f1U, 0x3c942d843da84dccU, 0x3d47e0543ccf4b7eU, 0x3cf189133cce5adeU,
  0x3daa39853da4e4c0U, 0xbdc41bf7bc3dd689U, 0x3db992bf3d076fb4U, 0xbda49a733db665c1U,
  0xbc13274e3cb89f2aU, 0x3d52d4163cc56bc1U, 0x3d97f678bd0a77c5U, 0x3d22f37bbc7f7759U,
  0x3d395c77bdb8ad06U, 0x3d8ac9d33d69e989U, 0x3d639f3b3db45739U, 0x3d5db15fbd20911aU,
  0xbdcdd23dbd4a6e6eU, 0xbd7ab7813d9545dcU, 0xbd2339debd0ae8d8U, 0x3da6cf17bdf2caf5U,
  0x3d78f3703db79c18U, 0x3dbbde7f3daefee3U, 0xbc2cd7a43dddc1d3U, 0xbd8b2f963cdd8059U,
  0xbdb9f16abd914b48U, 0x3d9d264b3dc90886U, 0xbda495e63d57a31bU, 0x3cfe1d9abd83e8e0U,
  0x3d4b51493dcdeb7bU, 0xbd5a84e63ca28a64U, 0x3dc4fb28bdc75a8bU, 0xbd521dd5baa15d47U,
  0xbd7e7705bd654e06U, 0xbd932748bb1626b6U, 0xbd64fc98bdcdf4d0U, 0xbbdeac56bce072c0U,
  0xbc3af92e3d648f17U, 0x3d429b3c3a0117acU, 0x3d18e3fa3dc32eccU, 0xbdaa28b03d58fa09U,
  0xbd65441cbbd075b8U, 0xbd80e038bdca319bU, 0xbd1fc9193d96e15cU, 0x3d9cfa40bdb3d779U,
  0x3d42ecf13d9de303U, 0xbd4f215dbd198faaU, 0x3d90f06cbd06675aU, 0x3dc13c633cc5daadU,
  0xbd5d8e4e3db9842cU, 0xbdc62ce7bdc93e3aU, 0x3da155d03dbcda00U, 0xbd8d4ae3bd7d2341U,
  0x3d127e2e3d7a28e9U, 0x3d89af703d89d7ceU, 0xbdc79ca2bd95dd63U, 0xbd191bbe3cbf9d56U,
  0xbc7ad5c93bcb1fcdU, 0x3d184dd539f09134U, 0x3d982718bda8f0d7U, 0xbce3225f3d9f8aa9U,
  0xbde0f603bdcbc315U, 0x3d0eea2e3d7d4109U, 0xbb89c1823c29ff5eU, 0xbdd2c6613d2b2aadU,
  0xbd43c0f73d13f57bU, 0x3d9df77b3d6c81a3U, 0xbd4d94ba3d6be75cU, 0xbb0474023c5ec6d6U,
  0x3da348a4bcd27af2U, 0xbdc66414bdc52a92U, 0xbd137e0f3dad3295U, 0x3da54485bbd15e55U,
  0x3c31785bbdb026cdU, 0x3d26331abdd20b4fU, 0xbd143e1f3cc3c6c4U, 0x3c998c7ebdec1065U,
  0x3d65d1163db089daU, 0xbd6b720dbd6a9ff8U, 0xbd60e862bd5415b6U, 0x3d19aec7bddf4e89U,
  0xbd99d6aababa863fU, 0x3cec36e6bcfabbedU, 0xbd13e9d13d46efa5U, 0xbce10cfd3a47955fU,
  0x3db8585b3c9d5f61U, 0xbced4979bdc87beaU, 0x3d1b1f0d3b2e08aaU, 0xbca302223d81aad2U,
  0x3d267d75bde8bb64U, 0x3d06e9bc3db59498U, 0xbda83e75bd5dea63U, 0xbd69bc383d14022fU,
  0x3d17edbf3c0b885dU, 0x3d317aed3d391af0U, 0xbbfae58c3d10f4ebU, 0x3c2a31c43d351ca2U,
  0xbd3bcc52bd813f58U, 0x3d14ecbcbd4fc430U, 0x3ccc0dc6bdd3b2ebU, 0x3d98da723dc56953U,
  0x3dab47d0bdbfeef0U, 0xbd0fb3bb3d373508U, 0x3d82a71d3d984e01U, 0x3d46b259bddcf0fcU,
  0xbdc8f8be3ce38b43U, 0x3d962ed9bb1a16d1U, 0xbd70b669bd76baabU, 0xbd015fe1bd69ff5aU,
  0xbd496a4b3d010747U, 0xbd91ae1abddbadf5U, 0xbdcbeab63d749561U, 0x3dbaed513d9322ceU,
  0x3d3fb4bc3d7a166bU, 0xbc2c7a40bd41ea2cU, 0x3cb0984abcf21abdU, 0x3d81bbd33d1822d3U,
  0xbd5c62483d37a6cdU, 0xbcebc2373c552460U, 0xbd2fa60ebd1755acU, 0x3d59c8bcbc63c9dcU,
  0x3d07dee93c77c8c0U, 0x3da60266badca646U, 0xbd2b8627bd933b0eU, 0x3d2c6cc53d275ef4U,
  0xbd03b0b0bc57b455U, 0x3d59318f3d5fd797U, 0xbcb4e3f73db48762U, 0x3d92669cbcbe03d6U,
  0x3cf8f43f3a961871U, 0xbd83cc763d451479U, 0x3d1617f33d8d4fc0U, 0x3d828de63cb8c843U,
  0xbd89abf93d720cb3U, 0xbd0b7eda3cb508aaU, 0x3dc40f05bc27ca40U, 0xbd9477663d6e4578U,
  0x3b4bd13abc0d506cU, 0xbd3a6c6ebdb9322aU, 0x3ccfbe6a3dd53ecdU, 0xbd789a42bca55fe3U,
  0x3b580831bcc6b818U, 0xbd312c5b3ddcc5feU, 0x3d2730a83dc9a512U, 0xbd538cedbdafd8c0U,
  0x3c9313513d8b70feU, 0xba4af4a23d8c0888U, 0x3dba96503dd7ddeaU, 0x3dae6fb53bca0254U,
  0x3d23e3503db0d896U, 0xbd282c3fbdc77b37U, 0x3da3968cbc771d05U, 0xbc6911233d006dcfU,
  0x3d14d8703dd4b747U, 0x3de5c1063db2f135U, 0xbc0efef73c8202cdU, 0x3e042de0bd583244U,
  0x3be33e73bc8b6ff7U, 0xbddeb362bda13830U, 0xbd3e9dae3cdc915cU, 0xbdd2a9e43d5e0ba5U,
  0xbc469369bbda3b38U, 0xbddef3f43d94aab2U, 0x3d3e3617bda7600cU, 0xbcd4a951bd03b978U,
  0xbcfce1ddbda7f46bU, 0x3dc39c9d3ce3d10dU, 0xbd8d3d84bda4ffb6U, 0xbc4e19163ce1dbc9U,
  0xbd74cacbbd8e795fU, 0x3d9dd876bd82611eU, 0x3c980485bd5cf541U, 0xbd1b3513bda108f2U,
  0x3dbe4f22bdc2b311U, 0xbdae9a303b2e9e87U, 0x3d408cc53d4392b1U, 0xbd8bacd4bdd78434U,
  0x3d81c9483d33ae3dU, 0xbbdc76493b375a76U, 0x3d7abb023d22e114U, 0x3c48353e399099c8U,
  0x3ddf0e4a3dd779a2U, 0xbd43fc22bdbd0a20U, 0xbce2e06fbc567478U, 0x3bdfa2febd3201f8U,
  0xbd3201213d90f051U, 0x3d93d4a83da678ecU, 0x3ce27c51bcca2ba5U, 0x3c94f1ffbd9ed0f9U,
  0xbddc9511bd77c1fbU, 0x3dbc54203ca9c86dU, 0xbd9ea1643bf35f1aU, 0xbc93a3d8bc041436U,
  0xbdbc8d60bdea8682U, 0xbd2031a0bd556083U, 0x3d861826bdd0cde8U, 0xbdd9a0053dc68356U,
  0xbdbdbaec3d44074eU, 0xbdbf3dd53ddb811fU, 0xbd96bd91bd8fe4daU, 0x3ce3d001bd6d850aU,
  0xbd33cf8fbdad2181U, 0x3d8da2ecbddf6c2cU, 0x3b89ff7e3cdb7f03U, 0xbc00726f3da72f31U,
  0xbd5cb90d3dcae772U, 0xbd698857bdf40a1eU, 0x3cb78dfe3c8c104fU, 0x3d580d9dbdccf983U,
  0xbd86dee1bcc47700U, 0x3daa86723da234a3U, 0xbd1064563c83951dU, 0x3c6b18a33d9be8deU,
  0x3db450a7bda73e01U, 0x3d0afd9cbd5dfa66U, 0x3c37c34f3dcffa29U, 0x3db7a111bdb61e63U,
  0x3d46fd613c63c9e7U, 0xbdde8559bdc277e6U, 0x3dd72a2a3d165d96U, 0xbd6e490bbd1c44d8U,
  0xbca58e253df77377U, 0xbdbf3d8f3ba98ce5U, 0x3dabbfcd3d0af757U, 0xbdd648be3dfb3ba9U,
  0x3d905b19bd450b81U, 0x3d320f30bc846306U, 0x3dd769233d7f5196U, 0x3c75033b3d429469U,
  0x3c30fbf53d419f77U, 0xbdc267dabd457075U, 0xbd38089f3d103a7eU, 0xbd92375d3dc54f10U,
  0xbd1bf60cbdccb18fU, 0x3d1fe020bd031007U, 0x3dae050abdc1fdc8U, 0xbd65d7253bf3716aU,
  0xbd7e0255bcc3e70eU, 0x3d6aab7b3c8a39d2U, 0xbdca46163d22f201U, 0xbc27c362bdc60a92U,
  0xbd8d8687bc219041U, 0xbda9acdbbda233d1U, 0x3dabc910bd0e0cabU, 0xbdc7db5cbd32afbdU,
  0xbce02dc8bdaaccd3U, 0xbc69d5d2bd93509cU, 0x3da6e1393d995995U, 0xbcf2e11dbd0f222fU,
  0xbdbddee3bdad4433U, 0xbd9ac24a3cbc40b1U, 0x3d9623cbbd1e8d10U, 0xbc9490dabcf59773U,
  0xbc31cc563d7a234eU, 0x3d5d7d873d180882U, 0xbdaaf0b6bcc564d3U, 0xbd8435d83d4d1036U,
  0xbc5f1ef1bdeb9f3fU, 0x3caff1c3bd8d814dU, 0xbd6988e73ca6b83fU, 0xbd0288553d1a84ecU,
  0x3debbfb53df10262U, 0x3df911cabc7cd0f9U, 0xbd212b763ccd2320U, 0x3d5ac3b13d0749a3U,
  0x3df727a83d57780bU, 0x3a9d2793bcf8f8b6U, 0x3dda042c3b9198d0U, 0x3d32542d3dfd00adU,
  0x3bb13597bc16aa33U, 0x3cbe5eb6bd7e36e8U, 0x3db9c1a03bae02eaU, 0xbcaa3f133d0af508U,
  0x3e09aa073ad418aeU, 0xbd85bb2e3cda2a4eU, 0xbdc8a7a53d57ca80U, 0x3e08f3613c280239U,
  0xbd042175bcf1f406U, 0x3cbf3af83cc0dc57U, 0xbd4f934b3d8af350U, 0x3daf5b8dbcc748cfU,
  0x3d11591dbda9162cU, 0xbd543c8a3d01e2c7U, 0xbccf08833d93bc84U, 0x3dc6aec53c92c104U,
  0xbc18766fbd9dad84U, 0x3e179df8bd41bc37U, 0xbdd6fdd6bd9d9d1dU, 0x3c1ac4f73d91cb09U,
  0xbdb4f36dbd8f4a6dU, 0xbd5335283d222727U, 0x3db5c5773c46a9b3U, 0xbd7621ad3c89fa07U,
  0x3d8e20b43daa0094U, 0x3a5fad053de03f0fU, 0x3bc07ef33db0f26cU, 0xbdc0c7573b4b2abdU,
  0x3d4c2682bd87a08eU, 0x3dc1fc793bb92b6aU, 0xbc2833f8bc85a835U, 0xbd221c9ebd5ac14dU,
  0x3de9b2ee3d2d47b8U, 0x3d0903703d306d25U, 0x3dbac71ebda601dcU, 0xbd289ad73d85ffcdU,
  0xbd93371e3d615a04U, 0x3d962c3d3c196c47U, 0xbd6c91cabc2134c7U, 0x3c0979e33ddff946U,
  0xbd9244f33c92abb6U, 0xbd41c02e3dc43f03U, 0x3d9c9b2e3da1f8f6U, 0x3ceabc7b3da788daU,
  0x3d0a80e83c62e043U, 0x3bd42ac03ce79de2U, 0x3c1dab473dc3651eU, 0xbb54ffb43ba92668U,
  0xbd7d8a85bd55998cU, 0xbd9b5b39bdbae96cU, 0x3d401b043d98d591U, 0x3d3e01c1bd0262b9U,
  0xbb6601edbc8978e3U, 0x3b792a633d502314U, 0x3d6004803c3adc0bU, 0xbd93f093bd522188U,
  0x3da77a263cde533fU, 0x3d91fa08bd804bc2U, 0x3dd8441b3cd6605dU, 0x3d97e8fbbc04da22U,
  0x3d01500cbd03d2f8U, 0x3d885b74bd4fa2faU, 0x3d5bc2993ca87451U, 0x3d2792a7bdb20861U,
  0x3db69ac53c8a2d10U, 0xbd7d4b073cb9856aU, 0x3d7cf4893beda0ceU, 0xbb07257bbd450b3aU,
  0xbdb18105bd00aad2U, 0x3dd106283c966b62U, 0xbcd0b8b23cfe1a43U, 0x3de3f68e3d6a49c3U,
  0xbda53bd3bcc054e5U, 0xbd9f77dc3de68e88U, 0x3c250e1f3d3606f0U, 0x3cac3c103cc14228U,
  0xbbf89d8b3dc996c0U, 0xbc63137a3db89e23U, 0x3d49e2f23de61646U, 0xbd854901bd80f635U,
  0x3d89b84d3d87ffa6U, 0x3dce85633dd8b28aU, 0xbdcb9599bd0bec8aU, 0x3cb94d5b3d63ee4bU,
  0x3dd2ece9bd8c840cU, 0xbd321a4c3d2097dbU, 0xbc261c8bbd86dafdU, 0xbc3a9a813d7afbdaU,
  0xbce8d00a3c089079U, 0xbd2b45633d780296U, 0x3dae18653de2ce19U, 0x3d9650853d786ebdU,
  0xbc79ed39bc5c0350U, 0xbc2a43ebbc455493U, 0xbcdc19ab3dc3afa0U, 0xbd0db3fa3d6cb75dU,
  0x3c8d0340bd6a797bU, 0xbcb0133ebda4d352U, 0x3dcbcf5fbd9132a7U, 0xbc7221c03c98f766U,
  0xbc1968c6bcc9f9d1U, 0x3d9958743c153146U, 0x3dc8e0763ddb37feU, 0x3be1d545bd38b514U,
  0xbdc39d353ced7129U, 0xbc1ad51a3d71d38bU, 0xbd3dff873d3b919eU, 0xbdb42d243d69dc58U,
  0x3a085e2d3dc0409aU, 0x3ca76a933c958229U, 0x3cb7a3c1bc3ef7afU, 0xbc3c6e4ebd90a46aU,
  0x3d888b22bc1567a3U, 0xbc2d379e3daf3682U, 0xbdc245c8bd38e88aU, 0x3d9f6b2d3dcfe9e0U,
  0x3d3fbb873dd2b442U, 0x3d4ec2bdbd9c088bU, 0xbbf035353d9c6fd1U, 0x3d5d84423d9d6359U,
  0xbd18df033ad054d8U, 0xbdb161223de12a5eU, 0x3d9025f63d2fe40cU, 0xbd61e30fbdfa0c57U,
  0x3d12f9ae3cb1b937U, 0x3db6938cbd09d0c0U, 0x3d9eb0b63c5fa017U, 0x3d9b5caa3dd403e8U,
  0xbcdf08d2bd7725b7U, 0xbb882330bdb0a2fdU, 0xbcf281eabd60849cU, 0xbc1895c83d64c6a5U,
  0xbcad3c00bd3967afU, 0x3dc7a62abd625cd1U, 0x3dda53673de5a10eU, 0xbcaa7c143dcd7336U,
  0x3db5d8f1bdb91c93U, 0x3b511788bc6fac51U, 0xbd1178fe3d25b1e3U, 0xbd8caed53cc66862U,
  0x3d162ea63dc59415U, 0xbd9af443baceea87U, 0x3d21f6283d81dc3bU, 0x3db2b90b3dae31edU,
  0x3ce46b0a3dc90ee0U, 0x3d9a68dabc302d88U, 0xbdbc1c98bd8d7f5bU, 0x3dfa8f7cbdc1ba7eU,
  0xbd730dd83d92fda5U, 0x3abbed933d53b6e1U, 0x3da188083c9f02fdU, 0x3d2620e43d8198c1U,
  0x3ad64c8e3d81a75eU, 0xbdb09359bb09d38aU, 0xbcb6f6be3d690f81U, 0xbdaa8237bdccdd3dU,
  0xbcd969db3d891eb5U, 0xbd0d331b3dbeab22U, 0xbdb1cdea3dd2160fU, 0xbdafb9103c49fe73U,
  0x3bce78083d710ac2U, 0x3cdde612bd3b907aU, 0xbcce35b63dca15c6U, 0x3c5727123c536217U,
  0x3d98096a3cf0d2ffU, 0xbcdbff253cf69875U, 0x3ccec2af3d0a8a92U, 0xbd9596713ddef3c5U,
  0xbd4d816f3d94dd91U, 0x3d44a4a4bda920e3U, 0xbdc2c0ef3d58310fU, 0x3d4b723e3d4bbce4U,
  0xbd8f81d3bcb5762cU, 0x3d04ca5d3da17ef3U, 0x3cbeacca3da0894dU, 0x3a179ca53ded62cbU,
  0x3ced1c4c3bf01ddbU, 0xbdafa322bd709db5U, 0x3d8272633dce9d6fU, 0x3deb81273d929a4fU,
  0xbc815b9a3dad1c29U, 0x3d884074bda8e5bcU, 0x3d07c3403cb0d5deU, 0x3d5571873cfcd10eU,
  0xbc8e77183d39c345U, 0x3c9611073cc2a855U, 0x3dc08cc83c1750e3U, 0xbd95b0993d3f6b58U,
  0x3c076e92bccb79c0U, 0x3d1de411bd7853ecU, 0x3c0ce47b3dca6df4U, 0xbd57846f39ccfc1bU,
  0xbdc7131f3c2212e2U, 0xbd2d2b233e071368U, 0xbdaad5eabda38123U, 0x3d94d1adbd94935dU,
  0x3d5e44533dfd568dU, 0x3dabb5853dc553fbU, 0x3dcf9ef2bd9e5e26U, 0xbd2f2977bcadde38U,
  0xbcac08d6bd9fe125U, 0xbd172f2f3dc47c1dU, 0x3dcd53703de63191U, 0x3db09d833d8f36d3U,
  0x3db975e93bcef32cU, 0x3ddf2cb6bdc14f93U, 0x3d387a4c3d7e897fU, 0xbd9ad0053caf2a0eU,
  0xbd44852e3cb7b207U, 0x3dd128fabdfc92eaU, 0x3e1074aabc0f7533U, 0xbd8eb0ddbd59d270U,
  0xbda56a033ddafa3fU, 0x3dfb73943d5e6416U, 0xbcaaaefaba872710U, 0x3df146943d5cd1ebU,
  0xbb42f178bd7039d8U, 0x3dd8e0f8bc10d05dU, 0xbca4bac0bd5d016fU, 0xbd56da27bd64fa80U,
  0x3d9342213e17378cU, 0x3ce1ebfe3be458d0U, 0xbd6616e5bdcb5ad7U, 0xbd9bf89d3e0e47b4U,
  0xbd2336a7bd847b73U, 0x3db3577a3d150605U, 0xbd9303883da1dcf1U, 0xbc97dcbcbcab3bdbU,
  0x3de2e0dabcd714afU, 0x3d7f4795bd24c053U, 0x3dbd215ebd142a07U, 0x3d9d8a73bd21464eU,
  0xb995ce70bd2a6c41U, 0x39dde0e9ba9f4db2U, 0xbdddb3b8bd661ae5U, 0x3d384d1b3dc155a3U,
  0xbcb08513bdc6a88aU, 0xbd5c0b90bdc2a44cU, 0x3c1546cd3b577661U, 0xbdd3072f3cd0d4adU,
  0xbdcf2ac4bd1973adU, 0x3d923f063dae6f7cU, 0x3d46ea09bd73442dU, 0xbd80882ebd8bb2d6U,
  0x3d682db43d3160e7U, 0xbdaa6523bd4af6e2U, 0xbdbd761e3d52daafU, 0xbdcff3c13c987521U,
  0xbd8756d0bc80c16cU, 0x3db40a033bbfee1cU, 0x3d2d58f0bddb253bU, 0xbda48c493d8dcd9aU,
  0x3d0267ae3dc1829eU, 0xbc92ba86bdbf86a7U, 0xbd786b0c3d023c48U, 0xbd9d47623d06aeedU,
  0xbdbdfcd1bde1a7b7U, 0xbd654f9a3bc140bdU, 0x3ca5ed7fbce7790cU, 0xbd0e95debd2c9ccfU,
  0xbc8a1d1ebd41b67fU, 0xbd5ce182bd798d37U, 0xbd832ce8bd29b212U, 0x3d98ddb8bced0836U,
  0xbdaf8a683cb8aa1aU, 0xbd36ccfd3be1469fU, 0x3ce0d8d7bda1cf26U, 0x3d440d173d8e6350U,
  0xbdb52eeabdafbe12U, 0xbd77cc8cbdbf1b8dU, 0xbce1901a3db15a1fU, 0x3ccfac323da041b1U,
  0xbdd259f3bc55f5c2U, 0xbb89e20cbdca8c41U, 0x3d851edf3bcf0eb1U, 0x3bd9e891bdbf38b1U,
  0x3dbecc27bb12143bU, 0xbd70f2c43d67e3c8U, 0xbc82a569bdaf516fU, 0x3d8a60663d607ab3U,
  0xbce9f176bdc867c4U, 0x3d27cec13d774f5bU, 0xbd94d64dbcbf8f02U, 0xbddb88843d6ae79cU,
  0xbde4ffe23cf10250U, 0xbdae154e3d7e0582U, 0x3d62dd3b3d8b5b45U, 0xbdaf9c843c167c1dU,
  0xbc7bc70cbc7c1825U, 0xbdc60f2cbda7dfa5U, 0x3db0371abd79bf49U, 0x3d7e96dbbc9a3861U,
  0x3c5b64a23d8370d3U, 0xbda8a7f9bd880886U, 0x3c777b523d183704U, 0x3d771cd33c9e96d9U,
  0xbda080d53db21c3bU, 0xbd8dac35bdaf1679U, 0x3dbde9dabd858519U, 0xbdaf7f9abd2d13eaU,
  0x3db682f7bd4a135bU, 0xbdbc9deabd6bed5eU, 0x3da1b26abd60aac3U, 0x3bf558b6bd6ddccdU,
  0xbba2f568bce5ebbeU, 0xbd5cd86fbcfd4dd0U, 0xbd0d9ad2bdd6b7adU, 0xbdae53b9bbbd23e2U,
  0xbdc0efa5bde666c5U, 0x3dabc62d3d91755fU, 0xbcb0d2df3b8b69c3U, 0xbd36318dbc337841U,
  0x3d7b7054bd97b994U, 0xbdbc00113d9c477bU, 0x3c906ce7bd7d82c3U, 0xbceb6a433cc687f0U,
  0xbc2b19233dbdb071U, 0xbdcb306dbddf8d91U, 0xbdc14ae53dab6fc4U, 0x3da66433bc776486U,
  0xbd3aba4e3d343c24U, 0xbdca4cc23d4bc06dU, 0x3db53315bdd5d029U, 0xbddc0a8f3dbe50f9U,
  0xbb04fcf23da5fd3fU, 0x3c0ee9bebc3b3b9cU, 0x3da84d713ba1737eU, 0x3da4e251bd9cc4abU,
  0x3cdd4f183b77086fU, 0x3d5eb3dfbc7651b5U, 0x3d3e5ab8bcbfc985U, 0xbd9c968ebdb19c87U,
  0x3cf4ff433c530c0aU, 0x3dc1ca7c3dcc19faU, 0xbdb8938fbd9b0af6U, 0xbdbcfbd43db74453U,
  0x3da5c3323dc387b0U, 0xbd9ae0223d0866f9U, 0xbcc6d937bd892ab8U, 0xbd5662eabd6c4eb0U,
  0xbd8aad23bd45999fU, 0x3d208cca3bce59aaU, 0xbdadd94ebdacb23aU, 0xbc1a40d83d23d57dU,
  0xbd6c58603d853ed8U, 0x3b9d00f03d2062d5U, 0x3d97df79bdd82046U, 0xbd72d4b93d8d0656U,
  0x3c8a5334bc2afa54U, 0xbc818e793cd38f04U, 0x3d8827683d5caafbU, 0x3d934e003db50b9fU,
  0x3cda9f67bd985e39U, 0xbd8689febdc07a13U, 0xbd11e2acbc7aa3f7U, 0x3d429ea53d9843a9U,
  0x3db83832bdc69026U, 0x3cb32e16bcc4b0cfU, 0x3cc005aabda9617eU, 0xbdb5ac2cbde85aeeU,
  0xbb848a7cbd5cc4d1U, 0xbde3de9fbc638cbeU, 0xbdb5feb4bc4b6f83U, 0x3d5930323dc663e2U,
  0x3d417c3abcd92120U, 0xbc1d5d063c41ea23U, 0x3ced6190bd95e623U, 0x3b36e98ebd04fc4eU,
  0xbd8b798dbcfd8177U, 0x3d2e670b3dc01d9aU, 0xbbd49ef83dc0e046U, 0xbdafa4953c16c9a1U,
  0x3dd03a34bdcae104U, 0xbb51e8ae3d96201fU, 0xbd3afb8ebceb738eU, 0x3b952a7dbd74cb8fU,
  0x3c9fe4a1bd8a8676U, 0x3ddcb1cb3cb02ee6U, 0x3b4c1fa9bd8ca9d2U, 0xbb912b253d294742U,
  0xbd2119e2bd51c0d0U, 0x3db5c632bd7614a9U, 0xbc08697abd8c2b4cU, 0x3d2183c03d13f544U,
  0x3b8ae5e63c0f28a4U, 0x3d9f678fbdac74d2U, 0xbd9742da3cbd4cf7U, 0x3d48b9303c4aa0d3U,
  0x3c91e58dbdbc9694U, 0x3caed352bcfecfc4U, 0xbda65a26bda4a1abU, 0xbcbb3f7c3dbda4f4U,
  0xbcc1b78c3cd6d235U, 0x3cadad423dcefa0dU, 0x3ccdfbddbdad0b47U, 0xb8d740bdbd824ac7U,
  0xbd60a6e0bdae74caU, 0xbe0a01743d7fbc9fU, 0xbd8f0d6cbd4600eeU, 0xbaa28a0b3d999642U,
  0xbd7e6817bc0469ecU, 0xbd0828773ca02d0cU, 0xbd5aacfe3b651855U, 0x3ccce775bd214bc5U,
  0x3d52d442bcb8126eU, 0x3d5a9748bcd4a696U, 0xbd7861f8bdc42309U, 0x3dbbdf953d3143d6U,
  0x3c08f7f73da36213U, 0xbd7647adbde43019U, 0x3cc2d6acbd3c8b44U, 0x3dacc295bd08069fU,
  0xbdcea727bd9a08a9U, 0xbc8b09573dc8f80cU, 0x3dbdc5f83d9a3c03U, 0xbba067f7bc6ea64eU,
  0x3cd5892ebdbc3ffbU, 0xbd7ab0b63d9d9f13U, 0xbd78771fbd908126U, 0xbd71eb77bd8ea960U,
  0x3c93268f3d8e3bcaU, 0x3cea0d1cbcd87122U, 0xbdd691003b215422U, 0x3d0d6d913d88b776U,
  0x3dda3304bdaf5e9fU, 0xbd866bc03b8b510dU, 0x3d6293ec3d7f8bb5U, 0x3ca1933e3d3831d4U,
  0xbaebb457bc3c4509U, 0xbda933e23d46b40bU, 0xbd204abbbb43a6f6U, 0x3d703f643d42cec3U,
  0x3c83f9cabda42c17U, 0xbdba797d3cc28bbaU, 0x3e00f1503c9fc51bU, 0x3c043c743da520bfU,
  0xbdf9211f3b08ed62U, 0x3ce934dbbdd159d0U, 0xbd4d28f03d8fd0ddU, 0xbd46aea3bdb73d69U,
  0x3d9a3855bc898183U, 0xbdc0f2f33d937129U, 0xbce70daf3dd16c1cU, 0xbd1e48193b64c815U,
  0xbd789ad7bce17929U, 0x3c687c21bdb8eb12U, 0x3d7f3ce2bd67b5a9U, 0xbc0194603d34c000U,
  0xbd32c70c3c5ce206U, 0xbd64b36e3d908a84U, 0xbc8a58a83d05fadeU, 0x3d0c8234bb5ece7eU,
  0xbd7ccf0e3c412d7bU, 0xbd784724bc7899e0U, 0x3dfc6ff4bdbeebc2U, 0x3dc75ce63db8715bU,
  0xbd79b7573d0c3150U, 0x3baf1587bd9db75aU, 0xbdd1ef69bda6eaacU, 0xbd54a58ebdd90003U,
  0x3db0630dbd847aa0U, 0xbd01e2bc3d855ea8U, 0xbd5d82f8bd6367acU, 0xbd8bf5e7bd1dae3bU,
  0x3d409996bc94e2ffU, 0x3d7e66d93d68c032U, 0xbc3e0807bdabc6aaU, 0x3d9b1f603c69fcd1U,
  0x3daac0bd3c8db76cU, 0x3dc4b35bbb240b94U, 0x3d8f3399bdc5812bU, 0xbdcc52203ce08156U,
  0x3d83bdd5bd06b1b8U, 0xbd597cbc3cf4fbe0U, 0x3cac0f163d5ff90dU, 0xbc817eb6bbc4d6bfU,
  0x3d0308283d924020U, 0xbddf2f993ddc6d09U, 0xbc9e369e3d616d35U, 0x3d52d64bbda28627U,
  0xbe085610bbddd649U, 0xbbd3b2293cab0ad5U, 0x3dade91b3d1078e2U, 0xbd1f853e3ca4fb38U,
  0xbd4eaa38bdd7a91aU, 0x3db4836fbcd37f4fU, 0x3c3c4f143d0a8196U, 0x3d18aa363d4c7cc0U,
  0x3db1a8c13bd142f3U, 0x3dc091b0bcd53f94U, 0x3c5c48c83daa402eU, 0xbd893dc03c9d2060U,
  0xbdddd4f7bd45a475U, 0xbbae6b56bd28cadaU, 0x3d5670913d615589U, 0xbd92edf2bd053335U,
  0x3d621e713de128ccU, 0x3da0eb26bb168f80U, 0xbdbaf642bba9316fU, 0xbd0448db3a466206U,
  0x3dac30a53cec6d20U, 0xbca8ea483d5db2b1U, 0xbdda21613c0b110aU, 0xbd62d98b3d8beed1U,
  0x3d056df43c7e93abU, 0x3ce0c8b13d39f781U, 0x3d01b835b9f807a9U, 0xbd419d063dc0411dU,
  0x3cd084383dc2c9feU, 0x3dac68f53d4da661U, 0xbc37e47cbda984c8U, 0x3cb558cc3d2a9fdaU,
  0x3d81027ebd836796U, 0xbd00f93a3d064d06U, 0x3d5141263c4d738eU, 0xbcc98f35bd173016U,
  0xbd91c2e5bdbb291bU, 0xbd69980a3c7a5b72U, 0x3d896b55bd6a3873U, 0xbd9497b23d9f75baU,
  0xbd9ea966bcb3ddbaU, 0x3d315612bbb3144bU, 0x3d509a3d3da4d1f9U, 0x3d3467ec3d2dc5ebU,
  0xbd20d0be3d40dff3U, 0xbd44810abd336c66U, 0xbd7791fabd52f2f4U, 0xbd3c7bbf3d6d28f1U,
  0x3d2d426d3d6e0b64U, 0x3d8f5c903d9e4ac2U, 0xbdb65ac6bd3e0bf7U, 0x3d6f2e1bbcff1aadU,
  0xbdd0e0033d827273U, 0x3d5f284a3d44b51aU, 0x3db9e49f3d768e9aU, 0xbde37bde3cbfe1aeU,
  0x3d78e9693d93a9a4U, 0x3d683224bd0ff722U, 0xbcabfdc9bdbfb2ffU, 0xbd2019e0bddc3570U,
  0xbda6d20fbcc56f95U, 0x3c997f11bce4478eU, 0xbd8716cd3d99d63dU, 0xbc1f777bbdbf0155U,
  0xbc6e946fbdbd1254U, 0xbd8f98b93dae2655U, 0x3da480fdbcde9e0cU, 0xbdabc4253b98ccb7U,
  0xbb761dc4bc7dd3e4U, 0x3d4ba06abdb01711U, 0xbd36a746bdb17da9U, 0xbd5e777abda16465U,
  0x3b93ac99bdbfee64U, 0xbda44f8b3d7bd617U, 0x3cdee450bab23d3dU, 0x3cfd1f50bc0fd083U,
  0x3d34d0a3bdca522eU, 0x3d7bdd843d80c85fU, 0xbd80532fbd58100bU, 0xbd692879bd31aea4U,
  0x3d9c7ca23c7c2768U, 0xbcd084113cb06803U, 0xbd6541d3bda29e99U, 0x3cc7d691bdd8f158U,
  0x3c240204bdde1ff9U, 0x3d6b43c93d899ea5U, 0x3c3059d33d621b2cU, 0xbd657476bb427ee2U,
  0xbd66aef83da1e71fU, 0xbcabd9693d56b79aU, 0xba58b3abbb88164dU, 0xbc417454bd890623U,
  0xbdb1eb7ebd1ed780U, 0xbdd7d148bd11950aU, 0xbdc9b794bd054f5aU, 0xbdd6a7de3d20411cU,
  0x3d4452e8bdcdfea2U, 0xbd029986bd91ecb7U, 0xbd4ab54dbcd3cb20U, 0xbdc4688bbde365caU,
  0xbdccff543d9c426aU, 0x3dbf24583d8a63dcU, 0xbd8b1a1cbbd68c75U, 0x3d8e8e2dbd160162U,
  0xbdcdd3993c4adfe7U, 0xbd2184253d825e86U, 0x3d9e4a1f3daf707aU, 0x3dacc2a9bd91e207U,
  0xbc80a2c23d8eaf4eU, 0x3cacb01c3da652dcU, 0xbd99434e3d16d599U, 0x3db0dbc8bcf2914fU,
  0xbaa86d9abd5a58c5U, 0x3d8f7a243d62804cU, 0x3c5202fcbd1e99a7U, 0xbc5175aa3d81d40dU,
  0x3bf1a3a23dcd5bd9U, 0x3d97a2c53d597dd3U, 0xbd28914a3d3ca28eU, 0x3ce2bec2bcd21470U,
  0x3d03ab8dbd29407cU, 0x3c7d248e3dc61fc9U, 0x3dd24ccb3d709e12U, 0x3d9cad7d3dc53b1bU,
  0xbd081cae3d4d89ffU, 0x3ca59c3e3dab06d6U, 0xbd75b9903dd070e5U, 0xbd7a0af73d7ffe45U,
  0x3c171c97bca181bcU, 0xbc0f39563dcab2bdU, 0xbd6fabb43daaa02fU, 0x3c5c62a7bdb549b9U,
  0x3d81c3e33bf03989U, 0x39889f5c3e185a94U, 0xbc4675003d47a35eU, 0x3ddfd3f23d1ceb1fU,
  0x3d91e3dd3adc33d6U, 0x3de6d22d3dd70b5fU, 0x3da1db61bdc40e0cU, 0xbd6af09c3db5f830U,
  0x3d1a6589bcbfbfc9U, 0x3cb6ecdabd6217eeU, 0xbc589716bdb35532U, 0xbca81eda3e00dca5U,
  0x3dedaf9d3b522a59U, 0x3de188e9bc1ed2f2U, 0x3de9d15cbdbd4a1eU, 0x3cc407823da32f75U,
  0xbdb2ed40bb7378f8U, 0x3bd9c1dcbd4996e7U, 0xbc6d04bdbcebe142U, 0xbd50a879bda9a6beU,
  0xbd72e4d63d5aa7b6U, 0x3d926f94bd5f599cU, 0x3c30e5a53cc9ca22U, 0xbd16a70d3d96ee95U,
  0xbb62bc65bc1b10deU, 0x3cf0f0d3bd75bc42U, 0x3d837147bd81e2c1U, 0x3d538495bd5bb5c0U,
  0x3d63eadf3dbfaa82U, 0x3d8ffde2bd479e63U, 0xbd92f5113d49cab0U, 0x3c95e323bd0d6847U,
  0xbcfd800c3bc0351fU, 0x3d5ae4f6bd93f944U, 0x3dbaf18abbc2a649U, 0x3cb915ac3dd8d11bU,
  0xbd9e6cbdbdcc176eU, 0x3dded0b83d923197U, 0x3d862f78bd3857adU, 0x3db087eb3d896194U,
  0xbd6c9c5dbd5bd49eU, 0x3d92113b3aec61c1U, 0xbd72f1e13d02886aU, 0x3df13ce63d86a87fU,
  0x3b9d57c63de7c345U, 0xbd86f243bdfeed5eU, 0x3d1ec3aa3d0ecadaU, 0xbd034a9c3daf63edU,
  0x3de12ef43ca180ffU, 0xbd48dd5ebd84ad24U, 0xbd79c6bc3db787a0U, 0x3da81d0b3dae0a5aU,
  0x3d916e18bdc7600aU, 0xbdc0f9cdbbd43878U, 0x3dc56c48bdc1b324U, 0xbcb8c87c3d199b65U,
  0xbd73399dbbb8ec9aU, 0xbe0b83c5bdacb8c4U, 0x3d8f3cf6bd40682eU, 0x3ce4d3e7bd6d7dd5U,
  0x3c8c4bc73d12caf0U, 0xbd97d87b3d047a62U, 0xbd23ec4a3dd2f4bdU, 0x3c46db44bdde7b6eU,
  0xbc28bf63bcc3579eU, 0x3dd0e62fbb902f2bU, 0x3d9d0f0bbdd319acU, 0xbd9339c63d09bce5U,
  0xbd958469bc120cfaU, 0xbd9481163df20e40U, 0x3b1e958dbb5eb3c4U, 0xbce5e10a3da26d5dU,
  0xbd89abc8bb8f55d6U, 0x3c23f9f4bc804150U, 0x3d3a9c89bcca2b5bU, 0x3da215bd3dd6ed76U,
  0x3db3b0423d4f6d08U, 0x3d0dea8abdc4aa57U, 0x3cf82797bc9fde30U, 0xbd3ce974bdb02d9eU,
  0xbcca21093c63fb41U, 0x3d1845863d90f7deU, 0x3d4a30803d0a1e33U, 0xbdd73d44bbe44319U,
  0xbd626f28bd51f8bfU, 0x3bb6973d3db60370U, 0xbd80a7b13c37654eU, 0x3c8c9222bbb5c5aaU,
  0xbd682622bd03b2b8U, 0x3c432ae73cd7f300U, 0xbd5480ed3cc7177fU, 0xbd628583bdeb1320U,
  0x3d1e0ca93cff2a75U, 0xbdb3bf15bd54ade9U, 0xbddea7a9bdb56bcfU, 0xbbb2eb72bd9e065fU,
  0x3c07e78f3d7b7ba5U, 0xbc8b46b33c80540eU, 0x3d36e2403d33a9f9U, 0xbdb1b5c63c9f9da7U,
  0xbd68b44cbd971192U, 0x3d7de0d03ca7b257U, 0xbd0f91d6bdb06b23U, 0x3da749543db53417U,
  0x3d8c74b73d9a808aU, 0x3c9d6175bcc320fcU, 0x3cee962bbdde638cU, 0x3da369afbdadc4b3U,
  0xbd99c78a3cd9e4a0U, 0xbdcf2ff63c1805e2U, 0xbd6c0191bd4fb46bU, 0x3d7343ec3df5df8aU,
  0x3da853fc3cb7fa11U, 0xbd2c88e63cbd8da7U, 0x3d14a57fbd7bba8aU, 0xbd071a1bbd3b64e2U,
  0xbd8f1be4bd386b1fU, 0xbda7a8afbc89f692U, 0x3d96ea173cec3da1U, 0x3d1dae483d1122b4U,
  0xbde245833d85402cU, 0x3d8fe3253cbb7eb1U, 0x3dce84153da6daf5U, 0xbd542f5abda3f760U,
  0x3bad5b97bd677afeU, 0xbda7c0b43dcffe07U, 0x3d4a5f3c3d8f9acaU, 0x3dcd515abd85c1fbU,
  0xbd901e553d9db3e1U, 0xbd5c00a23d185950U, 0x3dd0f49b3dd23083U, 0xbae1542abd59ac67U,
  0x3d3f46a93dbd2313U, 0x3d68726b3d5d1b6aU, 0xbd380715bbeb3359U, 0xbdcc6c68bc0e548cU,
  0xbdac4657bc852173U, 0xbc93b9c2bd3eac54U, 0x3cde9ac03d7bd317U, 0x3bf244bf3da2d383U,
  0xbd7cecf1bc9805e0U, 0x3dad4ae63d9765b2U, 0x3cae15dabdd4f68bU, 0x3ca4aa31bd71fb21U,
  0xbdad39223ca93ae9U, 0x3d8ebdb1bdea749dU, 0x3db6e821bdd45b31U, 0x3ccaf2473d9cff17U,
  0x3dd039c8bd3fab78U, 0xbde9ba153dbbfaa5U, 0x3d82b5bdbdd78c33U, 0x3d0ef851bd04fa69U,
  0x3d83aa98bcb7c31dU, 0x3bf2f8833d0e7f63U, 0xbda26a8fbd509419U, 0xbd50c5823d4ac8d7U,
  0x3da87c13bcd9f70bU, 0x3d26b0ecbdca870bU, 0x3b7ada04bdace497U, 0x3d840420bd5073caU,
  0xbae2d64b3ce1384aU, 0xbdb1d3603dc012c9U, 0xbbbd6ee43dcc8743U, 0xbd8c351bbd3c3b4eU,
  0xbdbae7f7bda3d931U, 0xbd86bd3f3d31bc0dU, 0xbd95766f3ad4d0afU, 0xbbb016db3dd65a9bU,
  0xbd598dc0bdc66f1eU, 0xbd35afef3d839ddeU, 0xbd80f6953db007a7U, 0xbdc66ee93da1522eU,
  0xbde53afd3d9c49cbU, 0xbd85ea4238c7872cU, 0xbd608a8a3c19c22cU, 0x3c88c49bba560d91U,
  0x3da5353e3d173b85U, 0xbd354992bd05b02cU, 0x3cc24e373d883612U, 0x3da3283cbdb579d1U,
  0xbc290baabc6532b1U, 0x3d94c6953b81a7a0U, 0xbd9bdbbabd3a2f3dU, 0xbc187256bd9bd5e1U,
  0x3d84ba66bcd0ceb5U, 0xbd4471fe3d6f02f6U, 0xbc61d087bdba96ccU, 0x3dabb3b63d5b2baeU,
  0xbc48f81cbd57a03cU, 0xbdb7767ebdc45871U, 0x3d7e74debd58b00cU, 0x3d27bf6b3cbc24c8U,
  0xbd7608d83db5daefU, 0xbdea5413bc329b4aU, 0xbd9ac5553cdb1b61U, 0xbdcf9897bb04e0a0U,
  0x3db474c2bdb37ab3U, 0xbd060689bd61815dU, 0xbdac9691bdec7ed4U, 0x3ba9bcf03d5c076cU,
  0xbd2fd717bd8691c8U, 0xbcd4c61d3da49902U, 0x3c6616f83dae3b38U, 0x3daecc5fbd429339U,
  0x3c9f593ebd13e34eU, 0xbd78aa18bccf4a41U, 0xbd9c576f3d990ca5U, 0x3db8004bbd3e1c4fU,
  0x3d16dfdfbdf12771U, 0xbc5ab0b3bd8d5b5dU, 0xbdc3d7aebbd618efU, 0x3b0eaa87bd1ac7f9U,
  0xbca99d123db47c0fU, 0xbdb15086bcffd37bU, 0xbba3dd49bdc47926U, 0x3b5d0c3e3d87885dU,
  0xbd59b609bda53724U, 0xbdd41b8abd106d17U, 0x3d4599843d3ae8dbU, 0x3db8b26bbde94775U,
  0xbd88ae0abd6c9eedU, 0xbd987b3abce7b2b6U, 0xbe14feb13d1d7116U, 0x3db742783db782d2U,
  0x3d2f324b3da44ef1U, 0xbd76f5e93d811a7dU, 0xbd4707793d529390U, 0x3caf317c3d81cd01U,
  0x3dc30137bd3b7420U, 0x3cfe65cc3d3444dcU, 0x3d06ce823bbed7dcU, 0x3d815667bda80158U,
  0x3b38e598bdc10d03U, 0xbcc2e1b73d2118b6U, 0xbdbc5d1b3b84c530U, 0x3d5ec17f3c93b22fU,
  0x3d9fddb8bd5ba2f5U, 0x3dbbe3733da4e1e7U, 0x3d7cba9f3d615c58U, 0x3c3b3de83dbca52fU,
  0x3da5e8163dae8af9U, 0xbb5ea924bc84ffb7U, 0xbd8192ccbc43735fU, 0x3cd904a1bd10a72cU,
  0x3daa1f1b3dbcd362U, 0x3d9990373d972b6cU, 0xbd367542bc51e7c5U, 0x3d4881c73c1de255U,
  0xbd821e36bce61a40U, 0xbd865519bde45c35U, 0xbdbfaca43d18a450U, 0x3d71a696bd4d651cU,
  0xbd0f4c6dbc0fee53U, 0x3cec4bd4bc88d8d8U, 0xbd9e68243da0d07eU, 0xbcc3108a3d2b4338U,
  0x3d9c63f63d920682U, 0x3d8eabf5bdd26ea0U, 0xbd911ddfbd8c6f75U, 0xbdbc84213dbb1253U,
  0x3d4fb135bd44c00cU, 0xbd13f66cbd9050fdU, 0xbda64acc3db4a560U, 0x3d4a55173da52ae2U,
  0xbdc40b6e3d3fbfb4U, 0xbdaee917bd60e18cU, 0xbdcbb64abddda731U, 0x3d956e2a3dc4bb59U,
  0x3bd1b246bd9a02dcU, 0x3d89adcfba9e08acU, 0xbd763dee3dcd17dfU, 0x3d757a58bdd8b723U,
  0x3d87495c3b5a2a33U, 0x3d132d8d3d44ca3dU, 0xbdc38f143cedd9afU, 0xbc8b213b3dbdb87fU,
  0xb9945e4e3cc7ba70U, 0xbcd4e734bd3959e3U, 0xbd92022f389b917aU, 0xbd72d63bbd5e59e9U,
  0xbd42babbbce9172bU, 0xbd88f63e3cbe9865U, 0xbd3956243c97f807U, 0x3cb8c4693da321f4U,
  0xbde5b1d5bd6a076cU, 0x3bcfa2c7bd910dd3U, 0xbdac3a2e3d1b3094U, 0xbd684f293d836095U,
  0xbd481e31bd2fef06U, 0x3cd19e153d6df962U, 0x3d470b943c10b4eaU, 0x3d94573abc8fe877U,
  0xbda9e69f3c28394fU, 0xbd5a869f3d249ca7U, 0x3dbcf8c9bd03e6ceU, 0x3d9446aebc42c730U,
  0xbd228f933d3e63a3U, 0x3c9f52603d8d5c78U, 0xbc078cbe3b51fafeU, 0x3da023743d7dabc8U,
  0xbde2b78bbd73134bU, 0xbdc1b76bbc774435U, 0xbc7ead83bdbbfdc4U, 0xbd03a8473d98bd68U,
  0x3d9bfae23d26b2aeU, 0xbdc013633c380518U, 0x3cac9545bd243b8fU, 0xbd014f2b3dc16f54U,
  0x3dc282ac3c701448U, 0xbd150cb63d3d5aa0U, 0xbd3d5163bc9f3358U, 0x3d80421cbd113f34U,
  0xbd1077a8bcb0bbb5U, 0x3d36813fbdd51771U, 0xbc2114aebd6f8802U, 0xbd7c43bc3d29b846U,
  0x3ade30f1bdde6756U, 0x3d88a146bca53557U, 0xbc5f27cebda5faaeU, 0xbd4d8f573dbbcd39U,
  0x3db4a0cf3d57c5e8U, 0x3da9101c3cb2b12dU, 0x3dcbc3f63db236ebU, 0xbc07db273db8aec2U,
  0x3db42bccbb0f7926U, 0xbdbff7d03dc06a3eU, 0xbd91816e3dc51cb6U, 0xbdd62071bc88225cU,
  0x3da6c673bd780b33U, 0xbdb83711bd09d277U, 0xbce670d8bc23724bU, 0xbdbd9742bdc0ab8aU,
  0x3d1c9df63c2087e8U, 0xbd9690d53ca575dcU, 0xbce0fc6abcf9c9d6U, 0x3c8c69fc3cf6ad53U,
  0x3d9fc1fd3dc84cf6U, 0xbd897ac33dc65ac3U, 0x3d02d99dbcc4093eU, 0x3dad6818bc87ccccU,
  0xbda3f1ed3d6cc39aU, 0x3de0e5d93b4ebfadU, 0x3b2e1c143b7f38e8U, 0x3db14e93bd1f629eU,
  0x3d98c368bd83106cU, 0xbd9b2d5ebbb64d4aU, 0x3d82ba9fbbab8d38U, 0xbd6205bebdada641U,
  0x3dba9666bd641c64U, 0xbd1f9159bae87a52U, 0xbcbdda2fbcd3154cU, 0xbdaae0abbc8d7facU,
  0x3db91766ba7fef81U, 0xbb917a9bbb62483aU, 0x3c0f8415bd45d76aU, 0xbd9217c7bd34a463U,
  0xbda5d263baa2603eU, 0x3d4f83dabdb7165fU, 0xbdcf2cdfbd84ed4cU, 0xbc515fa1bda7738bU,
  0x3d5ec636bdb7a8b8U, 0x3ccf486cbc9b4794U, 0x3d5e5336bd16e837U, 0x3cedf4b43d679b04U,
  0xbda623fe3d01768dU, 0xbb9df2b93d805f56U, 0xbd8374203dbfc5d0U, 0x3d49e49ebcff708fU,
  0xbdae8a033ddd2214U, 0x3b177efcbdb21f54U, 0xbd4f97123d5e83d6U, 0x3d972a123cfb51efU,
  0x3d0250dabc94a67eU, 0xbd20f588bd8bda31U, 0x3d8a1ab33bb92655U, 0xbce20bbcbd671e18U,
  0xbc5e7d8d3ce52553U, 0x3c884c01bd56f580U, 0x3db487cbbdb64013U, 0xbd8a15763dcb3a17U,
  0xbd8b2adbbd062608U, 0x3c66027b3d861f57U, 0xbdcac200bcdba2fcU, 0xbd84230bbd95858bU,
  0xbd32c851bd9d7bc1U, 0x3c72691cbd6ef5b9U, 0x3d4366523d83cbd2U, 0x3d15b05a3d7beb6bU,
  0xbde239e53d84026eU, 0xbdc21b553cb15172U, 0x3cd913e1bd7cc11dU, 0xbd3d2e363cb3b862U,
  0xbd67db54bcedd887U, 0x3d6a30493d437b8eU, 0xbd62fc993cd2f455U, 0xbd5d04c3bd0dec1eU,
  0xbc21dc493cc9da59U, 0x3dadd370bd7cc206U, 0xbc068bb6bda411c7U, 0xbdb15604bd8a22caU,
  0xbdd667c73dcac648U, 0x3dda63d23dc2f163U, 0xbd9baceb3c630838U, 0xbad9d3833d5e0e6dU,
  0x3c9a7d55bdc43ba4U, 0xbd4f08073dba6301U, 0x3c7007b1bcf28560U, 0x3d811137bd844d3cU,
  0xbdd3fd4cbdd28f00U, 0xbd02b89abb952a24U, 0xbd7505983cd140b5U, 0xbc5fcc7dbcbe5065U,
  0x3d15c4093c9df519U, 0x3cb5ae64bd012d1eU, 0x3db7b8b1bda99f71U, 0xbd99a69dbbe56fceU,
  0xbd2fb9b43dbd2afcU, 0xbdba58bb3d1961e8U, 0xbd02d6123dba379eU, 0xbd3017c53d5849edU,
  0xbda284d43dabef59U, 0x3bdcef913d302776U, 0xbd677915bdbabd01U, 0xbdcb2a49bd92f6e6U,
  0x3da1a140bd9cc512U, 0x3d94fe1c3d32972dU, 0xbdbcdd1f3d4eff33U, 0x3c1c06b13ce0dab2U,
  0xbd8892dcbde79ca8U, 0xbb714cec3db97befU, 0xbda15f953d2ecc61U, 0xbdbd53d8bb144aa6U,
  0xbc0e87a93c02607bU, 0x3d44481ebd805ffeU, 0x3cdc576b3b9c28f1U, 0xbdab6225bd5e03c1U,
  0x3db423b53d992aceU, 0x3daa8754bda6f2d4U, 0x3d868c763d29d35aU, 0xbd9d785d3d4dd629U,
  0x3ce72313bceb02ffU, 0xbd7adaca3d3a14e2U, 0xbdd2e7c4bd53980aU, 0x3d957b75bda669b9U,
  0xbdd4c15ebd8958eeU, 0x3cdb06d7baf3a1c2U, 0xbdbf7518bd63bdcaU, 0x3ce715ba3d9bf9e3U,
  0x3d242a9ebcb57118U, 0x3d0a93f13d634db6U, 0xbccd9a3bbd606d00U, 0xbb45d6d9bd9e6f54U,
  0x3c2b7cebbd28db92U, 0x3db7014f3c05b772U, 0x3daa28d7bd9944f1U, 0xbd21cf72bd03fd2bU,
  0x3c4d775d3c6a742eU, 0x3d985f0abd4846acU, 0x3dbf81ba3bb8755bU, 0xbd0613c43a89420fU,
  0xbdcfdf2d3d2b89d7U, 0x3db5c4c23d817d6dU, 0xbdaca0ccbba1bdebU, 0xbdb10a1f3da216f6U,
  0x3da558c63d0665ecU, 0xbd5893193c3fac47U, 0xbdb2e1423d8e5b03U, 0xbcafc076bda5a35dU,
  0xbd1c149bbddf28caU, 0x3dc1a3cebdb3acbeU, 0xbd4f3e633c5ff8a2U, 0x3dc1e1c03d282a57U,
  0xbcb89691bdbb45d6U, 0x3dbd5b3c3d14f282U, 0x3a8c41d3bde04e75U, 0x3d991f2cbcf1a084U,
  0xbdb595b9bc86a8f5U, 0xbde070cdbc4a45adU, 0xbd0e5bc43da39ab7U, 0x3c4cb9b7bd91b067U,
  0xbc78bc473c9c7133U, 0x3ca9516cbccc50f7U, 0x3cb657c73d805628U, 0xbd7c29913c737f3aU,
  0x3db622c03cc56ec5U, 0xbd82706c3d767ec9U, 0xbdd0ae5d3d963e13U, 0xbca70293bda9eaa8U,
  0x3d7a3b9e3d43e43aU, 0xbdcd867dbc9a560bU, 0x3b11f56a3de02724U, 0x3ca8e6f53e044802U,
  0x3d9702c9bdbb4292U, 0x3db887d1bcec0efbU, 0x3d1801ebbde14cdeU, 0x3cf62899bcd5e33aU,
  0x3d20c66fbd85d3a6U, 0x3d92e9413ce9ba84U, 0xbda6fa153dacd006U, 0x3d822bda3d63f0caU,
  0xbc498d883d0d0417U, 0x3cbfc6413d4fa736U, 0xbd5feb53bdbfc646U, 0xbd4d9645bb562d14U,
  0xbd35a1babd173dd2U, 0xbba6a811bd861ae7U, 0xbd2b875cbdd3d875U, 0xbcab616bbcb27f92U,
  0xbd8a89b83c0e4cb3U, 0x3d20d0aebd8c2b21U, 0xbd201ec7bda63946U, 0x3dae9af23e025e80U,
  0x3bd1a6143c0f5a08U, 0x3d70a59fbd0f4c6cU, 0x3cafc281bdcd2de0U, 0x3d83115c3da04d99U,
  0xbda52cd03d8d03bbU, 0x3d1155283cd1d3daU, 0xbdb76bc9bd05c316U, 0xbcbd2c3ebd9820e1U,
  0xbcea07d0bd38fb25U, 0x3dea233c3dc37cd9U, 0xbc95179a3d78cf77U, 0xbcec7ea43de70f8bU,
  0xbd771a68bd3a2483U, 0xbd6e7543bdb9bab8U, 0x3d9c65453da3c50bU, 0xbcdccdbcbdb1dec9U,
  0x3d64ee7bbd8c0332U, 0x3daa1b12ba98b617U, 0x3d9f7228bbc3045eU, 0x3d6690373ca19af4U,
  0xbdaef3353d0bd9b6U, 0x3d9fb60ebd0ddcc1U, 0xbca96668bca1a417U, 0xbc427af33d1c1aecU,
  0x3db161753dafba7aU, 0x3d2b20423d0f3243U, 0x3deea98bbc863d01U, 0x3d2ebaffbd35c3c3U,
  0xbd55db57bd6cd501U, 0x3dc0b6eb3d8aefa6U, 0x3dd8b6523dc5b8beU, 0xbb94782d3d46e986U,
  0xbc8632b73d1e5bcaU, 0xbbaf77cebd029b64U, 0x3dba8019bd3d924fU, 0x3d316f0dbdad6206U,
  0xbc4c658f3d9bbd9dU, 0x3dd5f445bd750197U, 0xbb572098bd2999b8U, 0x3cc4362e3c2179fcU,
  0xbdb92ff8bdcce306U, 0x3b41ee8bbd4385c0U, 0xbdc2d9453d40f769U, 0x3d26273fbd6be1a6U,
  0x3d8f36ccbd9cf908U, 0x3da1f175bd4d2f99U, 0x3d9e2f53bd77b4b9U, 0xbd843bf6bd1aec5dU,
  0x3d58cc25bd01a7a0U, 0x3ce1fbb83ccd4563U, 0xbccbba633d8a2712U, 0xbd9a3392bdab086bU,
  0x3d42ac51bdca029aU, 0x3d3ae77d3cc424eeU, 0xbd9319163d6c4a16U, 0x3dcbcff63db7231aU,
  0xbe00dbee3cea90f3U, 0x3b5c09803da61918U, 0x3d8e1665bd743fc6U, 0x3d8cfe8fbc6e26c0U,
  0x3e0f5effbdd86695U, 0x3d39ae41bd703ea2U, 0xbd962029bdba3438U, 0xbdbbfcf23d8b15b7U,
  0xbdbb13bcbd6e5d6bU, 0xbde73d46bdbd45c2U, 0x3d9ab70b3db3d6d3U, 0xbc6ae8f13cdb3307U,
  0x3db8d8513d4f20a0U, 0xbdbb28a43dcd6ffeU, 0xbd1bcc093d86e5c9U, 0x3d5a3b9f3db6a776U,
  0xbc8ba7213db2cc1cU, 0x3dabddd0baa8123dU, 0x3d0febc1bd0d08bbU, 0xbc4e1881bd925875U,
  0xbd1095173d2785e2U, 0x3c3f77c8bd1cffc4U, 0x3ca826803d04687eU, 0x3da7a19e3e0c5edbU,
  0x3c84f47d3bd07fd7U, 0xbdb3b7e1bdaf0532U, 0x3d622142bc6cd81eU, 0x3dbcf7a6bd215402U,
  0x3d8579143d3f025dU, 0xbd878b433c31e44bU, 0x3d1af605bc3f78e7U, 0xbd8262c03c278a7dU,
  0xbd2ea8eabd8d6119U, 0xbd9ef1d33cb91dc8U, 0x3db339f73d46e791U, 0x3db045fbbdeeed40U,
  0x3d87820dbc4882faU, 0x3e077780bce91e1bU, 0x3d8db7f23cf8df0fU, 0x3d0a63603d1b7e48U,
  0x3dab2e0b3d1942b2U, 0x3b884906bdec9950U, 0xbdc283acbd18cd3eU, 0x3dc57ba9bc6ae567U,
  0xbce089623d92634dU, 0xbba6380b3dbeb2eaU, 0xbdc5adbd3d6bf4faU, 0xbd5cb8c8bbbe2bbcU,
  0xbdb062d0bdc390e8U, 0x3d5f211b3c966de7U, 0x3d81ae9e3c1b41cfU, 0x3d5e2b4dbd3d1eedU,
  0x3da54d483d9f31bcU, 0x3d148563bb1cfe86U, 0xbcd03f9b3d2186caU, 0x3bca93cbbcc80362U,
  0x3d59eab63d53909eU, 0x3d46d3103dbdd09fU, 0xbd8b391dbddbd878U, 0xbc966d30bd9acb5fU,
  0xbdbb462a3d081e56U, 0xbda5dd0d3dadd936U, 0x3d96b8c5bb50ba4fU, 0x3b9fd50c3dae04bdU,
  0x3d57a6133db3f137U, 0xbdd50a18bd5fd2dbU, 0xbd2eef41bdabda46U, 0x3db6b3be3cdfe8b3U,
  0xbd9b9f9fbb65b12fU, 0x3d343826bd8c0cb4U, 0x3d982b8abdd9bba2U, 0xbd4f36f9bc3e8740U,
  0xbd72b7d9bcc2fe5dU, 0x3cc269bfbd35e835U, 0x3d5ea0b63d978a01U, 0xbdcee27f3ca0a4c0U,
  0xbdb31738bbaae950U, 0xbdb85565bd262b95U, 0x3db1486b3d8a8f68U, 0xbdc21598bd761652U,
  0x3da8cdffbd67437cU, 0xbd385e63baeb319dU, 0xbdcaf5e13dba2271U, 0x3c6923243ca503f0U,
  0xbdf3be663c93f148U, 0xbbf7aac1bb19b002U, 0xbd31f1823d92ad6eU, 0x3d332debbd285737U,
  0x3dc91bc1bdd00084U, 0xbd87da0ebca8c9e0U, 0x3ce6a973bcb14b69U, 0xbdd5d4493db14637U,
  0xbd37685b3d20ff3eU, 0xbd84d8ddbb3ef142U, 0x3d9ffea73b39a374U, 0x3db01809bd7f1931U,
  0x3da4f346bd9aea14U, 0x3db287aa3cf34734U, 0x3dd3078abdb3ee0fU, 0xbdceef55bcae6f3fU,
  0x3b38ff51bc8a6ca0U, 0x3d01a3953db7864eU, 0x3da62b823da6a5d4U, 0x3d99a551bd844fdeU,
  0x3d612163bde4e498U, 0x3d9cefa1bdaa4c48U, 0x3d0f60f7bd9f8557U, 0x3d31d085bdc92474U,
  0x3d5181653c13b2eeU, 0x3d88b779bda4d79cU, 0xbde1cb4fbd04b6f4U, 0xbd990855bd89a1b4U,
  0xbd96a7423c672435U, 0x3cc60a28bd34cb0dU, 0x3d6dbce23bc13a26U, 0xbd4c3fb83d78e902U,
  0xbd87fb69bc4ce830U, 0x3d18dcea3d16cefdU, 0xbd4b44133d8d17f7U, 0xbddb39243c59fca5U,
  0xbd5a26d23c877807U, 0xbda45fb43db9556cU, 0x3d95e022bc9813ccU, 0x3d718f8dbddc946aU,
  0x3d317361bd2d8061U, 0xbda73c25bc4e167aU, 0xbc5671d5bd30caddU, 0xbd9051383c667d03U,
  0xbd64cee23c57ca20U, 0xbda419d7bdd6f6ffU, 0x3d08adf0bcd56dd0U, 0xbd95b7c3bdddf713U,
  0x3c2ef17b3c8b817fU, 0xbd6c879c3d312606U, 0xbc2453debdbe14aaU, 0xbca766d5bb156bbbU,
  0xbd860e68bdd393efU, 0x39fc6e74bd8be2c7U, 0x3b3fd3a139ba4cefU, 0xbda817403ce2687aU,
  0xbd73e6ed3da838a8U, 0x3ba7297d3cddfafcU, 0x3dc6b6d83c8716f1U, 0x3dcbb8543c2905eaU,
  0xbdad0aa33ddafab4U, 0xbd61e4be3beee270U, 0x3de6223bbd1d1f70U, 0x3acab5cabccbba4eU,
  0xbd692607bb91f8caU, 0x3d99b070bcaf5041U, 0xbcf7b6233dd248c4U, 0x3c783c94bbe7f2c7U,
  0x3dd4f5183d8f9af3U, 0xbdaf9a48bdc69f4dU, 0x3d89b4cf3c0c66b5U, 0x3c6035f53af1b696U,
  0x3d90a80dbd479f4aU, 0x3dc712d43d0f27d2U, 0xbd293b29bd4730e7U, 0x3dba6e213d68b640U,
  0x3db2bd253e00d036U, 0xbba05eb3bcc3ad21U, 0xbdb7585abd6be9baU, 0xbd09666b3b8c9874U,
  0xbda191ac3ae5df09U, 0xbd9e904e3ae711afU, 0x3d0ae8113cfcfa7eU, 0x3d980c18bdbb7c5fU,
  0xbd95f76b3dbbd280U, 0x3db094633d309d40U, 0xbc8519db3cc7d655U, 0x3c2ea302bddd5c0cU,
  0xbcb0f683bd1c9f78U, 0xbca9a4573caddde3U, 0xbda95317bddb57f9U, 0xbcac66c1bc0b2cfbU,
  0xbca5e611bdb2beb6U, 0x3d0be2393dcbf2fbU, 0x3c6555503dbee641U, 0xbcf753a8bdac6b57U,
  0x3c08c2d23d8feb19U, 0x3d3f58d73c947510U, 0xbcfb8961bc6fffd8U, 0xbdce869fbd1cbc3dU,
  0xbca83e26bdac5389U, 0xbd501f843d1f990cU, 0x3cebdd14bd76ed03U, 0xbd9989e53d0c2531U,
  0xbd49a47e3c5c311aU, 0x3cae37263db68621U, 0xbd5b3ad23d235523U, 0xbcd6b5c63c25d7d8U,
  0x3ca0e0abbc8db58bU, 0x3dc4576e3d65568aU, 0xbdc075dbbcc4b9dfU, 0xbd855812bd542a14U,
  0xbd1ed829bc7e39a1U, 0x3da02b423e02fa99U, 0x3c5492e9bd2d3444U, 0xbdac80df3a135df8U,
  0x3da49dd9ba17b209U, 0x3da839f03d185c43U, 0xbdcff63ebd227e13U, 0xbd9cc4723d82b403U,
  0x3d66aabcbdb92f82U, 0xbdbc9e76bd7906b3U, 0x3b9b49463c7538a7U, 0xbd6b29443b25bbdaU,
  0x3d92a5c53db16258U, 0x3daaf1cbbd7911e1U, 0xbdabdc2e3dbe5283U, 0x3d9642343cdaabe3U,
  0xbd50ae26bdd456bcU, 0xbced137e3d9219abU, 0xbd8548c5bbc8e792U, 0xbd179ff13c597aefU,
  0xbcb5c3373b65ef3eU, 0x3d977664bd6dad68U, 0xbda3a61ebdb1dde1U, 0xbd54a9d93da33a64U,
  0xbce79e7f3ba579f7U, 0x3d9001283d3cabf3U, 0xbda43573bdba4a1dU, 0xbd34a9f33e16944aU,
  0x3d5d9f74bd73c597U, 0x3d0b8fb73b2ffc95U, 0x3ccd83613d015befU, 0x3b8c51f13dfb536bU,
  0xbdc73bc33db36a2bU, 0xbd02fc45bd665ab7U, 0xbc3b2cf33dc7a53cU, 0x3dee7e933dd9b259U,
  0x3d5c1ba03df284e5U, 0x3bcd48d33ba1bd83U, 0x3da0dedc3e00fca3U, 0xbd6a8eb8bc76f072U,
  0x3c6a98223d61c87cU, 0xbd9c40913cf1a8aeU, 0x3d1a03e03cb6b546U, 0x3c64784bbbbb81e0U,
  0x3e0b31303cc875fdU, 0xbba856783d994259U, 0x3cd3add0bdadcf66U, 0x3def7ae1bde1e22dU,
  0xbdad6e39bdb0d6edU, 0xbd9d7f79bd59fd24U, 0xbe199c98bd86f958U, 0x3d637a173d0b2c7aU,
  0xbabf38143d6a1136U, 0x3d5f7a3a3d0d3deaU, 0xbdfa5e0fbd592b4eU, 0xbd6aa0583d3c7185U,
  0xbce3c3bd3db6d746U, 0x3da1e6ec3d5bcb06U, 0xbd35c32d3dda9ec9U, 0xbd850c773dbb49deU,
  0xbdae44173ba1bfbcU, 0x3d4456eb3dd4488eU, 0xbd8b7cb8bc6f1a19U, 0x3c66e17b3d122a5cU,
  0xbdf7e19ebd269353U, 0x3d4fd4a9baf42c9bU, 0x3d1fb4f23b5efddeU, 0x3d001bbf3e2162a4U,
  0xbce76dec3dab7699U, 0x3babc1da3dea0134U, 0x3d984b363d4ad465U, 0xbd683a203d731201U,
  0xbc9ec89bbd420929U, 0x3d5343613c7e1d77U, 0xbd8047823d46b008U, 0xbdb0ece7bb20d7ecU,
  0xbd36838bbd82e05eU, 0xbd4a7685bd5e6a23U, 0x3ba31504bd3b18ddU, 0xbdb5e2133cf982b5U,
  0xbda0917dbd85be5bU, 0xbd122114bd8c8c14U, 0xbda43b40bd366073U, 0xbbac4d6dbd62e4c6U,
  0x3c8667843dbfbe77U, 0x3d9660593d377c5aU, 0xbd660b1b3d7a50b4U, 0x3d5054c63e01237aU,
  0x3d87cf63bc347098U, 0xbc54179ebd65df50U, 0xbda95a02b9cda6f8U, 0xbbccca8e3c94c393U,
  0x3d1a01eebcebd670U, 0x3c940907bd919fbbU, 0xbd9071493dd6df48U, 0x3d8d6a8b3c847b5cU,
  0x3daae7873d71516eU, 0xbd7d15403d786eb1U, 0xbd6b35923ddf5204U, 0xbd6335e2bd948a68U,
  0xbdd141a43d5cd806U, 0x3ddb5d20bd7d484aU, 0xbca0fce0bd075f41U, 0x3d454828bd68a3a1U,
  0x3cb054a7bd9c7780U, 0xbc1037d73c04dba9U, 0xbd55e53dbdb0a535U, 0x3c88a51e3c7a6af5U,
  0x3bb63375bdd3902dU, 0xbac9ff7fbd6c009cU, 0xbd5a2b0abcf8da6fU, 0xbdd1021c3d33648bU,
  0xbd88f5683ddeddd3U, 0x3da30bc2bd85f82cU, 0xbbec53efbd98f2fbU, 0x3da4f30dbd0ff81aU,
  0x3d7c9cfabcdc1b80U, 0xbd857cc1bde8f74dU, 0x3dd79b823db46a45U, 0xbd89d1babdba9f69U,
  0x3dd5d4853d880031U, 0xbd7172f03db470d9U, 0x3d98724bbc21c165U, 0x3c039db83c99c686U,
  0xbd8283993d688b22U, 0x3cd7e671bc811167U, 0xbd9209473d877994U, 0x3d43567abd23a690U,
  0xbc654efb3cacdd9aU, 0xbd0202ac3c045c3fU, 0xbc65df2cbdb1378eU, 0xbd4057753d14ff77U,
  0x3dc878e5bda1bb6cU, 0xbd27efcfbc210eeaU, 0xbdb72c8c3b464071U, 0xbd15622fbd7b3ed2U,
  0x3c912854bd98dfd5U, 0x3d887cc3be0332b8U, 0x3d7a0c5f3da0caa3U, 0x3db40e90bd3002e5U,
  0x3d001b95bd74a176U, 0xbd878be2bcc9fd5dU, 0x3b41a64ebdc69317U, 0x3dc8cab6bcc0af45U,
  0xbd283925bdfd1ccdU, 0xbb3356dbbda1bf41U, 0xbcb2e8233dbc20f2U, 0xbce47a5fbdd756adU,
  0x3d9e95823d033091U, 0xbd9b37523dc17261U, 0x3da137cc3dc27255U, 0x3dbcbb6f3b1de9f9U,
  0x3b35f4ca3d480aeeU, 0xbdd88add3d928e25U, 0x3cb86f713d917e95U, 0xbb40cce33d1a61d7U,
  0xbd08089b3d495bf0U, 0x3db5d60abdedc9c8U, 0x3c9d75b4bd1f9e61U, 0x3d46d65dbd6e8196U,
  0xbd5b9c263d9f16a2U, 0xbdb567373ba15a0fU, 0x3dddb981bcc02548U, 0xbcaa42bcbdaee13fU,
  0x3d87565b3d199272U, 0x3db38bebbd21a596U, 0xbdb66f083c961c3cU, 0xbd6a6bf7bce2281fU,
  0xbc5bc9663d90d803U, 0x3d8437aabd13d58aU, 0xb99fc6f4bd054614U, 0x3d5fa8273d5db943U,
  0x3dd727e0bd8cbc08U, 0xbc60d6163d3200c0U, 0xbd32bb5a3d167428U, 0x3aec11f63d3dfec3U,
  0xbd07889c3da5e49aU, 0xbd876086bd29a1baU, 0x3d9e10673a65f768U, 0x3cad1c303d40f913U,
  0xbc1ca5dcbd2df0fcU, 0x3d85377ebbc60912U, 0xbd25cdd03da75c04U, 0x3db495f23c4ac454U,
  0xbda0ed5a3cd7dff9U, 0x3da50b84bd33b8b9U, 0x3ca8a8fd3c1eee5cU, 0xbcd584bd3dbca8abU,
  0x3ceab8583b897311U, 0x3daf7b793dde558cU, 0x3d06d9533d34911fU, 0xbc403531bd935f2cU,
  0x3c37777c3d2a99b0U, 0xbd92a7e1ba523e01U, 0xbdbaa8fa3db19d32U, 0x3db1fea03d775dd3U,
  0xbd71e30dbbc5c5ecU, 0x3c43d423bdb88552U, 0x3d5ec6c33d6a67e4U, 0x3dcf3a69bd4d3b8aU,
  0xbd75c2b23d851de6U, 0xbd9ed777bc3289d3U, 0x3d9ec37f3baa4a3aU, 0xbd25a051bd1d3c5aU,
  0xbd12bd28bdf48427U, 0x3cf33cd6bc6a88daU, 0x3d670a6f3d9cd5c3U, 0xbde57946bd0aec46U,
  0xbd3b6fb1bdcc6a9fU, 0x3ce9c62e3d0fc583U, 0xbdba5f463da93278U, 0xbd55af27bd8a5a85U,
  0x3da70f843d7f23afU, 0xbc9506b1bb9af2fdU, 0x3dab60cb3cb0eab8U, 0x3da07d3d3d92f874U,
  0xbb8d84a33cf13c8eU, 0xbd584018bdc1c3afU, 0xbde555be3ba9bfe6U, 0xbdb246debde7fcbdU,
  0x3d5b7bf53b72fe09U, 0x3d663a74bdad98efU, 0x3db965b13d92b3dbU, 0xbd3e80cabdd31aafU,
  0xbdabc5473c9a596aU, 0x3daa12f93da0359cU, 0xbcf2225bbd32c71fU, 0x3d84a1c73dd3d00eU,
  0xbdacaaef3dba882aU, 0x3cd1f1d3bcc8e0bbU, 0xbda53e7a3c42e96fU, 0xbd837753bbc57754U,
  0x3cda4a063c363321U, 0x3d656fd23d8192c8U, 0xbde43ccebce8950aU, 0xbcfa026bbd78b41eU,
  0xbdccded8bddbe096U, 0xbc7fa54e3cba5dfbU, 0xbca46ad3bdac9940U, 0xbda8c74f3cab84d4U,
  0xbd09e288bdaa8764U, 0x3b30f0e2bd9daaa5U, 0xbde21175bde50ab4U, 0x3ca8fbbebd791557U,
  0xbcbce046bd49d3b4U, 0xbd3fccd13d469d10U, 0xbd01aeecbd87b302U, 0xbd804095bd8a2231U,
  0xbcc8bdf03d5aeb56U, 0xbce4c5f93da22a34U, 0xbd9eeec2bdc1204fU, 0x3db813babd713c41U,
  0x3db33a393caeae81U, 0xbd7fe35e3c08bb8dU, 0x3d19ac11bcda9975U, 0xbc554d773dc2e71fU,
  0xbdb295c8bc109797U, 0x3d441b023d7b5602U, 0xbc4da1d83cc030a6U, 0xbdb2b4de3c77988cU,
  0xbd0f86913d8255a4U, 0x3bf0163ebdb530afU, 0x3db14572bd3763a7U, 0x3d91106ebd625024U,
  0x3cc2988cbdcb440eU, 0xbd40c0c73d0ea7b4U, 0x3cebaf99bb92ffbaU, 0xbda376edbcbbfd01U,
  0x3d6a9f18bd13f184U, 0xbd4599943d926d6fU, 0x3d5212d33d99097bU, 0x3d84f13c3d3368f0U,
  0xb9c9b8503b14e260U, 0xbdb8e366bbac7f5fU, 0xbd7ead1f3ca16eecU, 0x3c7b8a2d3d27febbU,
  0xbc850aeebc8ed26cU, 0xbc822e403d221d15U, 0x3d7d8ca0bcabbac1U, 0xbdd164d1bd37cbfaU,
  0xbdc828b13d16c855U, 0xbd06302e3d3c32c7U, 0x3d4f1325bcc916f7U, 0x3dd033ffbddacc7dU,
  0x3d981571bd911d55U, 0x3cbbfdd23de9163cU, 0x3d2f0943bdc4ef3cU, 0xbccd34693d4ee9fcU,
  0x3b57eaafbd30730bU, 0xbdbfa3ecbcfbf246U, 0x3d71e5373dc3dd44U, 0x3d3bbdfa3c45ed0aU,
  0xbdb06743bdab39b1U, 0x3dc65aa1bd51aaf8U, 0x3d9fc9e1bac29131U, 0xbda76edfbdc550ecU,
  0xbd5351ed3dae74b4U, 0x3db7a3a0bc231a08U, 0x3d8f696ebd432d07U, 0x3cb004243da098c8U,
  0x3d7690b5bd98eca8U, 0xbe0b318cbda9ffc6U, 0xbdc69a3bbb35f302U, 0xbc8220d0bde92ba4U,
  0x3d849c3e3c97568aU, 0xbd3f8ea3bcf0410aU, 0x3d66f2c7bd931ff2U, 0xbd275b94b97451d0U,
  0x3d99d191bd5cdeadU, 0x3d0695373d8bc4d9U, 0x3c601dabbda2eb4dU, 0x3de9a185bd10ffa4U,
  0x3dd6db26bcc10673U, 0xbb85c25b3d541303U, 0xbd6fe8ebbdab9496U, 0xbdb09f9dbd6252f5U,
  0x3b38b9883e00db97U, 0x3d3f9ee43dcdd590U, 0xbbe023aabdc4179cU, 0x3d6a7c90bb77b372U,
  0x3b8f387e3da6deb9U, 0xbd0284af3cec380bU, 0xbd6d2fd53ba122faU, 0xbc339b8ebd2813feU,
  0x3cc82954bb8797b3U, 0xbce86ca53dd5f2adU, 0xbcc216d63de8c616U, 0x3d2c1e6c3dbbf78eU,
  0xbc2e9562bb753ff4U, 0x3d5f25ae3ddc5bc4U, 0xbdb8952abdc1f418U, 0x3df74d0b3dec7334U,
  0x3d81ec263d085088U, 0xbb8b15463cdd45ecU, 0x3dae45093d3e0da5U, 0xbdb94a753c94b72aU,
  0x3dd1de6f3d9449d5U, 0xbd9a9e693d2434f9U, 0xbd84cd73bcfdb5d1U, 0x3dd2f4c6bd2c222dU,
  0xbbd52eddbcf83b73U, 0xbba8fd373dc99590U, 0x3dc944e23dc62c98U, 0x3ba840ebbd70caf7U,
  0xbd0c4bcf3d950f56U, 0xbdb6624a3cff8d25U, 0x3cc9e94ebba1c6e7U, 0xbc968e6e3d6000f5U,
  0xbc7a1fe23dad85c1U, 0x3d1a561e3db26c1fU, 0xbce851acbd95f9c0U, 0x3e01abfc3db1b928U,
  0x3cfe5832bd9a1eddU, 0x3d8acb6f3da5d1d5U, 0x3d0ccdcfbc485390U, 0xbd4355e13d437e12U,
  0x3d873676bd0ce9c2U, 0x3dac7d2a3db776f6U, 0x3de0fede3cf813dcU, 0xbdbc52f03c002d0bU,
  0x3ccd51333de4a44fU, 0x3e061fad3d7e2cc3U, 0xbda65838bc95f88eU, 0xbda64c38bd122020U,
  0x3dd5fd4a3cb0589fU, 0x3dd8d2b23d3b2314U, 0xbc62b67a3db5dd09U, 0x3b828aeb3df83a8dU,
  0x3d9bbe50bd5f4736U, 0x3d0226e33c0a74b0U, 0xbd16ffd83d13b078U, 0x3db49ff5bd3f93aaU,
  0xbdbbf58bbd6e57dcU, 0x3c1fb2033de3589aU, 0xbd971164bce28d73U, 0x3cde3ffa3dc9e09cU,
  0xbd620062bd303dc5U, 0xbc767dbe3e047454U, 0x3dc38292bdbdf9c0U, 0x3dcaa4b53cbdab1dU,
  0x3ca86f22bd830b4eU, 0x3d9732f0bd753177U, 0x3d9b90693da87536U, 0xbd08297d3dd290c4U,
  0x3db8b5643df748dfU, 0x3db3158a3d7ab565U, 0xbd35d52fbd4b9137U, 0xbd24e19a3c1fc08dU,
  0x3df5e041bd624b6fU, 0xbd6d61983dc6889cU, 0xbc1fc6a93dc4d011U, 0xbd89c793bda18715U,
  0x3dbca366bc1f3da0U, 0x3d4a843e3c97a957U, 0xbdb50f95bcf296caU, 0xbd116d15bda293caU,
  0x3da5879abc90ee9fU, 0x3df48e0b3de28051U, 0xbd9e0461bd1ca8b9U, 0x3d825055bd556945U,
  0x3cb0a1743da38b22U, 0xbd84d0ddbd41bd22U, 0xbd945f973d771783U, 0x3c16e5d13d810569U,
  0xbc78c814bdf38bc2U, 0xbb865c0cbae81409U, 0xbd24d60cbd9f9814U, 0xbdd024dbbc32ff0bU,
  0x3db7a2f0bcb60c8cU, 0x3d902b683d3bcb45U, 0x3bef83e7bd2b4c61U, 0xbbb6b3713d640527U,
  0x3d14ea3e3d4bb2c4U, 0xbd2742fbbd950e9aU, 0xbdbfe4683cde09c6U, 0xbd4474a6bd7b62f3U,
  0xbc8fc4353dc714b6U, 0x3d52e362bddb5676U, 0xbcf1fb9f3db18a2bU, 0x3d10fabebdb9e323U,
  0x3ceb6622bdc4e114U, 0x3d50f8e3bd512b74U, 0xbca9c71dbcff36adU, 0x3dd56e15bdb36f10U,
  0xbbb8e4383c7dfb8fU, 0xbb112ed03db3a058U, 0x3d8d9921bd4c84bdU, 0x3daab1523da1315aU,
  0x3d851bd23d291887U, 0x3db7930e3dd944eaU, 0x3d69ac773d995c5cU, 0x3dc08e1b3d302bfcU,
  0x3dcf6aad3d99dc0cU, 0xbd7f81473de9d44aU, 0x3dc7a8963d2e5665U, 0x3c788e27bd8a08e0U,
  0xbd84db283cd36e83U, 0x3d9308f13de047e4U, 0xbd0227cfbd99b829U, 0x3db6520f3d5b9c30U,
  0xbdbb9898bda89d7fU, 0x3d878e16bda06be0U, 0xbba15216bdd4f8c1U, 0xbae1bc2dbdb5233bU,
  0xbde3525dbd9f0bc5U, 0x3c467ab9bdab127aU, 0xbdaf4b5a3c4a81b6U, 0x3dde3486bcc9d442U,
  0x3ddbf9f03d87550eU, 0x3dd74aee3ce5c24bU, 0xbd1b7aa0bc1ebd1dU, 0xbddc58143de1ed4fU,
  0x3dc191193d4b77f6U, 0xbcab5921bd429af4U, 0xbd32479bbd1270eaU, 0xbdc745a13daeab3fU,
  0xbda0cf7d3d6fc828U, 0xbdc7b7933da891fcU, 0x3add8bcdbbf33cf9U, 0xbdbf42ca3db7d8bdU,
  0xbd97b9a9bdb60724U, 0xbcd21ae2bd8ed4b7U, 0x3da0a241bd8d29c5U, 0x3c9224d8bd34f60eU,
  0x3d82635a3d80e0c9U, 0xbd9cdb5cbcdc13daU, 0xbb2387563c31994eU, 0xbddd35793d69a61dU,
  0x3dacb320bd521f49U, 0xbdeadf513c020f85U, 0xbd80c318bcda84c6U, 0xbd6d2f6fbd85687aU,
  0xbb5fc281bd573908U, 0xbd4b11adbd59b481U, 0x3b70a8a5bdb2b6e4U, 0x3cfa0d99bcab1ab8U,
  0x3d9c2eb6bd7d2002U, 0x3cbbe45d3b084a47U, 0xbd3830343cdff806U, 0x3da52dc5bd3d2cc5U,
  0x3d879e82bda38febU, 0xbd8ef0683d453106U, 0x3cca3eb1bd976a60U, 0x3d8ad9f93dd9b544U,
  0x3d90f575bd84fc2eU, 0x3dd91b763d14b0dfU, 0xbc6cd95a3d9f952aU, 0x3dcaccf43da9d662U,
  0x3d914ee13cba73c3U, 0xbd8853413d6cc3b4U, 0xbb3a8933bd709d72U, 0x399811403d95fe80U,
  0xbd6c6f023dd3a245U, 0xbdbebe6ebc7c7d0fU, 0x3c92cab83ba4c3c5U, 0x3c9fa7d8bd22417bU,
  0x3a7c9dd8bd207e5eU, 0x3c14f8b13e1f6c2aU, 0xbd1237e93d3c1cfaU, 0x3dd616a13cb7c23cU,
  0x3cc193e7bd44b997U, 0xb8d430b43c1f14baU, 0xbd4860283c222723U, 0xbc8ef64f3de4fe6aU,
  0x3c994b99bd61427cU, 0xbdc7c9ddbb6cd0f2U, 0xbc4150b1bd8b7d33U, 0x3d3926fd3d899442U,
  0x3ca410093d878a76U, 0xbdb349983dd6b470U, 0x3d482dc6bdba0f6dU, 0xbbe680163d882418U,
  0x3ca675c9bd9df5b0U, 0xbdc0f132bcd15f92U, 0x3c908f08bd81ee50U, 0xbc3ba4353d0f8a4bU,
  0xbc835506bd6d0213U, 0x3dcf8c52bdc82a97U, 0x3d7329e7bc83d992U, 0x3de1cc59bb987ef2U,
  0x3c3021433dbc5d4aU, 0xbd3d95dabdaace98U, 0x3dc7e29dbd9d93a9U, 0x3d86925c3c91fa34U,
  0xba9dffc7bd51bd65U, 0xbb8a2cc13d382264U, 0x3d6be548bd969ae0U, 0xbd9e712e3e0f53acU,
  0x3dd0ba8f3d7c6c2aU, 0xbcf8fdb43d294454U, 0xbd94424fbd8626ebU, 0x3dc00858bbac8f7aU,
  0xbda457fc3c1ee7eaU, 0xbcd938f9ba5c9820U, 0x3df2f82d3d4676b9U, 0x3dd0206b3d481ac0U,
  0xbce827553bd69e29U, 0xbd8d7a35bd81f5c4U, 0xbc2aa7debda8b7baU, 0x3c9bff583dbac00fU,
  0xbd4bde0dbc887ab2U, 0xbce95f10bdaa9791U, 0xbdb8a19fbd8b72d0U, 0x3de8816a3db09229U,
  0x3d84e6c9bd9693c9U, 0x3dba598c3df87e34U, 0x3c3056cabd8c9d47U, 0xbc9d7de9bce1a0d8U,
  0x3e085711bd92d223U, 0x3dbe4482bda31129U, 0x3d86f6263d4da64fU, 0x3dde35d3bcac3f35U,
  0xbcf599e0bd495ba3U, 0xbcfce4663c565154U, 0x3da55e0fbc66f4cbU, 0xbc42d165bdaa209fU,
  0xbdc9ebb93d6382d4U, 0x3d90a9bf3d2e2a95U, 0xbbc90c84bd5583e7U, 0x3da94fdabd4ae2a6U,
  0xbd9884ec3d165e51U, 0x3d3da73cbbf96e98U, 0x3dc25ad9bd8c10e5U, 0xbdd3da85bd0f8d54U,
  0xbd9125ef3dbd3efbU, 0xbba34d5c3d8acc25U, 0xbdc83bf43d5871f1U, 0x3d53e279bcbb92e6U,
  0x3d78f64bbc057ce1U, 0xbd61abe3bd648408U, 0xbc16f5f73d3eb048U, 0xbdf2469ebda2a4afU,
  0x3d8277af3d1450f5U, 0xbd013c14bd902df6U, 0x3c007c59bd170c3aU, 0xbdbc7747b8b19b10U,
  0xbccfc85ebd1e026eU, 0x3da757eebc901119U, 0x3e24d089bd730be9U, 0x3db53da13dc5154aU,
  0x3d8ea86f3b6edd18U, 0xbdcb8dd73d53cee4U, 0x3cb47a2a3d0f11c6U, 0xbbdd2de6bd798419U,
  0x3dca41403d4153aeU, 0x3d8bbc1b3d935a70U, 0xbdc7adacbb9fbc81U, 0xbdce79463d5414f6U,
  0x3d5b90263bcec71cU, 0xbd884626bda215caU, 0xbdbbcfc5bbd20900U, 0xbdd814483d7be384U,
  0xbc6501d73d283ea6U, 0x3d3833023d9180a7U, 0x3df068fe3da0572aU, 0x3c3188a83dd38189U,
  0x3d7ddd293dc32deeU, 0x3d367bfd3dde0702U, 0xbd8829633d35921bU, 0xbd9103193c21fc0eU,
  0x3dbc4108bd79d44bU, 0xbce831cebcd9d43cU, 0x3cea3d5b3ca5813cU, 0xbd465971bd463681U,
  0x3c41c1753c4e38bbU, 0xbd71a40fbdcb157cU, 0x3defa10c3d7cbc03U, 0x3c88bb97bdab3361U,
  0xbdd4f69ebd682811U, 0x3b962a43bdaace86U, 0x3c9212203dd18a8bU, 0x3d7de5c13dcc2216U,
  0xbd79f3a83dcf144cU, 0x3d5033debc4d64b2U, 0x3d910c2e3dcc5ad3U, 0x3d34c144bdbfe664U,
  0x3d5769f43cdc2b81U, 0x3de3640cbce1b6fdU, 0xbd4ec0433d180b18U, 0x3db0de60bd5dbfe9U,
  0x3c8d6777bd1ff095U, 0x3ce97155bd701c93U, 0x3becfc32bc9d4c26U, 0xbd8f85b5bd8126bbU,
  0x3dd10ac23db3989fU, 0x3da365f2bc95baefU, 0xbd4cef493d4b2095U, 0x3d74ea7fbdaf5c84U,
  0x3d9b7eee3d6dee05U, 0xbbcea956bc72eaceU, 0xbaf4ddc8bd2084a7U, 0x3d1cf7d73d338883U,
  0xbd7597893d8dfa8eU, 0xbd99e7b93b47c510U, 0xbd5fbaf5bdc5b76aU, 0xbd84e707bd825e54U,
  0xbda6ff853ddae1c2U, 0x3dba7f893d539575U, 0x3dbd33fb3c30f519U, 0x3d84a1d5bcb2812cU,
  0x3de07f393c919411U, 0xbd97f3a63c185d9dU, 0x3d62b3213d1c92a7U, 0xbcfef85b3df032aaU,
  0x3d783a623ce1798cU, 0xbd60183fbdb00239U, 0xbc4baf903dd05411U, 0xbcfb7d6b3d4df0f5U,
  0xbe03c26a3cbec447U, 0x3caa80b33df222a4U, 0x3d9b006f3ddcede3U, 0xbbf520fc3d96523cU,
  0xbc09f8873d3cb71dU, 0x3d9cb489bca46d93U, 0x3da1f2293cd0bb81U, 0xbc904184bd7eb8deU,
  0xbd7ae1833d189d53U, 0xbd6ce3323d7043c5U, 0xbe07dfeb3d841594U, 0xbdc22a79bd90a3b6U,
  0xbdaf5b4b3d5effa5U, 0x3d85fe24bd9925e2U, 0x3ca8c4bd3d4e3d9dU, 0xbd5074f83d5b8ef7U,
  0xbdb8cf39bca39232U, 0x3defad5b3ddf6e5aU, 0xbd42d0043d8f1c65U, 0x3cb90a533ce6f245U,
  0x3d9f0cfd3dee3effU, 0x3d2089693d6f11bfU, 0x3abb95d23d9eb47cU, 0x3d96966a3df97402U,
  0x3bb7d46b3d894a0fU, 0x3ca40d583dce886aU, 0x3b9910f9bd95be9eU, 0x3df0df143defde6cU,
  0x3d8bc4743dcf33c3U, 0xbc7f25fabe0adfa6U, 0x3c9e1e873d95c907U, 0xbcb7ba93bcdb35a7U,
  0xbd1a92fabdc66f78U, 0xbb66ca77bd41259eU, 0x3da1757bbd174f96U, 0xbc85b9bc3d3d8778U,
  0xbd8fbba83d3ff1bdU, 0x3c21caa9bd22f727U, 0x3d42617dbda38283U, 0xbce5fb213d3ce83dU,
  0x3c8b38b2bcc83adaU, 0xbd8472683dc90005U, 0x3dc3302c3d9167c7U, 0xbe2463d1bd8e3c6bU,
  0xbc1d0d5ebd505a01U, 0xbcbe101fbd6b0324U, 0xbc6bfb47bdabfe8aU, 0x3df256c83d4f55a5U,
  0xbdab0989bbbad62aU, 0xbd4ed294bc65e5fcU, 0x3dd09759bcf717a8U, 0xbcbf2eccbdba3cabU,
  0xbdc06487bd7eb295U, 0x3da5ea273df6172bU, 0xbd6185173dcf8abcU, 0xbda194c83cfaf1a7U,
  0x3c4752403d31d80cU, 0xbdb650febda1f9acU, 0x3d3dc1b93c94a327U, 0x3c9879dabd1ddef4U,
  0xbdb6a34dbd70dd88U, 0xbd4192fdbd67e891U, 0x3b77ecef3d9599c2U, 0x3dc3c0c1bc2d84b5U,
  0xbd4c9fa4bd82a5daU, 0xbdb64209bda7f361U, 0x3c2797983d6b74c2U, 0x3cc1fad93d0d2f8cU,
  0x3daabef63dc3511aU, 0x3d9c55f93b8770c6U, 0x3d56a2c8bc01188aU, 0x3d938c64bce30db0U,
  0x3df149e4bda2a6c9U, 0xbd4f2d923dc0fc53U, 0xbdb60bf43db58067U, 0x3daac07fbcd18480U,
  0xbc13f888bcdac963U, 0x3caa1c7f3d2f769cU, 0xbd9990103b425d8bU, 0xbbb85442bbfe9a68U,
  0x3da364853c8771e6U, 0x3d984c933cd27cdeU, 0x3c51e9943d9ce7beU, 0x3da6fe82bd87895dU,
  0xbc9cd03abc8db69bU, 0x3da18bf73c78c523U, 0xbdf237ff3dd95875U, 0x3c88612ebc156590U,
  0x3dee98d0bd403b36U, 0xbd5ea1663d9fa796U, 0xbdadcde23dd7e0aaU, 0x3d8039ebbc152b59U,
  0xbd3454ec3da319ceU, 0x3deb183a3dc378c3U, 0x3db5bb513daedb59U, 0xbbaae04e3d8cb1afU,
  0xbdb497bbbd4a7930U, 0xbc2f2f4a3dd30256U, 0xbdae9e6d3c52c18cU, 0xbd8e28e53c4366b4U,
  0x3d398159bda520c4U, 0xbc677a533c9ecdb8U, 0xbd6d5d8fbd621d45U, 0xbdb9d945bd8ccf72U,
  0x3d55eeff3db379a7U, 0xbdcb6254bd83864cU, 0x3d0de8ce3d6acc7eU, 0xbd96f25d3d1cec69U,
  0xbcb227703c810b02U, 0x3da0c71fbdb25dd2U, 0xb94ef3a23d84aa6fU, 0xbdad589a3daa4f77U,
  0x3d28ce1ebd441668U, 0xbdd507c93cbac31eU, 0xbc81cb393dbbcca0U, 0xbd1f7acf3d46fc58U,
  0xbd1a04f23ca02041U, 0xbd2ac7193d639105U, 0xbda3ffffbd9fe901U, 0x3d0794753cf1b56dU,
  0xbd01847a3cc4e48cU, 0xbdcadcb93d2113a4U, 0xbdafb11bbcb50840U, 0x3b984ac9bd1bb2dfU,
  0xbd8ea707bd9a5e55U, 0xbdcba1dcbd673030U, 0x3c296da2bcdf2f74U, 0x3d1218ab3d011124U,
  0xbdc78b023d2d8789U, 0xbd5d5bddbd29a14fU, 0xbdc7b95b3c49da73U, 0xbd83462ebde07d0aU,
  0x3d5824f83d830b8eU, 0x3d7d3d9bbcd1067eU, 0xbdcf9d913db718abU, 0xbddc57a5bb95662dU,
  0x3db574a23cf673ecU, 0x3b8e63e1bd2f7505U, 0x3d91efb33ad2bfd4U, 0xbd7afd38bd52b27dU,
  0x3db74e48bc2bf5f9U, 0x3daf2a1fbc18da23U, 0x3da33b69bc94820bU, 0x3d98555a3d882ebcU,
  0xbd87a56dbbe1e48eU, 0x3d4e58ba3d4e61e2U, 0x3d0d8f613d0c5d5aU, 0xbc93815bbcbf68a8U,
  0xbd08b1513d7d365bU, 0x3cbbce8d3d994707U, 0xbda3e024bc7d5bfdU, 0xbdb47448bbe112f1U,
  0x3cc060953d20d02bU, 0x3dbeef43bc3a8fbfU, 0xbda7d4ea3d9e9d1fU, 0xbdb787df3c897fe1U,
  0xbccaee023da367c0U, 0xbdc16c0b3da7a67eU, 0x3cabf2b93c66c021U, 0xbd1d8d633be2f34eU,
  0xbcb606183a639125U, 0xbd98f9e73dc0c4a4U, 0xbdb13bd9bda0aa16U, 0x3ccf4e29bd86ab84U,
  0x3dc2b889bdcb3e43U, 0xbc48d00abdc416fdU, 0xbd4aa67f3cc49ef6U, 0xbc07a70c3d78cbadU,
  0x3d9a6852bdc9be23U, 0xbce4d9b83dbb18d5U, 0xbcf28f2ebc94e633U, 0x3d8c9e00bcdce04dU,
  0x3da77e133d551a21U, 0xb9ac6efe3c5537beU, 0xbd3ee631bd87a23cU, 0xbcb0d6fdbd43bd06U,
  0x3dcce838bd6787ecU, 0xbd2b750c3d28e630U, 0xbdadd80fbcf8f4c9U, 0x3c9c2d5f3cb85814U,
  0x3d8a5643bd4e5ce9U, 0x3d892838bd664aaeU, 0xbc616ecabdb53e1eU, 0x3d00b0fc3badefb7U,
  0xbdb2353d3cec68adU, 0xbd9723743d9d64faU, 0x3b1d1175bce2fd87U, 0xbb4d8c3bbd5340e7U,
  0xbdb482353dad28e4U, 0x3d0735523d4559eaU, 0x3d33d422bd4bf43fU, 0x3da1ef2e3c35445bU,
  0xbd6d59eb3cc62eacU, 0x3d75f807bc9e48a5U, 0x3d99f7a03daf4863U, 0xbd5eb7043c38df41U,
  0xbd360979bd9caee9U, 0x3c863ce83c10aea9U, 0xbd49c9debcf6a9fcU, 0x3c872525bdc4fffaU,
  0x3daebb96bd31cd12U, 0xbddce40fbdb3cddbU, 0x3da6660e3d9a4295U, 0x3d1a9adebdade708U,
  0x3c0d5bd13b21064fU, 0xbc1f79233d6201ecU, 0xbd9d40ecbd372cceU, 0xbd6b3704bc8520caU,
  0xbd0d60c93cf8a202U, 0x3db136dbbd9dadb7U, 0x3d95ac493c144747U, 0xbdc79762bd551ac4U,
  0xbd135a50bd501134U, 0xbdb4c555bb89e62eU, 0x3a5a8a6ebd7375e6U, 0xbd0276553d78747fU,
  0x3d81011ebca41b3bU, 0x3db93473bdcdc5eeU, 0x3dd1dd6a3d18dccbU, 0xbdb1093fbd2a1d18U,
  0x3dd7f57ebdac4ce6U, 0xbcbbb1ecbc0888e1U, 0x3d8f9e6dba06ebcfU, 0xbe00d569bd4b2663U,
  0x3b74a469bdb1582aU, 0x3c37bab1bd9271fbU, 0xbd8730863d0c2441U, 0x3cfbdbf53c88a312U,
  0xbd9c3df0bdc750a6U, 0x3d1232a8bdbf7418U, 0xbdc44250bd80e41cU, 0x3d4d27d7bde20f5bU,
  0x3a6bc29cbda24b7eU, 0x3d2e14cb3d6086ddU, 0xbd7b55f33d72c081U, 0x3d5780093db453e9U,
  0xbd87a77abd4c1d54U, 0xbce35df4bdcc4bbaU, 0x3d99bfb83db03606U, 0x3b021eb8bda6871cU,
  0xbdd155ab3d7455a6U, 0xbd1da8773dbdd9d4U, 0xbc0f71cebd580b8bU, 0x3da607bbbd28f2d7U,
  0x3bca725c3d71596dU, 0xbc44b76abdca3ac6U, 0xbda58219bde1416cU, 0x3c0ab1023ca8af5eU,
  0x3ce04366bd0b1b53U, 0x3de45da9bd99a2a5U, 0xbd82d4bfbcf2a146U, 0x3c65608d3ce5db4aU,
  0xbca05bd23e0419fbU, 0x3d8b3bed3d661b00U, 0xbd731ede3d2e195cU, 0x3d6e28e0bbfcfec2U,
  0x3d721390bbabd611U, 0xbd8f520d3dc00f13U, 0xbcb7c785bcf06282U, 0xbdccb0df3d941b16U,
  0xbc8bee2a3d424c65U, 0x3daee6b2bcfec2eeU, 0xbdace896bd83c047U, 0xbd307882bd84a16bU,
  0x3ddce0b63d648502U, 0x3cbbd582bd10939eU, 0xbd90c142bc4cd439U, 0x3b62d6e2bdc52762U,
  0xbd8eea423df5e41cU, 0xbc2bca683c7ab477U, 0x3d9ef60abda6b833U, 0xbddff96ebc52b65bU,
  0x3da45ad13cc373beU, 0x3d984b63bd5131efU, 0xbc8d7148bd42dfc4U, 0xbceb2b9a3c3ba33fU,
  0xbdee1f643de7a911U, 0x3d820d47bc3e1495U, 0xbcdc894a3dde0662U, 0xbda015b53bee22feU,
  0xbcaf8e0dbd11e069U, 0xbd6b7d61bcce60c2U, 0xbba9cb5e3d3c4872U, 0x3d2126b03c357f69U,
  0xbd27c68dbca781afU, 0xbda409afbddac28cU, 0x3d385145bd57c812U, 0x3dc5394fbd153fb0U,
  0xbce75471bd13f787U, 0xbd58bd9ebdb8eda0U, 0xbd1ece71bd028252U, 0xbbf13e1bbde0aef9U,
  0xbbbf41b0bdca3e8eU, 0xbdba45bc3d351e9cU, 0x3d36f31cbc6a8f57U, 0x3dccab1d3d857374U,
  0x3d58da7dbd4450b5U, 0x3d831960bb8fba21U, 0xbd83345c3cf22de6U, 0xbd97c22bbe40f4f5U,
  0xbd9a6ca33d3f5c34U, 0xbdf3ffc5bd56e13aU, 0x3d2e9d7bbc1132abU, 0xbc867b44bd9baeddU,
  0xbd8fbc37bd929cf7U, 0xbda480893cd9e62cU, 0xbdb0ca26be06ba83U, 0x3db60f363c2be47cU,
  0xbdc73e30bdba71d4U, 0xbd381fd23cb4b845U, 0x3df146583da1c4abU, 0x3d343cb7bc876629U,
  0x3d8c54353c083b56U, 0x3df80efdbdc3c000U, 0xbdd0493dbd83824bU, 0x3c78b8da3dbfb328U,
  0xbd80afcd3d3dc053U, 0xbc8043093d238a22U, 0x3daa17783d850f52U, 0x3dd034dd3d867867U,
  0xbad5a2573ce9c2afU, 0xbd12b237bd9c7f10U, 0x3dec6b07bdc43e2fU, 0xbc8324ea3d0699efU,
  0xbdce94883d375ffaU, 0xbc8cc19cbdd50e5dU, 0x3db51853bc512774U, 0xbd1c7f553d4d9107U,
  0x3dd1e2243d50b56eU, 0xbc0d2215bc89e8b9U, 0x3de50d99bd1add98U, 0xbda2275abd90ce7bU,
  0xbd333824bbee3a48U, 0xbb0c93e73d7f4ac3U, 0x3dad23753d94e201U, 0xbd2de2acbd1031e5U,
  0x3d0efccbbd8e0560U, 0x3ba7d229bd139959U, 0x3d8e2d66bb68b0c9U, 0xbcf62fa03d854b1fU,
  0x3c60d083bd8de17fU, 0x3d11e1e9bd9333c1U, 0x3c2369f7bd4cba4eU, 0x3d35456f3d66fb0cU,
  0xbd30f663bdce8a65U, 0x3dd48d133df113cbU, 0xbda8292f3ccbf028U, 0x3dfd16ce3daf63ecU,
  0x3d1fd9873d835e8dU, 0x3da0bf88bd4ad9daU, 0xbd47834cbd833617U, 0x3da3f6523bd36eb2U,
  0xbd1690043db41619U, 0xbd21b1bfbd9ef266U, 0xbd8fb6c7bd9ef8faU, 0xba4d52753dbc0761U,
  0xbd8abb10bdbf3aa8U, 0xbd9c440a3a73f4c5U, 0xbc392ee8bca132aeU, 0x3d2782793d4f2fb0U,
  0xbd96bec5bd0dd4c5U, 0x3ccd0e4dbc1788d6U, 0x3daf8a893d999adfU, 0x3d9d061abd551ed6U,
  0xbcd35f6bbce783e0U, 0x3daf0903bdc12b5aU, 0x3d22117ebc03e2b8U, 0xbd01e6a93e0903e1U,
  0x3dd511debda66f4eU, 0xbd178be8bd84c143U, 0x3d801272bd4b7bc5U, 0xbc4b50c13c8053d6U,
  0x3db13da9bd4ee254U, 0x3df0cac5bbafcb03U, 0xbc8b94e53daf7b2fU, 0x3c6482203d9c38b4U,
  0x3c7ebf673d1f3f63U, 0x3cc5530f3d6d4cc0U, 0xbba13e643cc7e5a3U, 0x3beddd503d87c052U,
  0x3d92a2423db7c5f9U, 0x3c885cbfbc1a7ff7U, 0xbc3a3c3c3cedace2U, 0x3d1855d33dea4c51U,
  0x3d7167613e078df7U, 0xbcf9e1743d72be06U, 0x3cd9bc28bd86ae22U, 0xbd5defb83c25a59fU,
  0xbd2c31ad3ce93f5aU, 0x3cb18509bd8ad59aU, 0xbd46ea57bcbcc171U, 0xbd92d0723c34b25cU,
  0x3d3d2eb7bcab2d02U, 0x3bfbb21bbd100a99U, 0x3d9ae0f73b09e05cU, 0x3d4d89eebd88c85bU,
  0xbd99e25abd3fa5aeU, 0x3da6f1b83b6b463bU, 0x3dddfe6bbc500c53U, 0xbd074374bc80ebebU,
  0xbd1166d4bd840f9dU, 0x3cdf13923c606cc1U, 0xbdbb98813ddf2b59U, 0x3da1d92d3dfcf713U,
  0xbd920f783da9c7c2U, 0xbd9c53b2bd3518afU, 0x3c4316363dfc740eU, 0x3c73e4663df2e34bU,
  0x3d1154bd3ce1334bU, 0xbd52bde63d62576cU, 0x3cc60235bd97b292U, 0xbc7b45b3bdcfaa31U,
  0xbdb0e54dbd47f217U, 0x3e0154353d9acc47U, 0x3dbe343ebb0a15a7U, 0xbd0c73fe3b00f004U,
  0x3cdf9a57bcedbfdbU, 0xbc37d8a93ce02914U, 0xbda4acbd3d4a127eU, 0xbbb06c96bd1fb2d3U,
  0xbb27c137bdbfd289U, 0xbd87a699bddc6141U, 0x3cc2e5493c1f8d4bU, 0xbc16b9233d17dd5cU,
  0x3d6a0ed13d95fdedU, 0x3d95d9d1bd2cfab4U, 0xbda28e15bdc2da58U, 0xbd8564453cf11ef2U,
  0x3c944210bd002202U, 0x3db271dcbdb5ebc6U, 0x3d260e70bda94c42U, 0xbb93b2443d0837daU,
  0x3db7e6ef3d8d3cb2U, 0x3d0e725d3a0f9efeU, 0xbd4ca69dbd9b5dd3U, 0xbdcef0b8bd989a11U,
  0x3dc56adabc95bddfU, 0xbd04d441bd6ee315U, 0x3d44240f3d100a89U, 0x3d7d72733d9f2b3eU,
  0xbd314e4abc16c664U, 0x3cf57c153cb29f84U, 0x3d8d5f843c64bfccU, 0x3d3219f33dcd4435U,
  0xbd9ac7993d4cb211U, 0x3c9cfe01bd96a6c9U, 0x3d97176e3dd5d11fU, 0x3dc3ccb3bcdf22eeU,
  0x3d5ba9dcbdbc4993U, 0xbdd071b0bd469c1cU, 0x3bc60fc13c5437e5U, 0xbc4ef792bd919eddU,
  0x3d75afb23da2a8c8U, 0x3d0c28f23dc3e5efU, 0xbd8722a33d641ed6U, 0xbda883d33cfb04d8U,
  0x3d959da13d9561c2U, 0xbdb22e4abda38b38U, 0x3de2beaebc5c7d21U, 0x3d08c8a73d3266c2U,
  0xbc1c88b13d321718U, 0x3d693b93bde49d5bU, 0x3dbd65bf3d0d2771U, 0xbd0281243e03c93aU,
  0xbd57a4a9bca91dbeU, 0x3b4b1429bd87cb09U, 0x3d201b663d729384U, 0x3dbaec7bbd99d920U,
  0xbd8c92b2bd58ba2eU, 0x3c3baf423d5a0a41U, 0xbdbf13f03c944f5aU, 0x3c23db4c3dbbd0f9U,
  0xbce8456f3d0596b6U, 0x3cdac0633dd9ae21U, 0xbd3e3c8a3d6cba16U, 0x3de9ccca3dc9a907U,
  0xbc969b97bd91725aU, 0x3d011775bcf25888U, 0x3be282073dac06b2U, 0x3dd7c4f53d143beeU,
  0x3db09ee13d3c382cU, 0x3c5ecac83dd3f846U, 0x3dccd9023c24496dU, 0x3d0157f33cb6781fU,
  0xbca8d4743bc1f3b5U, 0xbd90a65bbcd107c2U, 0xbb3f8bd83d127493U, 0x3d0c3a28bd4ef1a4U,
  0x3d8cf327bd390fc7U, 0x3e05bc44bd015a81U, 0xbd8291cbbd945a4fU, 0xbddfa4d33dc840d5U,
  0xbdc839f43d3db575U, 0xbd88f773bd35cdb4U, 0x3d7f5c35bdd39195U, 0xbd9534293d04cc2bU,
  0x3ae576afbbcaa65aU, 0x3ceb3cb2bc6ef859U, 0x3d95fd943bc0a4d8U, 0xbdedef9b3d8250f3U,
  0x3cadb86ebd911e6eU, 0xbd9bbff93dd29e29U, 0x3bc1736cbdadcd14U, 0x3d1df6363cef5e75U,
  0xbd24014ebbf20041U, 0x3cb59587bda1c864U, 0xbca926663d4a58aaU, 0xbd09add0bc3cfcc3U,
  0xbd534ca33dc6cc44U, 0xbd809c7bbd92f911U, 0xbd3ed3a23da2f17fU, 0x3d2b3235bd6d9fabU,
  0xbc1de7f9bca94d97U, 0xbe085d3abcc82b13U, 0x3dd1f353bd2a9a47U, 0x3c8e19603c9bedafU,
  0xbd72be1abd93a47eU, 0x3bf457353db9eaa6U, 0x3dd03642bcd987f9U, 0x3acecb463d40a688U,
  0x3b141ac8bcd4ee41U, 0x3cc6bb29bbddfd79U, 0x3d5d00abbd6deb6fU, 0xbccc0eb13d905227U,
  0x3d013a17bd0ba054U, 0x3a3a4e4439ebe24dU, 0xbdd80de13d61012cU, 0x3baadaa0bd2c98b0U,
  0x3db0db0cbcc4b7e8U, 0xbd892363bcdc1a57U, 0xbdbd5b7bbda399afU, 0x3c71f818bdcd969fU,
  0x3d9e5dee3cc5b17eU, 0xbd831d91bda6238cU, 0xbd7d93133dc0dbe6U, 0x3c53f2723d0acf87U,
  0xbd0aff603c80a468U, 0xbd7d8a1fbad4b24aU, 0xbd13d2a13d3d18b8U, 0xbdac20b23d9acdfcU,
  0x3d51c786bae9002eU, 0xb9d845b83c0f925aU, 0x3d7b8e323dc5f9d4U, 0xbd7ebe773d5ab26eU,
  0x3c1613973d1af9efU, 0x3d36b9be3d4b0a12U, 0x3d992c29bd669bb3U, 0x3d5052cdbdaff696U,
  0x3c9b5a85bd5a65d8U, 0xbda2d0ce3de6be60U, 0xbd0fd09e3d250580U, 0xbd8b29b63c487dc6U,
  0x3c2b23183da1f842U, 0xbd51aa56bc492db0U, 0xbd2d35f53d54725bU, 0x3d3b02f9bd070b53U,
  0xbd52cd9fbcc58f64U, 0xbd123b4e3dd30ea0U, 0xbdcd8cb63cb7367aU, 0xbca7d5193d7a955dU,
  0xbdcb222c3d787ac8U, 0xbd9d9638bcc13ac0U, 0x3db39356bd1d13f5U, 0x3c1045d13d1733c8U,
  0xbd6bc305bb303214U, 0xbd04c66bbd10ed8aU, 0x3ce728cb3d0829fdU, 0xbdc882e63dafe7c5U,
  0xbd900010bd758068U, 0x3d56ea81bd76784cU, 0x3b7ecc44bd95f7d2U, 0xbd8b68b03a207aedU,
  0x3dafff51bccf772cU, 0xbce19d843cd5d15aU, 0x3d1c8c3a3dbe4c1dU, 0x3c0ab2c8bc8c6643U,
  0x3d4cc4973d9687bcU, 0xbd10e134bcea12caU, 0xbd958c71bdb0c08cU, 0x3d6f64bdbb3954dbU,
  0xbdabd6da3c8ce2d8U, 0x3da14b5ebce1072fU, 0x3c1e22743dd2e3e1U, 0x3db05cc53db0c978U,
  0x3ce5ed99bc4c17fcU, 0x3db7005fbd3e35a2U, 0xbce87dd03d97a49bU, 0xbdc24dcbbd3269b9U,
  0xbcadc7f83decec50U, 0x3da06846bdb1eefcU, 0xbdc5548c3daf7f5aU, 0xbc8987e73d740456U,
  0xbd7f68fdbdb7cb9bU, 0xbd9bd826bda6bf67U, 0xbd1a5152bd1e9342U, 0xbdb8020f3d8c3e14U,
  0x3d8764debcd22405U, 0xbd80d9803d5fbfeaU, 0x3cf58a48bdbb5be5U, 0x3dcc82bdbb818f1bU,
  0xbceb5981bdb7dd75U, 0x3d6d10cf3c6db4deU, 0x3dd66cee3d8446c5U, 0xbc116e35bdb4ef62U,
  0xbcc221a4bba07d97U, 0xbd67e1633dd27bc8U, 0xbdb79f71bcbe427fU, 0xbda8441cbdce8f49U,
  0xbd208d813dd5083bU, 0xbcc915473d4e420fU, 0xbb2ed473bd7e25d8U, 0xbd30bf553d142cecU,
  0x3bfe4bd13d10f2c8U, 0xbdc639623cd29e7fU, 0xbce264b23a794fa2U, 0x3d6c021cbd34fe50U,
  0xbd6567df3dc89acdU, 0x3d53c26dbd0e4885U, 0xbddfe80d3d03b006U, 0x3dafcce73c355fd0U,
  0x3d7ad2d0bc7e4569U, 0xbdafb13abd2ae784U, 0xbda241863d919caaU, 0x3d9955acbdeb4618U,
  0x3ce7033a3da83519U, 0xbd2947c2bdaa55e5U, 0x3dbb7a643d4b1991U, 0xbdb3d0a0bd16fe0aU,
  0x3cb8c8b83d6e6c4cU, 0xbd8a4715bdbf6689U, 0x3df1ccce3d15c46cU, 0xbdec7fe43d7e7aeeU,
  0x3c20d99fbd932465U, 0x3dd76a8d3cb99970U, 0xbdb275793d02972eU, 0xbd559fd0bde38d60U,
  0x3dc3e236bc1e31c9U, 0xbd36e7023d527fa7U, 0xbd54e31f3d6fcb43U, 0x3d9ccb6cbbabfd7bU,
  0xbdd38e53bd1b8397U, 0xbd5251a6bcc07fd4U, 0x3d5a1f05bdac0c20U, 0x3d1ccbccbd228508U,
  0x3d9d237bbd760fd2U, 0xbdba5ec13b00cedcU, 0xbdaa35d1bd1aa4b6U, 0xbc8e46de3b6432f7U,
  0xbd9463343d9266d1U, 0x3bea83643d949ba9U, 0xbc4dab583d079912U, 0xbc9a8b29bda2c70eU,
  0xbd9e30193dadf5d2U, 0xbbadc874bd2e6b11U, 0xbdf04f7fbd2d09ebU, 0x3d965c523d30731dU,
  0x3ca457ca3c705c5fU, 0x3c61bb853c29071fU, 0x3d8d59893d2a5e02U, 0xbd9aa67e3d8efdccU,
  0xbd2150abbd947f67U, 0x3aa1b58d3d823aadU, 0xbd89044e3c276742U, 0x3d98510ebc22fca9U,
  0x3ccd877bbd918c70U, 0xbd6196c63cb55322U, 0x3d9f4b203dbe972bU, 0xbd9c62b0bdae4eb0U,
  0xbc6b98fa3c68947aU, 0xbd92d3a1bdd17766U, 0x3bb38af0bdd8fcd0U, 0xbd994271bdb7c2c5U,
  0xbd8b708b3b35f0acU, 0xbcfbefecbdca78f0U, 0xbd9c9215bd474829U, 0x3b871fa53db42cd5U,
  0x3d02f7223bf5b88aU, 0xbd9c279d3d317758U, 0x3d39737dbb31d471U, 0xbcffb5af3d0b0675U,
  0xbd9ba3b03d2dd3b2U, 0xbbbccebbbde894b0U, 0x3ca48ce2bd9dd049U, 0xbd9872a33d887345U,
  0x3d85db41bbe97947U, 0x3da4a3e53d879f7aU, 0xbd2133d9bd9e9abcU, 0xbd8515383d0ea3d6U,
  0x3d5a860abde241e7U, 0x3d956a073d62bb76U, 0x3ce166f33d86eff6U, 0xbdb9c282bdbf991fU,
  0x3d92d4a63cb6dbc0U, 0xbdb31245bc0d39faU, 0x3d9bbad93d2de895U, 0xbdbe498fbdd4aa0dU,
  0x3cb51dc23d63d70bU, 0xbca3fbb33d1bbe91U, 0x3c3578b23cac1db1U, 0x3d573e47bd81e335U,
  0xbc84ea6bbdb7888dU, 0x3d03cfe5bc0537d7U, 0xbdd74225bdc3f04eU, 0x3ded9fd53c3e3848U,
  0xbd3c28e0bd7e1149U, 0x3da7c3bd3dc6d197U, 0xbda1c7c1bdb9e9fdU, 0xbd9afdb2bdd371c9U,
  0x3d7f38d0bdb83823U, 0xbdb7974a3de81f9aU, 0x3de630f9bd59ff7fU, 0xbdd089aabd2ca7b0U,
  0xbce96090bd067c9fU, 0x3da31c4fbde3e9f6U, 0x3c22c438bd848314U, 0xbc9076cebdb82b65U,
  0xbd0d870e3dc6ff53U, 0x3d4b5edd3bdc842dU, 0x3c6b1cddbd0735d7U, 0xbd38623b3db5cffcU,
  0xbd8c615f3d4ff6d0U, 0xbdb5b14abdba3854U, 0xbdc11258bd8822b0U, 0x3cd9ba12bda3b803U,
  0xbd06f7b0bd381223U, 0x3d504d033badd533U, 0xbd9b274dbd4301efU, 0xbdd09f80bc18bb5dU,
  0xbd918f643dfad5deU, 0xbd3dfae3bc06dfe5U, 0x3dbfe450bd9ee052U, 0xbd6b29e13c3ef6fcU,
  0xb9c832083d37e422U, 0x3d69f8df3dd5269fU, 0x3d29e8603dd4a366U, 0x3d9ac4cc3d601b63U,
  0x3d873ba13d39394bU, 0x392d8e783c982decU, 0x3a28b7e6bc6922fbU, 0x3b0992ea3dca3e1eU,
  0x3dac0681bd36c89bU, 0x3dd48cbcbc66c371U, 0x38ea4ab63d4395ecU, 0x3dd532663d585a5bU,
  0xbd45e7c8bdb6dea4U, 0x3d716f6cbd1834deU, 0xbd6554f53df30f1bU, 0xbce6e326bc284cdcU,
  0xbdcb99763def6c1dU, 0x3ddb0af33db4d13fU, 0xbd02b984bd6543dbU, 0xbd6e6a483db71e1fU,
  0xbd6c5fd43dd50963U, 0x3d228018bdb91944U, 0xbc8780f93de308ecU, 0xbda94a12bd1efadaU,
  0x3e0a204ebd361e4bU, 0x3d0391debdb110ddU, 0x3dc93dcc3e0fe8f6U, 0xbda349b83da38712U,
  0x3bc03917bc00b9a3U, 0xbbf2ec333d58ed75U, 0x3d378f943d6ce690U, 0xbcc527b8bd85a74bU,
  0xbdb54da53ddf1fa0U, 0x3c9b95c6bd76be45U, 0x3c199ecabd961f97U, 0xbcc43a2cbd549027U,
  0x3cd7bd45bd1af32eU, 0x3d7bc043bca323a1U, 0xbb87ac243d52cc1aU, 0xbd4d189bbd01b985U,
  0x3d995238bdb66f9bU, 0x3dfdbe763dbef232U, 0xbdacacbdbc700371U, 0x3cf77a273d848780U,
  0xbd4a4d4ebd08029dU, 0x3d45df14bcb68cd8U, 0x3dbdf59a3c092566U, 0xbdd49860bc86571fU,
  0x3b3a059fbd95b713U, 0x3d6e12343dbc9c48U, 0xbd15983a3d05cdedU, 0x3dd400bd3d0b03bdU,
  0x3ca677663dabe421U, 0xbd0c54f7bb10dadbU, 0xbc8a3286bd87cdeaU, 0x3da19a3d3da0272fU,
  0x3c4158bf3ce81df2U, 0x3cea2692bd37c5deU, 0x3d7523193d839ce4U, 0xbc8ef4b5bd5f5502U,
  0xbdbe54e13cc79ea3U, 0xbceeaa8c3dde13bbU, 0xbb9a7a85bd59d67fU, 0x3da5389e3d2b49f1U,
  0x3c598d39bba9a88aU, 0x3da39efdbcf55381U, 0x3dd93825bda6a1bbU, 0xbd83df43bd3c7868U,
  0xbd6ace913d2d3ad0U, 0x3dad6fe7bd7803feU, 0x3d7a1f373ce12996U, 0x3b471728bd88a9b7U,
  0xbcc1e13a3cfc70bcU, 0xbd088ebebcd074b8U, 0x3d0edc8b3df02c23U, 0xbd2cf75dbd3c770fU,
  0xbdabb165bdc432f0U, 0x3d4fbeb03d895b3dU, 0x3cfcbd743afa1284U, 0xbd4d81883dc1b1e5U,
  0x3d9392053d5efa07U, 0x3d2fae763d6c48e7U, 0x3d22513abd47d633U, 0x3ddc7c423dda77f9U,
  0x3ce366a8bd8436efU, 0xbd0a2c493cad63b5U, 0x3db060043d67ccd9U, 0xbdceea60bda73ad1U,
  0xbdb841a5bdd0d455U, 0x3d955426bd391daaU, 0xbd4ea1f13c0635b1U, 0xbcc5c2633c4f8406U,
  0x3d8630b9bd84984cU, 0x3d5216c83dc77a00U, 0xbd917a3c3c42e86dU, 0x3dbe8c0abcf77c29U,
  0xbd566d733de7220aU, 0x3cd5a1da3d951319U, 0x3dbeab583d86eebdU, 0x3bcb52363da50929U,
  0x3cb0d1fdbdd40374U, 0x3d78fe133cf1c943U, 0x3d0ab6b23d8ce724U, 0xbd0d356f3dc8bad8U,
  0x3d8435703c586c70U, 0x3c9746983db3195aU, 0x3d01c90f3c092fc2U, 0x3ce7d62dbd826a31U,
  0x3de285243d02a336U, 0xbc8b7ca7bd9170d9U, 0xbd843d13bdc8d721U, 0x3d94dcf3bdd2a8c1U,
  0xbd7d8e7cbdb60b8aU, 0xbd4b0ac4bcb736c7U, 0x3d5db75f3d388c9cU, 0xbcb6e2053d5447a6U,
  0x3d2172703db309e6U, 0xbd97ec01bcead25eU, 0x3d260b2a3d746052U, 0x3c561b1fbc9f9832U,
  0x3d67798ebd87d672U, 0xbd7630adbba89654U, 0xbc608e6e3da3385aU, 0xbd53d0f3bc4ae778U,
  0xbc4247013b9030a8U, 0xbd44dd423d92af0aU, 0xbd2ff5633cc9ef20U, 0x3dbe60d2bd20e355U,
  0xbd920d0e3d72c467U, 0xbd49b8bfbda79afaU, 0x3d99317f3bc8ad66U, 0xbd3b5cee3d894f17U,
  0xbd7ae50b3ccea558U, 0xbd94d1a03d08c170U, 0x3d834d7f3ca04985U, 0xbcfd82803d0f38e3U,
  0xbda54ca6bd5a5dfbU, 0xbd4d187a3d1bfd0aU, 0xbd63fd8a3cfb07c3U, 0x3da800253d157706U,
  0xbcd1f4a53d682bfdU, 0x3d2a1a68bc213adeU, 0xbda2b417bd78c433U, 0xbd78ba463bfb5b39U,
  0x3d144864bd1076b1U, 0xbd2963f63d315a71U, 0x3d1dc9d33dafdc0fU, 0xbd412ced3d8d7803U,
  0x3df215a13d4a7409U, 0xbc5f54c83ccc0bdcU, 0xbddba22c3c51ccb4U, 0xbd72aa4ebd9cbf87U,
  0xbd05469b3db993e1U, 0xbde37d98bd066eecU, 0x3b2054323c53201fU, 0x3d0a10563c72ece2U,
  0x3dbe38c73d1c9109U, 0x3dc0203f3d9ed806U, 0x3e004961bb0f9bbbU, 0xbcbfacc9bddb07b9U,
  0xbd3ef262bd6abe2aU, 0xbdb7021c3dbfe5bdU, 0x3db501f53d968f98U, 0x3d5b0d783d4166c6U,
  0xbdb8a8b53db92c31U, 0xbd8d1cbd3d8b9a87U, 0x3dbd062a3dac7239U, 0x3d5f4a8dbd31f270U,
  0xbd8851323d516d9eU, 0xbd9e35adbdb0625aU, 0x3d575742bc1bd1f3U, 0x3d29913dbd2ab85eU,
  0xbd9fc54ebdcad118U, 0xbdddbcf03db22f2aU, 0x3db17ccabc11db21U, 0xbcdc4c32bdbff46bU,
  0x3d34bbbcbd36040fU, 0x3d4c2ecabc0510ceU, 0xbd1d3d16bde9806bU, 0xbd9329bc3c47f5f6U,
  0xbcc2f852bc8d2909U, 0x3b22cd87bdc8da2eU, 0xbd84b335bc2285ddU, 0x3d6c4c793d505419U,
  0xbd6aa0a6bdda5896U, 0xbcda48b2bda98b1dU, 0xbdb61b5d3d4e4222U, 0x3d520a5b3bee2f86U,
  0x3dbe1e183da43905U, 0x3dadfaa73dd9dacaU, 0xbd36f6f6bdc35791U, 0xbd304c563db79592U,
  0x3d8a4f593d72f542U, 0x3d5d76533d5ab68dU, 0xbd37abb5bd720bdaU, 0x3dd88f3abd86a9b1U,
  0x3be332de3bdc774fU, 0x3de88e3ebc8db427U, 0x3d3bccf8bd3db7e2U, 0x3dabfe95bc655133U,
  0x3d980d8c3cdd5c6cU, 0x3d985f113ca7aa2fU, 0x3d20c7c83db0b5c9U, 0xbd3c3640bd30be91U,
  0x3d995aafbc61f5bbU, 0xbd109dd5bda2f233U, 0xbd3eee0ebb0713b1U, 0xbd1d4461bce42411U,
  0xbdcdb9d23d93dd99U, 0xbdddfe013d0e0fe5U, 0xbdabd37b3db89542U, 0xbdd47f123cdce4f1U,
  0xbc94eb2f3d446c14U, 0xbc97dbbabdb186f9U, 0xbdb51bc2bcf4d661U, 0xbde199b43d18a328U,
  0xbd53b1c43dc154d0U, 0xbd93a3fdbd9b391aU, 0xbdbf79d4bd0d3adbU, 0x3d164037bd09d077U,
  0xbc029d033d88e4acU, 0xbbe6ca0abb232a17U, 0x3c2bc859bd8c2e25U, 0x3d61c4a1bd210ce3U,
  0x3d3434843cbd781fU, 0x3bb36b6abd5db073U, 0x3d549801bc1581b8U, 0x3dcfa48ebcc0bf3eU,
  0xbd4746ad3de5e2e3U, 0x3d669579bcfd7878U, 0xbc77440ebbb026dbU, 0x3c0f1b52bca3a1e4U,
  0x3a20b75d3da9b6e2U, 0x3c5b5dd0bc7cd0a8U, 0x3c749138bc468b39U, 0xbd0e9080bcdc2865U,
  0x3d3e9afb3d99a873U, 0xbb7fe4b1ba594a67U, 0x3d106216bb34c377U, 0xbde2bbdcbdbc989fU,
  0xbcb72951bcdae2eaU, 0x3b858ab8bd710874U, 0x3ccca0edbd8c8a5eU, 0xbde964a43d67e0edU,
  0xbd4adcfd3d324ea6U, 0x3d6b54d2bd95a637U, 0xbc8fb0993d25ae18U, 0xbd2c5f14bdbc2b28U,
  0x3d8214483dbc7380U, 0xbd98e4393d7bb72bU, 0xbc53e974bdbb1bcaU, 0x3d8d48f23d6a4e03U,
  0xbdcce83b3ccfcc06U, 0xbb5d0858bd3a6a36U, 0xbd6246c63d36bc7dU, 0xbd9af7c93d9ca619U,
  0xbd30859abd047f0dU, 0xbdbd1047bdae2409U, 0xbdacaef63d9a4c6aU, 0x3da20d9d3daa7e57U,
  0xbdae41e1bc450636U, 0xbd63fca3bd926089U, 0x3c3b094b3dbcb316U, 0x3d55111abd527b95U,
  0xbd499672bd1ca8c7U, 0xbc81346f3dafd7baU, 0x3d1f683b3ddb1615U, 0xbc798cca3d947ab1U,
  0xbd7405bbbd18135dU, 0x3d485ad23b3f6954U, 0xbdbeebfbbd33ba0eU, 0x3d47d338bd4cab38U,
  0xbcbc85aa3db99bfbU, 0xbda3c5773db9b6c3U, 0x3b7320bfbd0329b0U, 0xbd375181bd8eadf5U,
  0x3d29188b3d2cd64cU, 0x3da80f9ebde8d18dU, 0x3dc2d0e43dd516ebU, 0xbdd8eace3dae6d8cU,
  0xbdb8b131bd2c866cU, 0xbca215cebddf5b3dU, 0xbca81464bdba5ba7U, 0xbdce1d47bde54093U,
  0x3baa0cbbbd41fe96U, 0x3bec3390bdc12e66U, 0xbc5c5c2ebdd003a1U, 0xbdce8405bc2081baU,
  0xbd3be341bdfd6939U, 0xbc6a4d4ebd38ca9aU, 0xbdce366dbdbf1979U, 0x3be1feb4baccaf22U,
  0xbd2c1f2b3da08057U, 0x3d59b08cbda9437aU, 0x3da7a3febdaffb28U, 0xbd1f1a733d8a0310U,
  0xbd846d6bbe03ecc4U, 0xbcbb99e53db16911U, 0x3d7c3e44bcc6611dU, 0x3cf7e173bba46760U,
  0x3ca94d5d3decea26U, 0x3dae66943cf7803eU, 0x3db95ea9bd3466f8U, 0x3c6f321ebc8d2b61U,
  0x3d9cc471bd828628U, 0xbd1d8cf93db35caeU, 0xbda1a970bcbecd16U, 0xbddf3fe1bd010bacU,
  0xbdab3ecebd875abfU, 0xbd82e8c7bd17ca8bU, 0xbd6cc1c13c395d85U, 0x3db51c8ebc43148eU,
  0xbde6e1e73d912cfdU, 0x3d1725b8bd9fa593U, 0x3e03b6fe3d5ecf67U, 0x3c5634a8bdbdac4dU,
  0x3dee8028bd92b088U, 0x3d7427e9bdfdb6e5U, 0x3d9d6b3ebcecf770U, 0xbdb88f613da27f32U,
  0xbdaed96ebb326f66U, 0x3db3ddb2bd22cad1U, 0x3d0bc1463d1fa870U, 0x3d6b4b663c7d9e72U,
  0xbd52455a3d5954e2U, 0x3bb859dbbd96328fU, 0x3d393701bcb678d0U, 0x3dd7c7173cc27a96U,
  0x3d15621e3ce958e0U, 0x3db4615bbdb75f8dU, 0x3ccfab32bd5872b3U, 0xbc497f59bd4f7367U,
  0xbcbb18aa3cfd4415U, 0xbdbf1c3b3dbcd592U, 0x3de3ddfb3cff9ee5U, 0xbc6e31433d93db1fU,
  0xbcf74de73c236653U, 0xbdda69e0bcc3b73fU, 0xbafb3465bd9f9e6cU, 0xbd6a899f3b85fc4cU,
  0xbdbb27c93dbdbf09U, 0xbdb4bffd3cf47a52U, 0x3cce8070bda01296U, 0x3c76d1373d97a1b0U,
  0x3d849ed1bda0ecfcU, 0xbc861d6ebb426d58U, 0xbdad49cbbd0364ccU, 0x3da894dbbbfb0440U,
  0x3b6b167cbda1d54aU, 0xbc29418abd1b7324U, 0x3daea38fbd88e7f0U, 0x3d92d6d13c9e3d86U,
  0xbaf68f03bc9681ccU, 0x3e03dc8dbd27b87bU, 0x3cd3fc213dc2de06U, 0x3caee1953dacdd73U,
  0xbbac1bcebabd3295U, 0x3933e540bc01a4f2U, 0x3d1aa72bbb85169eU, 0x3ccde0283bd834b4U,
  0xbbad242cbc0772caU, 0xbc3e235a3d2bd9ffU, 0xbc0758983d3f6ff1U, 0xbc1267e3bc38dd64U,
  0xbc16b87bbbca0f98U, 0xbc59128a3cda9b54U, 0x3d782118bbce9e3aU, 0xbbd27ee4bca1dc23U,
  0x3c50f6793d1e2559U, 0x3ce868733cbce16eU, 0xbb63565f3c5c6d1fU, 0x3d21da54bc41d457U,
  0xbc4097cd3cfecac3U, 0xbb2e4611badcad4bU, 0xbad3d3cf3d28f35bU, 0xbbe03074bbac56ddU,
  0xbe08f857bd53ff00U, 0x3d79291cbd7df5e2U, 0xbd5770dabde1226cU, 0xbca15b70bd701be6U,
  0x3d68b7c43d54d0ecU, 0x3e0901ddbba87260U, 0x3da9213c3cb916f0U, 0x3d662254bd5383baU,
  0xbdbc2ec23ceefc78U, 0x3dad4b3a3d094cfcU, 0x3d8af85ebd1a77b4U, 0xbdd7359cbcb0f294U,
  0xbe02364d3e0293e7U, 0xbddf40433c7316c0U, 0x3beb78c0bdac8e5cU, 0x3d9f2e523de06992U,
