/**
  ******************************************************************************
  * @file    network_data_params.c
  * @author  AST Embedded Analytics Research Platform
  * @date    Mon Jun 10 14:51:46 2024
  * @brief   AI Tool Automatic Code Generator for Embedded NN computing
  ******************************************************************************
  * Copyright (c) 2024 STMicroelectronics.
  * All rights reserved.
  *
  * This software is licensed under terms that can be found in the LICENSE file
  * in the root directory of this software component.
  * If no LICENSE file comes with this software, it is provided AS-IS.
  ******************************************************************************
  */

#include "network_data_params.h"


/**  Activations Section  ****************************************************/
ai_handle g_network_activations_table[1 + 2] = {
  AI_HANDLE_PTR(AI_MAGIC_MARKER),
  AI_HANDLE_PTR(NULL),
  AI_HANDLE_PTR(AI_MAGIC_MARKER),
};




/**  Weights Section  ********************************************************/
AI_ALIGNED(32)
const ai_u64 s_network_weights_array_u64[3046] = {
  0xe24ede0203b135U, 0xf5175af609ffeebfU, 0x9ac40919f253d5ccU, 0x12a0ce1cd2f53118U,
  0x25fe6e3853be0d27U, 0xdac9fbd80ee019dcU, 0x1628f84a429fcbc4U, 0xd5eae6a1339c0881U,
  0xdeabd9052cfdfaf2U, 0x5cddf0f643efcc24U, 0x161c47a604c51e01U, 0x7120b48c333b83fU,
  0x7f0d4512434ee222U, 0x7122d643fe4ddb22U, 0xea24d2d5b309cce5U, 0x93d9d5fea1c2337U,
  0xa31dd80d88262d26U, 0xa929d943dc351dc2U, 0xd7fcc75c3ed9fb4cU, 0xa45ea1d0a9cc0f9U,
  0xde1c8121551aafd6U, 0xff29041a06dfbddaU, 0x8a4be58095aeaU, 0x4c06013af80cccffU,
  0x7e03f222143cfef6U, 0xafd1aeeaeb222b19U, 0x9407b57fc3b7c3d1U, 0x5d5fcd2cf49b32e2U,
  0x4b4be43e80c8ae8U, 0x613205130703380aU, 0xf8df43e5d4e2b5f7U, 0x2e7d1b0fdaa9958bU,
  0x9edd5119ba31f27fU, 0xee1bf00ef50a51bdU, 0x14c7eac42db3b324U, 0x20f10ee920fe41d4U,
  0xd7e10a241f9e6aecU, 0xd83bcbefd50691feU, 0xbeaf15e2ad26f8fbU, 0x21b8d2da2dd904f2U,
  0x2b10f196481437e3U, 0x16d2f3f8019dd496U, 0xaef3c722cdd5cdacU, 0x3ea5d4b5c0d508ddU,
  0x16e9791febb5a74bU, 0x602f9749fec3dbf5U, 0xbbef21f6947fdbfcU, 0x3088134cc8f497ffU,
  0xaf001e1cf44df216U, 0xf65bfd59db145e4cU, 0x62ea05fd4bfbdf50U, 0x420b690d2a1e241cU,
  0xe10f4be30112205bU, 0xf1125e2f149ab75fU, 0x1d361912f20f1640U, 0x7d4b97ffddeb6eeU,
  0xb0ff1e0eaa03af13U, 0xe201e1521710a705U, 0xea2e19cbebe28cf3U, 0xfee81af47fb62bdcU,
  0xc8c343362f15ba13U, 0xcff241d32ed0c0f6U, 0xfe74f1f0be2e9ebU, 0xeffe5edd3f1cfU,
  0x37064730fc084fabU, 0xffd83840870601d6U, 0x3781c6fdc2b2d4U, 0xdfd5eb490f01a119U,
  0x74520113f639d721U, 0x155e0ff4ffa6ed15U, 0xefb6f40c2e580145U, 0x1204e6f8d017cd21U,
  0x4cd8da1b0fbe110cU, 0xee5d9da00e02d0bU, 0x39110e21e4310c0cU, 0xcd044eddeb16e5b1U,
  0xbe1fdf37c61403f0U, 0x58107bbf74ce5d3U, 0x3d80c30fb022009U, 0xdf361ff040fa2398U,
  0xef812fb8e4eafcfU, 0x33c00ffcf52ed9faU, 0xce44e8eff615d5acU, 0x810b4232e6c8b8e1U,
  0x2815ecbaf7fc22faU, 0xdc380212f42c1f2fU, 0xf5d830ae182c3f38U, 0xdb45e8e1e825b200U,
  0x7f33fd5e1e8cec3eU, 0xdafbc3f20b083a13U, 0xff0a3dcb3a5aecd1U, 0x47e035f72618ecc9U,
  0xb6b8f5073592bdf5U, 0xeef532b7c4e4bbd6U, 0x71dbb6822fdd3b5U, 0x53c138821cb6e0c5U,
  0x63dce190dbbdcf0U, 0xfec0cdf72503dffaU, 0x48f3c4f33ef8f414U, 0x54c820f932ead0ddU,
  0x98328159082f16fcU, 0x1fa32bf421f3ebe7U, 0x2aeeefe3d019033aU, 0xeead70e8e0ccfdcU,
  0xe0250fff3b1bbdd2U, 0x15d5c13b0f3ffbebU, 0xb7102c191918e281U, 0x29270feedc35ed12U,
  0x1ec5d0f5dce29f0fU, 0x1d5400c40d43271eU, 0x440c003c39fadf08U, 0xbdd2e3001fd8e214U,
  0x28f5db1ef9e3fef0U, 0xe0af811509d4d7ecU, 0xe81b0002fe0af9eeU, 0xd0fe6b514efe935U,
  0xc01fc6f5cf28eedcU, 0x7d5e9fcfedefcf4U, 0xfd9fdcc2d212316U, 0x14f20114c3f5b1f7U,
  0xe40b3f1193110a90U, 0x700c9d4dd308d2dU, 0xfbbe017eda264bd2U, 0xccb2dffd46f423d4U,
  0xe29ac402617f5d7U, 0xed1c4623f17f2e1eU, 0xe9f6400fc0b41a9aU, 0xd8a8f021fff538c4U,
  0xc9d8d8b307d6e9a2U, 0xdbc2cbf21c443afdU, 0xe6f51d1c2d2705d0U, 0x37e21c61ef13b01aU,
  0x311b071d1c63dca1U, 0x44221423d91d4af6U, 0xd1814704ecdf1f1aU, 0x11f2cf11b3e1ce49U,
  0x60341806c5e88edaU, 0xe7c4d7b0fe30c321U, 0xaffc5d14b239469cU, 0xdce918daeb30129eU,
  0x263eaafbf719da14U, 0x42fc7f1a1956d4c8U, 0xfc6361fc930f30aU, 0x8d40947efef0aa4U,
  0xb90cfaa1c2c5cc00U, 0x83217e2f3de243bU, 0x16e95ac54a06ccdbU, 0x2f81c6dbc2f60fe9U,
  0xc2d9fb04d93e1cfdU, 0xffb4e4f8e3d4fac7U, 0xca220b0b0de7ebf6U, 0xe71507e9dbe1b800U,
  0xb726d0f3ea3ded11U, 0x3911dce306e2bc5dU, 0x47ff000cb31a3015U, 0xed701b0f184b2500U,
  0xf1a93739c41b8156U, 0xffaef5cdd1d2f72eU, 0xb934f5ef1307f40bU, 0x326bdee4fc43fa7U,
  0x8f23ba00939bbb19U, 0x9edfe21b421eddd0U, 0x4ef93ef64d30f151U, 0x4c813ac6e81dccf5U,
  0x31b5daeefd230c05U, 0x1e9a0a3a02ff2cdaU, 0xf5d01b459c27f908U, 0x14b3c6319c4c2255U,
  0xfe28d8fb39da1de6U, 0xc2d2bc0f20e3f8b7U, 0xd3ae02df08a638f9U, 0xeb0181dff20fa871U,
  0xe028ced605e8040cU, 0xf8c5b9d5f623c987U, 0x6a1e3d10f8b601d3U, 0x9cf767f6b6041d19U,
  0x11bed1a29fcbadfU, 0x8131fa1ae800fffaU, 0xe0d2bd11f6f900f8U, 0x1c162a25f814ee31U,
  0xde11032b1b000d00U, 0xe8dbedda162df2e7U, 0xe30ad910f1a3f60cU, 0x3219c2c5f4e801b9U,
  0x53d6ba31082808ebU, 0x2f97141c32ded831U, 0xdad9e5f5121d4d34U, 0x1e11fb641d4126ffU,
  0xe8b87608d439f1f1U, 0xfde1f15facf1e856U, 0x260736eb7f22d32cU, 0x264435830004e503U,
  0xdfcf1de704fd02d1U, 0xf3c589cfdb2410c4U, 0xf0e4d02b2e23ee9eU, 0x18fb303edd2b370cU,
  0xfc28c4f2e9f61d81U, 0x2d1be2991ef34d0dU, 0xff942fa96f3e6c6U, 0xb6fdbb0dd72df523U,
  0xa8db1ff3cfe8f92eU, 0x945f811e6f2cb0aU, 0x3c12241481e9012fU, 0xe1f7e2e146e81218U,
  0x1b25f0e8db20d5cfU, 0xa3e8d2fc5020f1e3U, 0x48f033ee272046f0U, 0xde1333e3cdd23e98U,
  0x32b05e39229043aU, 0x57dc26d4defbefU, 0x21eb43811d92d7f8U, 0xe4effb4013cd2fc7U,
  0x30ece62450c3c7b6U, 0x3e06f9e721008fcbU, 0xdee609fcedf4e006U, 0xca4420bcf7a0b3d5U,
  0x6ba32c5af45d010eU, 0x5512d52d39be1b4fU, 0xf4f0e8f1b5424040U, 0xe95c29f32135ac33U,
  0xf33d25ecc8601b18U, 0x81e0efbbf4075b5fU, 0x3420ea2afc0fd3ccU, 0xe00ae1f811d74297U,
  0x1c3aec38cdd8ce4aU, 0x9db4e13cf8ab0981U, 0x3aecef0a344b0045U, 0x3d5212ae3feaca2U,
  0xe700d04bf1b645ddU, 0x66503136d9fc1ed1U, 0x16abbae5364cb901U, 0x49e4cdf404f3343cU,
  0xb2c205553b052717U, 0x291fced421f5d71dU, 0xf0c51ee434a62dc4U, 0xeae8ebe7e5cecc6eU,
  0x3fcd81b92f0c07efU, 0x7e03e6e94e120538U, 0x4bc7e209e510cd32U, 0xd00cc534f25d315dU,
  0xbc902632f0cde5efU, 0x520ab6f37fbf3509U, 0xffd761eae2fc18caU, 0x164af8031bfc3f03U,
  0xbfd647f4ee184431U, 0xd8c0d236d0e3e6faU, 0x3e6f2f4b9cfb9f9U, 0x3f1ce60e1119322eU,
  0xbad9fe7f05e5fb10U, 0xd2cb5fe331f4d508U, 0xec1e2affd5f64010U, 0x3eb9dcf82747da18U,
  0xed3221ebf2001013U, 0x89c7fafa285dd118U, 0xc4e19dffe0dbbf0U, 0xe1f203e11430074cU,
  0x27eafee4bf280c02U, 0x1ed60bfb0acf0abaU, 0xc0eacad692d71da7U, 0xb70bb4eef121b1fbU,
  0x2e0331fbdde62afcU, 0xed34b912fa22001bU, 0xa18bff811d531d1U, 0xe82c2cfa1be81d81U,
  0xd434603fe12e1a20U, 0x32e9931dd4425deeU, 0xdd1f262429433183U, 0xf8bd251409d6def7U,
  0xa77c1c4f7c4e7e7U, 0x812217162e64d995U, 0x2ba6e2bb08671e4dU, 0x796d9319c56334dU,
  0x4004167ff5ca0af6U, 0xf5cde11104c9ce1cU, 0xe932d025e71c22b7U, 0x2b3e2af60ffb1cc9U,
  0xd300bfa0df25e5bcU, 0x2616cea1f5eed000U, 0xfc4541bb23d54a0fU, 0x1b191edcea02e8edU,
  0xaccec2f9fa07c0e2U, 0xcabf21068dcafe81U, 0xf6d241fcd3f2eaU, 0xe1bb1edd89be3904U,
  0x55efe3333320e020U, 0x7722000d0cd500edU, 0x24afcaf528b80812U, 0xe51fcce52aec2909U,
  0xf7f30be033f51519U, 0xc1115fcbf000dbc1U, 0x3bb6ab9dc9c5e04fU, 0xe9fbe6fc0b220ae6U,
  0xc5c4492d03d4f01fU, 0xd51fbce3b0b034c3U, 0xd34ddd730dccd6dbU, 0xd504c7810adc1501U,
  0xf7af18ea24110329U, 0xe5f3f2461e141946U, 0xf9d4011552f908f8U, 0x5d0fed05f656b9d5U,
  0xcdc70f35ba3d1a38U, 0xe10aea2cd0265228U, 0xc7e89b17e5d5dde1U, 0x281de0fd64000daU,
  0xe5fd185aed2fea5aU, 0xfa30ce4a29093117U, 0x25a53fb31efcadefU, 0xfdc281edf8ddf542U,
  0x1a310039cdccbcd5U, 0xb6ab0706e3e7f916U, 0xede308d9010de408U, 0x3f627f53adedf02U,
  0x1508ecfb1f2c2a30U, 0xee276718cc442a1aU, 0xef570744c439e212U, 0xf61ce649e0be57fbU,
  0xf9da1d097f632002U, 0x1fd57dda26334735U, 0xeb3a6dd5be20ebd9U, 0x9fbdfdda35d70900U,
  0xccdf07e3ed40c7U, 0x25f110b1fa1bfb05U, 0x10904c101bdb391dU, 0xfe19e8a8da250802U,
  0x44e2e3d7111b39ddU, 0xf193eef41afdf228U, 0x56e22a14f181cfe9U, 0xed0aa1f650e7370cU,
  0x20d31108f92afec2U, 0xd10e0a1a1904aedaU, 0xecf8ae0c19d5021bU, 0x44c2bfbe5fbd1066U,
  0x2df5b71dfe4ce5e1U, 0x1ff912d37fe8b1e1U, 0x452d3be76ff902e8U, 0xe443c8005e2f1010U,
  0xd01e25c97f04e40fU, 0xc070bcfddbde470fU, 0x18abed0e6c03b8d0U, 0x3ff404063dae050aU,
  0xdaf4c803089848e3U, 0x41eda3df55f2e191U, 0x45c9014d61abb722U, 0xce07bbc9ce902de1U,
  0xbb0305e1140c3ae5U, 0xda19c7fe3014f133U, 0x1216d0e8144501dfU, 0xd231e2c27ecaec6U,
  0xf003ecf152e801eaU, 0xb2252d0e15456809U, 0xf3fa01283b0c1e14U, 0x1feccfe68147fc15U,
  0xbae2e0f9f8dbc7e0U, 0x8b11f2c120473a53U, 0x7fab0314dfa4d7e4U, 0x1e30ef03e118d91cU,
  0x2abfecd92607f9a1U, 0x14c126072deaf9a8U, 0x2207d6d3acffd138U, 0xe5ff30156ffb6e46U,
  0xf12cef9a25dc10c8U, 0xded8e27f6bbf41cU, 0xe2fe4f44f26e481U, 0x29dfd334a447eda6U,
  0x5ea206b2cef1ec1bU, 0x2cbc1246e207d822U, 0x66fbdf5ade4d9fd5U, 0xd446f67b15e6eb19U,
  0xba1905fbe4476823U, 0x49ae82b316d80d8aU, 0xa561e821fb2739b5U, 0x15f91ec0d0e8d0baU,
  0xc7d2cde6cdc8eab1U, 0x3eeef6f2eaed463bU, 0x1581d6e537442f3cU, 0xfc310f0f043cca1eU,
  0x812bd7eae955d019U, 0x1302d9f5bf412656U, 0x12f0400dd20edecU, 0xd12c01161f2d12fdU,
  0x575fbc31c6c299e2U, 0x2b594017ea33444bU, 0xf7f92ffb132726dbU, 0x1719c21be4cf28b9U,
  0x2beff79b4bd1c538U, 0x37ddaaea213b33e4U, 0xee37813fa6de1e1U, 0xcb202dacc2f0e626U,
  0xef95a87fd2e646aeU, 0xc3d6473b90262b21U, 0x5b149eddd54d9befU, 0x65440d264be997c8U,
  0x1fa01222fc011c37U, 0x8c0d69bfce78422U, 0x2758993504003009U, 0x253f66d8234f9eeeU,
  0xb757d1d92b15bd2eU, 0x81b9a542eb2b22e2U, 0xc5cedcd504ff4858U, 0xf91dd2ac34550ae9U,
  0xe9e41db3db35e8f9U, 0x3350ece29111bd3U, 0xb81c2b030cb68f00U, 0xbe380908e1e2ebe7U,
  0xdfd727ff0703d3eaU, 0x745c5ee812d592aU, 0xddb5acdedfde2310U, 0xd33337eb521331c3U,
  0xbd0700d8a0940ccaU, 0x2805fc50f6d212d5U, 0x7ff50ae230ae992aU, 0x8e0eff5fd5fc3005U,
  0xe028b5d55ca1f3f3U, 0xe3c2cdc3a9ee7c2U, 0x38908a08b414edd5U, 0xb8eea9edf4b8ee01U,
  0x39fd0a1eade4063U, 0xa7edcc48e0121c4dU, 0xf20fe083129dd6e4U, 0xb55bb6e0ba0bde2eU,
  0xb9ebad5e834f0e2U, 0x3a28dcd162401e61U, 0x7ff33d02f2e5fbdbU, 0x18f4e7132e1846d6U,
  0x10fb2be4fe022212U, 0x1d2e24f4eae82c81U, 0xd22329f4fa2a05e6U, 0x14f3faf0c1fa4540U,
  0x15ff360112ea383dU, 0x1dffb0d220eaee03U, 0x2817f6fcd2d5ebb3U, 0xf944f61721eee1f7U,
  0x8a204714eabe761fU, 0xb22ed56ceefcbe4dU, 0x72af6d97ff71ad2U, 0xe7c6d668232f21d3U,
  0x4434d2b9370ed50eU, 0x14e700c7d9d2f290U, 0xf0eabff13d0e42eeU, 0x220d950b8b5dae49U,
  0xdffd643074830617U, 0x2e7113fcec8a6U, 0x3f498108d81828d4U, 0xacd211eb2016cf0aU,
  0x4040fc173a0ccd0fU, 0xb522f3161109fc93U, 0x2619a13c195907dcU, 0x79f5ec098f32dd28U,
  0x24a2c68106393989U, 0x3f1a8f10eb2df714U, 0x5b47dfc494c0fbd8U, 0xa22b302857a61288U,
  0x3b2b131fb213e68aU, 0x4c2040dbf032473fU, 0x1d8dd13e89f3f133U, 0xc165d148e884cc8aU,
  0xc0dc3e2ace3101d3U, 0x34e8f0dc3812dc38U, 0x6f5deddef94a8ebU, 0x9a10c1d8cbb2edefU,
  0xe2135cc5e06db81U, 0xf14311c7f958cd12U, 0x33edb0e40efd2fU, 0xfa2eabca373b301dU,
  0xef1ffdf735ab4ad6U, 0x480ecf31b5fb347fU, 0xead83ad21a03d0e9U, 0xf2c7ed09931b960bU,
  0xba0bccd60df8fe1dU, 0x96f52faf482ce5c2U, 0x3eeb02fffc1ad5baU, 0x53be221530f529e3U,
  0xe8ad3cb9d7df2c01U, 0xd541e2cd9131fa7bU, 0x34d0ec0e52da0c0bU, 0x31c2c2fe2d25e8b6U,
  0x38b42d2658d8feeaU, 0x3ecadb2a342d02U, 0xcd28f71dedbaa05dU, 0x81e0df05cfe71c7aU,
  0xc6ff24f537c7d52aU, 0xa837bfe3f5f61f0eU, 0x44811d0303f9d258U, 0xde24c3e41ee8f421U,
  0xe6fb09fee8bf1901U, 0x1a0aec3f00d916ecU, 0x16fe0a305c0f223eU, 0xfb230b20f7d53441U,
  0xf4081638beff2225U, 0x111b577e92a76109U, 0x5f326a426ded423U, 0xb402843018812e1aU,
  0xcf41dec28b3ed0cU, 0x9636181d49fab8d1U, 0x5821381f0e36ad29U, 0x39e4133b3858297dU,
  0x27394adc3e389264U, 0xe22f3ee216e1e2c1U, 0x249754012209b123U, 0x63caaac5e2811345U,
  0x7afedd1a03ac8123U, 0x7d15f2a35b8a2c6U, 0xdee623cd01464b38U, 0x100146d448439d0dU,
  0xf3ba13d0787fd7e3U, 0xbd5120d43e07c2ecU, 0xd7bfbba6cefed229U, 0x15f7dccdbf92e841U,
  0x5b390ad155d1d041U, 0x3e6422ec0f98e40bU, 0x83b2fd19d3fd8b7U, 0x113dd632082c0e36U,
  0xfffff7ae00000b86U, 0x74500000403U, 0xadb00000a9fU, 0xc2efffff597U,
  0x53affffff51U, 0x6bd000005d2U, 0x16800000aedU, 0x72700000e69U,
  0xa00000063aU, 0x45d00001195U, 0xd0100000763U, 0xfffff91900000840U,
  0x76700000880U, 0xfffff81800000dc4U, 0xffffff870000020dU, 0xffffff5a0000050fU,
  0x2d000005cfU, 0x9d100000234U, 0x48000000a65U, 0xfffff314000004e3U,
  0xfffffa8e00000615U, 0x1ae00000b33U, 0x744000004d3U, 0xfffffc9e000007a9U,
  0x4ff00000763U, 0xf5400000aa1U, 0xfffffdfd00000757U, 0x13c0000026aU,
  0xb1600000479U, 0x56a00000893U, 0xfffff7e300000245U, 0xffffffb9ffffff8fU,
  0x2f61f4097f26ff58U, 0x40cdbd14d6c5b732U, 0x2d12b87f0bbdc481U, 0xe3447bb3ffdd5e8U,
  0x917da5cc37f17f08U, 0x1c0edf0140fa7f1cU, 0x1dfd81f4d8e7dec4U, 0x76d7167f023a20bbU,
  0x81dc2190136c77beU, 0xe47fef0b1c022b08U, 0x8139c6c40bb899feU, 0x543a0f682a4e58ebU,
  0xe83ad754377f2bbdU, 0x937fd9e61d816ce3U, 0xf37f501f17a53ef7U, 0xd57f52422312794aU,
  0xa27e18cd78895004U, 0xd31224d92ccedf7fU, 0x53e7dd7fc8126612U, 0x2c3a2c597f1e60d1U,
  0xecd175d5287f5124U, 0xdab8f10bcc163740U, 0x54a97466a99481c3U, 0x81def59af9f7cf7fU,
  0xe74feff7d2ece6fcU, 0xf081e16de9145b70U, 0xcff481a332e9c74dU, 0x5f83405aa3457f03U,
  0x5725fc18defbf54eU, 0x81cf6ad08d4c7f17U, 0x48331aa60f9e576cU, 0x7fd0d06f7f523a6eU,
  0xbbe9d35c0b562bccU, 0xd1af79333f290e7fU, 0xea53ec817af789d7U, 0xb60fd5de2fdeff7fU,
  0x7f1f0b4125b83409U, 0x16c6e73904985521U, 0xda35b78d7181814fU, 0xdeff31fc1d230e92U,
  0xb819dc037fcad25dU, 0xebc72981c49bc7acU, 0x7f4ff9a35ed8d47fU, 0x7ffe7d489e39f4e4U,
  0xc74ceec878f92202U, 0x5e3ceb1f3291bbe4U, 0xedda34fbf281fc7fU, 0xe4cde1dbd1bb4264U,
  0xfb40b64072dd81e4U, 0x9bb4dfdcbcf37f87U, 0xb9612cf3b881a6beU, 0xaa257fefc81c47d6U,
  0x55a4fa7f03fa5306U, 0xfd10160fd77febf5U, 0x165587227c8142f9U, 0x7ff9f06dead464c2U,
  0xe8a7ff81f035e0f4U, 0x26ebe95308580798U, 0x81e085d629f7812eU, 0xc9ed0abedee132bfU,
  0xe5a4a0c4958100c3U, 0xc48124e0ad3597e1U, 0x2f22a62b23eb7fe0U, 0x647f283834e1fc2dU,
  0x697034cefe44819U, 0x37dcf515ed818124U, 0xe2f5f6f5cc6ecd48U, 0x3b00ea0b81a8ab9aU,
  0x3cd9e47f244d44d0U, 0xe1681ebf10fb89dU, 0xcec960ebb17ff4ebU, 0xec0b479ab1eeab81U,
  0x9d1fffff80dU, 0xfffffa82000000d9U, 0x5f1fffffd59U, 0xdfffffd28U,
  0x863fffffbdbU, 0xfffffc92fffff9d2U, 0xfffff58800000266U, 0x131fffffb16U,
  0xfffff561fffffcbcU, 0xcb1fffff944U, 0x56efffffd6bU, 0x444fffffaf9U,
  0xfffffbdcfffff895U, 0xfffffba0000003bbU, 0xfffffa2afffffaabU, 0xffffffe70000093eU,
  0x11dfffffb97U, 0xfffffc4600000487U, 0x1e00000c78U, 0xfffffae1fffffba6U,
  0xffffff4ffffffca4U, 0xfffffaa2000008e8U, 0xfffffc5000000cc0U, 0xfffffd24fffffeb1U,
  0xfffffb80fffffc7fU, 0xfffffe81000006a6U, 0xaf500000935U, 0xfffffe0f00000934U,
  0x258fffffb19U, 0xbd6000000ffU, 0x6d1fffffb3fU, 0x977fffffda4U,
  0x1e1b629c5fc0cc4U, 0xf82d26e625dbfbc2U, 0xf3e41a540feb01b0U, 0x83811f3dd629062eU,
  0xe2333cfd2dda38d6U, 0xdbdc2ac94abe0118U, 0xe8ffe4f21b1d1ebeU, 0xf8f8b0ab1ee7f8bdU,
  0xc5a6c931f9c51202U, 0xfed7efea374b5ccfU, 0x1c980021586fd97fU, 0xf232e244d4256006U,
  0x2cf6efe5bc41817fU, 0xfd3d3045050d173cU, 0x3bfddb440504e6c1U, 0x2e3e05ed631c570aU,
  0xab0731d7ad601bc6U, 0x142acbeadd694481U, 0xfaea4ff915f91a5dU, 0xa2ab0ffbf13e6f9U,
  0xa332b27ee1f82bc9U, 0xf8f10104154fe3faU, 0x321001ee534e7d20U, 0xe03af9f41ad32ad9U,
  0x3de84cfd1c23f6b8U, 0xcce3e849899f480cU, 0xfbf9ed6618e64031U, 0xc54109422d330101U,
  0x608037fb7b7d6f3U, 0xdd64f7594eef3c2fU, 0xf0e13bdfe70f16a5U, 0x16404ce141320e2bU,
  0x1e1a19bdead41b40U, 0x3bc481e00e0ef748U, 0xe83cf82c0bb39adbU, 0x29a23ee8f8cb1934U,
  0xe831fe3cf82af7f6U, 0xc6291eea2a1bf834U, 0xd7c314e405cdf4b4U, 0x3de6bcd404cc36d3U,
  0xffe45e26fbd9b7f8U, 0xec3d442cf8d414U, 0x56df29bba326c3f2U, 0x709c5a40e1823e6U,
  0xf1251e81d5130205U, 0x44ead51fade0fee6U, 0xe0f4e3edbe34d94aU, 0xe8b713bfb2dbfe16U,
  0xbe17c9fd34f8fa58U, 0xf239051be9653525U, 0xe014ceddcc232a74U, 0xd5dc36450e0c14fdU,
  0xfec5c8260a046d16U, 0x17f18e819e0144dU, 0x29fc44fd0308d31dU, 0x1f5cdfc2248ffb7U,
  0x5f4ee9d3adc11b1dU, 0xe39065e2f4650951U, 0x11d3c2c7100cdc30U, 0x53220220db4b2c46U,
  0xefedac50eab01df3U, 0xf6121a2a81be69a7U, 0xfa0de528df0437b5U, 0x2084e7c0d704fba0U,
  0xbc3b1d5dfaeb36c3U, 0xf0f439a5fdbf2efeU, 0xec7e6c8221c8615U, 0x710a2928fa250c4eU,
  0xc3e20ac835a4223fU, 0x251d1605b2fa37acU, 0x3495d4ff437fc9daU, 0xddbeb615bc13bb6bU,
  0xb7e49fc70873fdd4U, 0x1a90eb2ef83a0bcdU, 0xde38f6e7f1b8fb4bU, 0xf32eccad24b15914U,
  0xed6bba4abad90824U, 0x54cbeb36d722c897U, 0xf420e8161c1ed20bU, 0x5ed3bf0d970811bU,
  0x2ee656e833e41beeU, 0xfbbeed1308020281U, 0xff1ae8f7eafbac07U, 0xed14313ebeffc33U,
  0x1fcbe001ed25e7e0U, 0xd8d0e3c9210af31bU, 0x1fefe6c93df205feU, 0x9060fe943ed12c5U,
  0x19eb84fbf454d6f3U, 0xbfcecde4e9f23c2aU, 0xcfa50de61afd5dc1U, 0x5e8b8b5fc1ffedbU,
  0xaaa15a20e07df5fU, 0xed17e5a0ce0bf51aU, 0xd5019302d4f1e1dbU, 0xf2281ac9beecb281U,
  0xadfad7a9ef040adaU, 0xcc75284f6f27ff81U, 0x23fed4f1d5a92ec4U, 0xb2b246f62de58a15U,
  0xdd392bd0c74e20b0U, 0xb92cbc0c3bfc16faU, 0x50d1cccd3ba0f22U, 0xd04010b6a909060cU,
  0xff1e0512b22cde23U, 0x61d9cd2c42efc54aU, 0xf9cae65696ba0eU, 0x53c61f2925d3521cU,
  0xb741ea0a39272112U, 0x22d71d0b070d01ddU, 0xfa812151b0c9ae25U, 0x70d10c1dacfe020aU,
  0xf92910ddf1f936fcU, 0xeeeefd44cbfcf3dcU, 0xc8d7e5ca08ecebU, 0xed04d51ff881eff0U,
  0x13d50a1418e1061eU, 0xf0dbe42dc8eee6eeU, 0x200df53ac7080514U, 0xf40adff2dfeaee0dU,
  0x1c1cf83b2a42907dU, 0x7ffbdebc2d10b5a4U, 0x401c8ac9b1df3b59U, 0xeaf2d25da5c068c8U,
  0x89bc0b7850be1225U, 0xcab606ba5396d8ebU, 0xb1d9e90c220dcd05U, 0x36eed2fbb105d1afU,
  0xc4f95f52eac637dcU, 0xe1bac4e6dd1a6912U, 0x10db2f31bd3a0e25U, 0x1cb5e1fe522e07fU,
  0x621fadb1a23fef8U, 0x31c3eda0ff24c1ffU, 0xdeac16c333f05cd2U, 0x5220b106fb51da23U,
  0xecadc2435cf7bc73U, 0xaa07e4119fb31e2eU, 0xf30dcc66ce1fad1U, 0x51f7d1815d080352U,
  0xdbe1cd17d5f9d3ebU, 0xd89bfd71ceff173aU, 0x510d4d6e02d4becU, 0x8bb842a63dfe0ecbU,
  0xa92af4c2f8fd24daU, 0x7f62602f21a01aeU, 0x13021522c830a0f4U, 0x11fc0f12243f1427U,
  0xa6220a1ae8e681f9U, 0x1bddb5c9d62200e1U, 0xfca4f2fa13c9f537U, 0xd9ffdf3548a9a991U,
  0x9020d4c156d764acU, 0x131822422e480166U, 0x11f8814e90122921U, 0xc6ae23de290386c3U,
  0xe85830e7094fd890U, 0x7ce201a474c00517U, 0xdddef3f72817f0U, 0x5249d8e807be562dU,
  0x311ae6ef3317fb23U, 0xc77f9e0cceec070cU, 0xeaf4f4ebd526004dU, 0xc2d4de26090a1802U,
  0xe92daa1be2e90f27U, 0x12e9ed29e4bd0218U, 0x12240a463cf91eedU, 0x1c21b81323243d3bU,
  0xc83145ef3c0edaecU, 0xdb1d5956e6f017cbU, 0xd5ddd506ac91507fU, 0x8db0f1e54ae31d50U,
  0x98babc4129ca2738U, 0x3cf126212b2e050aU, 0xbbd29d0c5200e3f3U, 0xd8cabfd3c8417adcU,
  0xce125716219d288U, 0x37d1648d81a4b1eU, 0xe9f532aa13da6719U, 0xdae0ce24120d1707U,
  0xf42b0ca742c65f7fU, 0xee78bbfed03dfb27U, 0xc6c2c34964578bb4U, 0xbd4c930e9eac367U,
  0xf93433dc1fe80922U, 0x210d18cf103cd124U, 0xe302b1d28ede8e8U, 0xf8f149ecc6f507d4U,
  0x2bdec405db16d4f0U, 0xe9f7daf3e91b13e0U, 0x8124160feded07ecU, 0x916eef31c060b3bU,
  0x5d39bbfd0124ec24U, 0x2805491cea1be22dU, 0x18fcc636ed2845d8U, 0xdb48e01d076211ebU,
  0x4dffdf235ce61406U, 0xbc1e01bfe61eeadeU, 0x1631a7f504d4165eU, 0xd43f4d2858ea7f16U,
  0x454323014ac06f29U, 0xdf410f1a99f2e198U, 0xe903fe2b6dd9a724U, 0xfe3ba157b1ca10eaU,
  0xef4e5a02231e71fU, 0x4cf0df16eb1728a9U, 0x7f4f03d9129eeb00U, 0x4f1ae560bbbb56c2U,
  0xc21dd62f3c3ddd39U, 0x586d6d5bf51f476bU, 0xbe0b6beb1401e7bdU, 0x52628b94c9e5acedU,
  0x814a1bea40f9bf06U, 0x32f9b9f04e3e14f6U, 0x1c663f011c0326e8U, 0xc3c93b1543b8b34bU,
  0xfa05c53512d5caf6U, 0xfeb1fcfbe4669a08U, 0x11ecfd4fd249cdbfU, 0x281ee3bbb892aa81U,
  0xbdf6afe0fc1b02baU, 0x630122f8fbd0c885U, 0x75df61afddaf207U, 0x9de6a0d6d715453eU,
  0xa277648083246ffU, 0xd5d492002e2a3c52U, 0xdcbcbb8119b9dc06U, 0xf4562f29171dd9e1U,
  0xdcbfe320d73b8702U, 0xea9db0605b1b05dU, 0xbf2945fc164d1cbdU, 0xecc1d7fa57df1152U,
  0xa1a142d015a353f2U, 0x77e4d6f2f21dabddU, 0xa2706371181ff2ceU, 0xd068fb051deedbc8U,
  0xb8d9fe12c3d6baf0U, 0x3b062bea2d81e2d3U, 0xf2e8c8b30e6f3cd8U, 0xd63f9add6386ab8U,
  0xb324eba9f44b41ffU, 0x9db37f494f31cdb5U, 0xfe6da3bc1e4a7d15U, 0x32a14c2fdf4be34cU,
  0x621130e8f120be40U, 0xd421e9d0e2091903U, 0x4bffb5fa93cddb1dU, 0xc941e8ee22e19a11U,
  0x2840db422123290fU, 0xeaed9ee9c80fe0e9U, 0x6033f451940a9faU, 0xfb490823d9cf21d5U,
  0xe1e8dd7f32f018f4U, 0x35653d050be3b6e8U, 0xdd2d1a004288fed4U, 0xbd41dcfaeceee9fcU,
  0xfe0c54f915c60a12U, 0xc226fcc704c63445U, 0x9ce5df19f2c017f1U, 0xcae21dbb15f5f6ecU,
  0xcb1441061e310009U, 0x3381c1d6edfbe50bU, 0xfae631bd10673ec2U, 0xd0fbf229b116e8ffU,
  0xbc26e12ff905c2a7U, 0x692f240ada1bf616U, 0x47d5042bb3d27fe3U, 0x1df501fb000ce2dcU,
  0x16f801f0195bc9f6U, 0xfb4ddda914f3f6c6U, 0x3ec9f0160ff212f6U, 0xbbf00803f12bad35U,
  0x12bccf23060ef61aU, 0xc6c3b2fcfe5217bbU, 0x1cf30b47ddfbc416U, 0x2d6ca1709c9f03fU,
  0xd734d8fb5756e634U, 0x2338490708ecc20fU, 0x10c201ae272a0d0eU, 0x168130bd2824e9e3U,
  0xac032113e7e12ae5U, 0xb85bebfac6985a81U, 0xf6edde480747f7e8U, 0x14d3e95ced380499U,
  0x2e6e01e5cc3e00bU, 0xf10b0c1bf1be03ddU, 0x1af51753edfbef23U, 0xca6294da1af7073fU,
  0xb18f244309ddfbdfU, 0xeee00f192196d0caU, 0xaf941722fc0b1626U, 0xfd116cdda0631beU,
  0xd3def8e1d4f1d24bU, 0xcafd810f2743ea26U, 0xd0ea1f2c4fb00cfeU, 0x14f3fb5c234f1b96U,
  0x1c1d1137eddd23ffU, 0xec0bbfb1b8b4ef22U, 0x378edff1160bf5e7U, 0x470148ec262eef11U,
  0xe741e5d4eaee20d4U, 0x940bdca1071d0afdU, 0xa1557dc362c29dfU, 0x3126fb44e123e67fU,
  0xd6eee4053705f5f9U, 0x8127effbc0310ffdU, 0x178fd846e3bec30eU, 0xd60e5be4e7f0cd21U,
  0xa2b2e009d2dd1d1U, 0xef5604fb0b1908e1U, 0x2aadfbc41a25a1f3U, 0xac1c0bb6141164e9U,
  0x35fceb1432f1eae4U, 0x2eb9d4a0221bf5d6U, 0xe603072af94adbf4U, 0x2cf87f185c05102fU,
  0x3e0ffdcceaeaea0bU, 0x1b00f7fd33232e0eU, 0x17448c1711c6f4f1U, 0xd2fbf1c90327c843U,
  0x318d32edf029665U, 0xbe24453108f662d2U, 0x253b1e502e2d01f4U, 0xec4804dff22f27b9U,
  0x3cfce6e12d004de6U, 0x43bdd656b5eb00d4U, 0xdbc0ffd34ff3dac4U, 0xdd028a37810e1355U,
  0xc23480e1f3dfd3fU, 0xcaf6e126f18121bfU, 0x36bac8b2b21a582dU, 0x2943f1e021fe0e2fU,
  0xdd2ad8d903d4c51dU, 0xc14c7316d4f60236U, 0xc918f115f2debad2U, 0x503b6d7d9e2ef11U,
  0xe3fae8133226edcdU, 0x285528e5faed0debU, 0xdb30140522c852dcU, 0xced9a01a0cb516U,
  0x40392a17dbd207d1U, 0x21c301b126560b3aU, 0xff2a0837251004eeU, 0xd9cb1181f7fb01dcU,
  0x250f04dce7bfc31eU, 0xfdf71c66ffaf1211U, 0x53354e81e309642cU, 0xf5123bf5392039f2U,
  0x260b423b12bce343U, 0xd42104bec125f3f7U, 0x1d1dd0fcc9f84841U, 0x987b584ac36abb6eU,
  0x23d74b2122072f04U, 0xd5f5fb3db4f64ae7U, 0x9af326f0dae710feU, 0xd6c41de532d71d0dU,
  0x22ef1fdb03eae8baU, 0x2247280d49f61f38U, 0xb1b12afe0de87fd2U, 0xe5d90cdc28d5c9e8U,
  0xdedc9d122d9eb32dU, 0xbc0ba24e746fe1cU, 0x25eb06e1fbb977e8U, 0x1feee3125ef4e028U,
  0xae5c371cf94c1cffU, 0xda87e6fa1f2fc801U, 0x1efdd159d4f740c6U, 0x5b057ff1ff3edefeU,
  0xdb3927e792037f05U, 0x73f7f7212663e5d0U, 0xd702df6e062a3222U, 0x28ff19cbef3cd2b9U,
  0x1e25e1a708a25ffdU, 0xc63719b819eb2a23U, 0xf2c06bc3f05def23U, 0x58c1002d4420cadaU,
  0xf2e63a383ddf1ac4U, 0xc7fae0e3cce46949U, 0x26f7fabf31dec252U, 0xcb11e7d2c9d0b228U,
  0xf6f502632cecf331U, 0x5ff211cf7fc4c4e0U, 0x14caf5e81bcddff2U, 0xcee0e51ca01b0e1fU,
  0xee1dd23f33c3a331U, 0x8485fa39119f1525U, 0xd7e108e6fec518fdU, 0xe4d7b5d61eb24efaU,
  0xeac20ae66a537fefU, 0xb12c8e6681e19fdU, 0xb73628bdf7073f84U, 0x91d0ff89b2b3f01U,
  0x42a332b35d0dc9b9U, 0xafc03b942278107U, 0x1bdc3bb44e9a1c32U, 0xa1ebe05bf24c60dU,
  0x1105a02bd4bf3ee7U, 0xa1a5e814143f2927U, 0x1fbc4602321a0813U, 0xfe0bd61f3f004ae2U,
  0xe5ac093513a4bebaU, 0xf8b11fa0cd174c65U, 0xfdf629163c16beffU, 0xce8de46e6fd40fbU,
  0xc746bc573f6e3325U, 0x11e8f40e5bd9ac83U, 0x33eb2545d7811425U, 0xa5ff0b2d55b1b23U,
  0xf9c71142ca43e21aU, 0xdd3881265b3e9234U, 0xddcc2ad3f506c9ceU, 0x89e92a14319b3009U,
  0xe4f13019fdeaa6ffU, 0xa1280729b220db9cU, 0xcab21ae2debd23f8U, 0x2c4c060f04041450U,
  0xd5fd140c3c4fe3b9U, 0xe9021fb329321318U, 0xd918042f4eed3c1eU, 0xeadf29f6c73509d3U,
  0xd3eff247ac08369eU, 0xf67f07e3ed3fda3fU, 0xe4fd74fc46fed008U, 0xf119eee457d0a541U,
  0xb3cdbf17feaab7a5U, 0x422507d40b2a6cceU, 0xac0d11d68836beedU, 0x2e1757df17ff01ecU,
  0x2728bfc71c5a10dcU, 0x811204a036f7f7afU, 0x32cd4024d315259fU, 0x120afccfdb27fc02U,
  0xf8df0ed33b3cf085U, 0xd8312440d4b2f5caU, 0xe6c637e31c38d2adU, 0xe10f042622eb83f3U,
  0xfc4d1a3c24380b50U, 0xa50481d0f931d7efU, 0x220a2402090728e5U, 0xbe3730c0d1f1132bU,
  0xdcaff0d01e2e12fdU, 0x266611092b274209U, 0xcf003f35fdeb48e2U, 0xe020813bddfcd709U,
  0x2e1a4d2eb5dfc32eU, 0xcd0b42a0310e9d8U, 0x1433ca01099b5a5eU, 0x191d210143c8e956U,
  0xef12e55c054e070dU, 0xd138056711913c29U, 0x1eb1c969ef043b33U, 0x2dcdba523d352c32U,
  0x5002d04d5e20833U, 0x7f3de8e109fead1dU, 0x10e6cfa5fbf9c036U, 0xedfd090dec0654feU,
  0x46d74cdc2af5d1ccU, 0x1a0f3baf27cc17c5U, 0xdbd5debbf0241246U, 0xfe201240e64e7bc3U,
  0x9620bd21320302dfU, 0x7ffcfede4db734daU, 0xf3d4341c0c592108U, 0x191b13f66e07242aU,
  0xe6eee05d1cc76f6aU, 0x3addb4be597fce5fU, 0x6f537ec64a1a3a02U, 0x9c506fc221fd665U,
  0x4341b6d64ed207deU, 0xc9fa10f103da09b2U, 0x13edb216ec0eb4e9U, 0x70a3d9b114cc5d29U,
  0xd9cb1237a1fde947U, 0x38d0ab02c63df51dU, 0xfaf3f307234c16edU, 0x14ef0258b8bd0606U,
  0xc32c6a592c462a7fU, 0xed04d57302e4f644U, 0x2cc6a003e9fecd68U, 0x35d2c39edaa2e6c9U,
  0xcddb512162021c3eU, 0xeb4513f71240b5f3U, 0xc7cf02f1edc27f37U, 0x8fcd1e23110ae3f3U,
  0xec97dcd82131be09U, 0xc1fde493f2e80767U, 0x14dac005faecd13fU, 0xf3bc3cfb3e23f054U,
  0xf60a14ecd2fe1b32U, 0x6c2c07ca358107edU, 0x8d0231900172b07U, 0x848ee235adaec436U,
  0x2357090f051a29f5U, 0xceaadff742193f46U, 0xa61d011204e52c23U, 0xebf432250bd2ff0bU,
  0x51b1f45e7d0ffd0U, 0x6ec6880601a687e8U, 0x674d112127d7322fU, 0x35b5c6cccb58c392U,
  0xff7350dce6d936c1U, 0x1c48b281c7ab13e1U, 0xedf4eded827c11eU, 0x32c120b428b1011aU,
  0xc8be01c8d81c09d3U, 0x5d7d8222438ff06U, 0xd6ee3dcc34b7ab3dU, 0xf8459fd2d2b96535U,
  0xc125f86a2f21502dU, 0xfbee7f3f6bd54606U, 0x143e3fc2d40111daU, 0x13b692c91e47e9d6U,
  0xffffe86c00000beaU, 0xffffecc8fffff518U, 0xe8700000a06U, 0x737fffff036U,
  0x63a000005d7U, 0x1c0d0000069aU, 0xfffffe710000104bU, 0xed500000d85U,
  0xcfcfffffccaU, 0x37000001312U, 0x426fffffb0dU, 0xfffffcd8fffff590U,
  0xfffffde8ffffe94bU, 0x1746fffff071U, 0x5efffff69cU, 0xfffffbcf00000209U,
  0x3b90000083bU, 0x5e20000027eU, 0xfffff93d00000fc2U, 0xfffffd9200000b21U,
  0x4cb00000106U, 0xfffff48b00000170U, 0xfffffbf3000001baU, 0x6f3fffff1b5U,
  0x12d00000eb9U, 0x989fffffef2U, 0xe12fffff852U, 0xfffff33c00000733U,
  0xfffff785fffff2acU, 0xfffffcb5fffff458U, 0xfffffcf800000032U, 0xfffff9fe00000a88U,
  0x21344d1a18152581U, 0x4bf6117f431a3a07U, 0xed1fdfcd7fef374aU, 0x2da9530fd7ad0cffU,
  0xd9d137817ffb9d25U, 0x7fde98856ddc8939U, 0x8ca331e03128ecf8U, 0xe3a0c7815205cce5U,
  0x3e8a6a4d1dd81f2U, 0x33184c6d4245307fU, 0xa04ae9227f496707U, 0x57b52b2ac81147e7U,
  0xc42fd49ef97fd7f5U, 0x61b92872029f2781U, 0x19570c35627fc42bU, 0x3eb00f2581452adcU,
  0xf981dfd1b4f8ac3dU, 0x45e7b5b085fd81e9U, 0x4bdfe92fea81f0b2U, 0x9913c2f936d58d03U,
  0x81ddbc8dcade81ddU, 0x1aa381f3e7a2c6cbU, 0x7cbe5091d7ac4a8U, 0x4f1a7feb81b8d5a1U,
  0x7f3e5ceae8ee0b46U, 0xd13ff5505ef17728U, 0x53cd7f2cc9fe37d6U, 0x7a15577ffb0a193cU,
  0x81edbbc09f97ae2aU, 0xb5a2d781d961e1d9U, 0x4b4dad7f1b123ac9U, 0xd3247ff0563e27ebU,
  0x483743a86ed60e4aU, 0x93aa7ffb3b652f1aU, 0xf0e3a7812100d509U, 0x397f36211e13edU,
  0xe317f72459b7237fU, 0xd1ffd2aca8818511U, 0x1a1c5a743c7febfeU, 0x1581a3f7855d01d7U,
  0x375aa87fae1e83a9U, 0x3a2511cef3111ba8U, 0x434c37577f2cfbf6U, 0xdb81f95bbc376ac2U,
  0xb67f74386b7d200eU, 0x5f59073a18815218U, 0x90b1a2c70ea481f4U, 0x5d2a4a4e5a7fa100U,
  0x4c407f4279fb1ec8U, 0x2f5d81392a84414bU, 0x44748130f73e5cdU, 0x107f81690fa9394bU,
  0x75400a094902463eU, 0xa11f812dda2055deU, 0x81a461d7dc72a2c2U, 0x7f1cf33bc4fc75ecU,
  0x26053cf50535f31bU, 0x2c1d27217f7f0353U, 0x4a39f87fff0e0617U, 0x22b6706a5d501a01U,
  0x69b239277f303057U, 0x43813523e0290c0bU, 0x3a810845e44a3523U, 0xd281eb31f3a5bb2cU,
  0x8103f2cef7d6faffU, 0xba5f14814c6098c0U, 0xf0ed7f19d7d23e12U, 0xd47f2222cea9a252U,
  0x811f1605fade6846U, 0xfcd3f6a842a5cc3aU, 0xe881bdb5f4ef0debU, 0x22297f352a3c363bU,
  0xfffff1ddfffffacbU, 0xfffffbd5fffffd0fU, 0xffffff88000009faU, 0x108600001839U,
  0xfffff97cffffead2U, 0xe1dfffffcc7U, 0xfffffd97fffff019U, 0x11cc00000da3U,
  0xfd600000703U, 0x93b000016d8U, 0xfffff81a00001449U, 0xfffffe8dffffef99U,
  0x18bfffffee38U, 0xfffff3f1000009a4U, 0xfffff28efffffb38U, 0xfffff4bb0000149fU,
  0x1659fffff7a6U, 0x1bc6fffff0c8U, 0xfffff951ffffff52U, 0xfffff05dfffff72bU,
  0x168ffffff6a0U, 0xffffedd0fffff066U, 0xfffff9d7fffffbf5U, 0xfffffdd1fffff2a6U,
  0xfffffb0a00000b7bU, 0xfffff737fffff40aU, 0xfffff48affffed77U, 0xfffff7acfffffc4bU,
  0xfea00000b0bU, 0x583fffffa3fU, 0xa02fffffa99U, 0xfffff4eb00000d0cU,
  0xfa326e3310e1906U, 0xb6fd8132f273b2daU, 0xb40a1317fbfc020fU, 0xc0f72a4cf3e309f5U,
  0x18400b4fcfd0a0d5U, 0x15f551dc04d7200cU, 0xd9efb94eb7f434edU, 0x28079f0ce1f9c504U,
  0xda1aeff997a01251U, 0x472b522119111a16U, 0xf83a4b810cea0fd4U, 0x1e2ed9dcd40a16ecU,
  0xf116623386127efU, 0x3c24cdedd5b0d1e5U, 0xbbc52c7a7f12474bU, 0x2fca262fe757f20bU,
  0xf59bf93ed8d7d1f8U, 0x3b61f3d4e1fbf5bdU, 0xccc342e642ef4204U, 0x21652353547f222aU,
  0xbf29fe3bd42c9540U, 0x6e72dcbc2d4160dU, 0xfc1d3d00f21840c7U, 0xeebddbeb34ad08b9U,
  0xefd84f3d03ece658U, 0x98fff41feb2bcbf0U, 0xa5abd0f5bdbc2ddU, 0xbbcd43c406d71319U,
  0x17357f1d22d0fee1U, 0x9f4418d204f7d408U, 0xe714c5c3ea190ff8U, 0x2d9061cfe34d3c5U,
  0x1f22bec0f47f2d30U, 0xa3e21fea0cec0ecbU, 0xcd2817d819075ad9U, 0x35ea2bf7d3cf00feU,
  0xe90d1f27121f3bd6U, 0xe60adc3cfea4d3f6U, 0xb6dbe2be153df00eU, 0x2b3535a6fcc2c417U,
  0xd9932ea1d43e4b7U, 0xd9b222e63bec19fcU, 0x22c2deba0928dde0U, 0xe91ee9813d1cdfe2U,
  0x32e341eebcd90401U, 0x12f2e5293aab16c5U, 0x162ebd26426f23f0U, 0x41cc65a52e29ccdeU,
  0x20c08e7d54c1e33U, 0xe32afab7ecf2a530U, 0xaf252b7feda930f8U, 0x1ed8e7141a1c51faU,
  0xefbffcece200accfU, 0xf745d71bc3aa2ce4U, 0xe738122b06a52d1eU, 0x52ac1cc5f5b0c5f6U,
  0xb73c2fd20bac16ebU, 0x3df7c12ecdee49faU, 0x3081d2e2c7325b2eU, 0xfd08eff4e404e228U,
  0xd9e545c3cbb4611dU, 0x1de4dea5e513f139U, 0x10f9cf2c02dcf441U, 0xbe291afe4fb5c326U,
  0xbbf901cdf611b507U, 0xd6fc21d1befb37ddU, 0xcd0310a08e9cf1fU, 0xde4fef4dd29bfedU,
  0xf1d204edf2f63be0U, 0xc3e0fb11e4e5ecd1U, 0x12e9f022e1292dc1U, 0x49d54109011c427fU,
  0xc2a01cc944e3dba4U, 0xbd0506b7c068144fU, 0xe551dd8db8b1402U, 0x262653f2ecc3d0bfU,
  0xccf4d30938af300cU, 0x63eedc23ccdb13fU, 0x46db9e67fe3704f9U, 0x7f1cf9cdcdb1e995U,
  0x5bd255ef6c0105f2U, 0xfe7fc2e17802fce5U, 0xa23a1b222ecb9db5U, 0xe3432bf1dec7c2a7U,
  0xd13924c0a9fda8cbU, 0xf60f3f05c90f3a22U, 0x129de62e0ebce3c2U, 0xb60cbdbccbea079dU,
  0x5fcf42af2dd4ae8U, 0xd9190e48352325f9U, 0xca9d19bf137f3934U, 0xddf5137ddc16f912U,
  0xd212162cf61c04c2U, 0xf318cb2cbdff0b45U, 0xffd309071f83b12fU, 0xfee8b5ea146cf811U,
  0xb6d320f001572fffU, 0xeaf3f9f3c4212058U, 0xb9260d10c8e10adaU, 0xd5cebefdbb120ce6U,
  0xe915372225ee09e4U, 0x14c01c38dcd3173eU, 0x39487f06c23725b9U, 0x18de1c2be2db0535U,
  0x7fb351dafd124abeU, 0xc7dabe613946b0d5U, 0xf0e000ae31da0768U, 0x35ead7edcbd5d411U,
  0x270cff01a60c6bc9U, 0x1a0c0a38dbed08efU, 0xe637cd07d5189870U, 0x1339a5010cac385dU,
  0x6ffd4ff8ea44342dU, 0x8108f53f270cf9c4U, 0xb66db5acc1842f4U, 0x5d30c4c86cd72f04U,
  0xc8eaf0a4d809cdU, 0xc4b4e3b339a6470dU, 0x20fc02c02afc0627U, 0xdbdb14233be0d500U,
  0xfc35fe09e1f0cc2aU, 0x324039f9ebb2f90bU, 0xcb0ad8f02eeb13daU, 0xf0f01f6bc82ed4b4U,
  0xcaf3d351ba6d4af1U, 0x3fb61cbc4dadc308U, 0x53a546819477fa4fU, 0xe90f24b837bccdb1U,
  0xffc2c4ea1eb3c4e6U, 0x123cef6f326192bU, 0xcc2353e63fece8c9U, 0x65131af842faf6acU,
  0xadd22cf2e9e29cdaU, 0xb36070ed07fb6ccU, 0x2bda1d53f2692e0bU, 0x50bc68155cff8ce0U,
  0x27a6a7f4f498e82aU, 0x3a3fc0a52e015cdaU, 0xe08409156baef0aU, 0xe2a66006b5b2e3c8U,
  0xead7f02ba63e5daeU, 0xcea360a089be0924U, 0xbf4b19e24f39220cU, 0x371cfd020081fb04U,
  0x13fbeb30c8ec1c06U, 0xf516efecdbe2e6cdU, 0xd81bff66c5dc9623U, 0xe07fc4b992b7bdfbU,
  0x95f50674dc34420eU, 0x3ae9bbff9a48c8b5U, 0xe507fcddb36427f9U, 0x3a09ffec302d7de0U,
  0xfff7d4f88ddd95d1U, 0x3a132ecbe2c24d01U, 0x13e4b1110b89b871U, 0x9110aaff4ef12cffU,
  0x540138ddc901f4d2U, 0xe9df227881e90fffU, 0xcec14227450c36bbU, 0x654701e100600206U,
  0x2235d40d05d4ea1dU, 0xdd1836bb3c3a3dcdU, 0x4bf6cd07cd6516ffU, 0xe6232adca2b0eff3U,
  0x5c7decaf804f80dU, 0xed31c0c6e00cf532U, 0xe581d020eefdd61bU, 0x51e703fee10339ecU,
  0xd9e0c64c26be5bf5U, 0xfdf30bb373c07d1U, 0xf7e10181f1d7d1e5U, 0x48dd48c912d718edU,
  0x24e41acd1ee5f8bdU, 0xdde21fc72b1b08f0U, 0x3122df9fef3e251cU, 0x58084333e9e30be5U,
  0xdf2b0a1206f8e340U, 0x6fc445019e922d6U, 0xee3cebea139f0581U, 0xc0b9c51a0cee07bdU,
  0xd30b69e9eafe152aU, 0x3d445cdaa001d09U, 0x114f92a042b241fU, 0xdfc3212a18f4c0daU,
  0x6dbf7260bcdda84U, 0x6152ab5a811332dU, 0x4f14782900dcf6fbU, 0x2f0339fd04d54ff2U,
  0xf192801fd4220f4U, 0x1bf61d6347c0034fU, 0xe6fad77ffc77015dU, 0x33de2d101ddc1d35U,
  0xefd43bffc7f1de07U, 0xfbcfaafe1133f0dbU, 0x2606cee434f028f0U, 0xa3ad0c7120e09d5U,
  0x452c2ae81deaf717U, 0x373deff7ae4ef77fU, 0xac42e4442aa9a6feU, 0x3c5e36db0717dff1U,
  0x56a1061aaf33e9ccU, 0xfe167f7daa0773faU, 0xdf48010d43e8d622U, 0x60fd351efbfe47f4U,
  0x56307d70528ae68U, 0x40780b23e7be510aU, 0x2c3e206c2e4345e7U, 0x66ce10fb029fe027U,
  0x2332e7c6de60c6d4U, 0xcea13e43b2e8241U, 0x9c1830c2da171f46U, 0x58f5d4daebdb9e3dU,
  0x2aba871779b6c899U, 0xdae28d0b2c27ad81U, 0xbdfeadef34c31111U, 0x1ec9ccea021d29b5U,
  0xa5c926eb92d22d55U, 0xbbb977e5cda4e836U, 0x39b33d100b307bcdU, 0xdba5d1c3276c781U,
  0x15c898282718c4d4U, 0xede4d03a05d221d6U, 0x47d277b6572f3793U, 0x3314fbd8f6fe932eU,
  0xfef9f0e509d1cb01U, 0xf62628fbcbcfd5ffU, 0x1014cc2445e1e6d4U, 0x4c2a7f001a27dec1U,
  0x2fc65105bffeedceU, 0x310122fe0886fb13U, 0xb1b8e4ed21ac3c3dU, 0xbda2b0204e0fea0U,
  0x3ac4dd04c330cce9U, 0x3533dbf9d9993a1fU, 0xf343c100fad5f61dU, 0xd1da81125feb18e4U,
  0xe4faf90bce821825U, 0xeac042e6dcf35334U, 0x21f41b79fae15a05U, 0xf3340c12f31e164aU,
  0x234acb18d6f6fb0fU, 0x2ab610c547e4e27fU, 0xea64fdd2c8fa7a0eU, 0xd0bc07cdb41d3dcbU,
  0xf6fc52698e7bdf0U, 0xa1438c62b3d6cdd5U, 0xf43c43ce58bda132U, 0x70e3beaf8a1cd0cU,
  0xcefa37ecf31419ffU, 0xf62e154f0224ae03U, 0xfd12c9fa0ee2ddd3U, 0x10a47081df317f7U,
  0xda1a4ff717d01314U, 0xf023f0fce87fe606U, 0x11246cfffa31c7f5U, 0x2f0507ee2cffda02U,
  0xd85ff403d618ac43U, 0xb7fbba5ae11a0c2cU, 0x5241cb0704d4fcf5U, 0xb7632e22500fabeaU,
  0xe00252a7e820d6e0U, 0xe351c6afa192f681U, 0x5140a1abc6effc10U, 0x8c36d0124ec026beU,
  0x46b12f7d2a6cbe02U, 0xc714f1fe12c21d26U, 0xf3532ad3a4402a20U, 0xe2a4c4d9e4420305U,
  0xba65af3428acfb1cU, 0xb39c2e6812c3f34bU, 0x5224f320c0b528ffU, 0xb2ade12d8169123fU,
  0xfa3ba911d718d256U, 0x460dd6e4e2e1a9deU, 0xa97f11cbe938f5efU, 0x5de923b28b22b09U,
  0x4338e9defce4e8f9U, 0x1ce2dbceeed69321U, 0x44080cd052b8d2U, 0xdee2f03bdc002ffcU,
  0xee083d14d4d51027U, 0xfe1a01dc127f06a1U, 0x4198a3411d2a00e8U, 0xd83ea92cf8f9dd5eU,
  0xa1711d547ec2b0eU, 0xbddbcfdf500ee9a4U, 0xf533c6c0a6f00c93U, 0xe1af02d2dc3643e5U,
  0x26cc67df2442099dU, 0xa115e643fba0f821U, 0xde092b35ee57bb37U, 0xe6b64c96fd746514U,
  0xdf4938ec05eee600U, 0x21eab7b2f82f7809U, 0x4cd85dbb1ebf12ddU, 0x2a5fb104ce81011cU,
  0xa3ff4300d3184e1cU, 0xd0e8c232e8c13509U, 0x29e5077f984a5ef5U, 0xd0d4ed5a5afd01a0U,
  0x160009f5aa170926U, 0x1b22dfe2950bf8e9U, 0xd53fe73414ba283eU, 0x35343035b55501ecU,
  0xf7d4479ff00b2029U, 0x51ffb6500301af1dU, 0xa8faed61d57f2be1U, 0xdd21f825421609caU,
  0xb42ddd3337d2f819U, 0xb26da222bdd0f0bU, 0xf30bf3a8e3dc040fU, 0xbfbec3011233661aU,
  0x6abac90100a633d6U, 0x4be9abc1baf41081U, 0x302ccf0d47033225U, 0xd4d92d150c23db09U,
  0x2414b9abe2b1e420U, 0xbdd08d5b9e0dbfaU, 0xe7e126089c2527eaU, 0xd1c8eadde3c2e9fcU,
  0x1a1331297fbf042dU, 0xee0e0d08d4e32501U, 0x5ebcd62cff519edU, 0xb84ccefaa1210047U,
  0xd4be31efa2c33517U, 0x2187fa2ce3f904fdU, 0x141eeaa6d7dabbfdU, 0xf54e5740553c6fc2U,
  0x3aee004bfcc2b7d1U, 0xc4c5ecdc66eb1419U, 0x1e02d2b9043e0c3aU, 0xf8f6f6f5c8df1f0dU,
  0xbebee715259fd4ebU, 0x30c8c04ee3d79ff5U, 0xac01811d4d010325U, 0xfd08054fd213bb50U,
  0xc9c236eb20fb00dbU, 0xf7d4f8fbd6f7d50dU, 0xe0a59ef100413f9U, 0xb615410d331d10abU,
  0x4432eb9060303e4U, 0xec837c8cc0f32f1U, 0x4dea30ebcf397fc9U, 0x16402a0b1d12a7c7U,
  0x4804f601a7190dc1U, 0xedd0a427cee7ec0bU, 0xf2d5e7bebcfeff55U, 0x2702ce5115ee8f02U,
  0xd8e3f85a2ae4cf97U, 0xbde33328fdcbf121U, 0xd4b1b8ebeb247f53U, 0x6f0ed32e0e3453faU,
  0xced030f8f9f2f1f2U, 0xef4cf126dbe7d321U, 0xd12ed80982f8e8e2U, 0xcfd250d80309009aU,
  0x22e20815ab7f09d7U, 0x3d4c82926e7c8d4U, 0x1160d2073c01f907U, 0x2fe347f4d40e390aU,
  0x6509c53f117a629U, 0xff14bb3ee3430752U, 0x2051f434e4aee29U, 0xedfdb3c1bbee62bU,
  0xeb0ef30bd8f2a07fU, 0x18150fe6b5fc130fU, 0x8fadd1bfcdb35d2U, 0xf5519fdfac3efe0U,
  0xc9e9dc902627cf00U, 0xd02ce50df8cb4711U, 0xeb0b4a09ff282430U, 0x2ce7efd3f85305b7U,
  0xf7c8cde1aeeefdf3U, 0xc9eece1632f3fec9U, 0xe2fe41deb213b96U, 0x13be50813ae008ddU,
  0x292eec3946bc2e0dU, 0xe72e1db5112301f1U, 0x7c3ec0ae9d8f43dU, 0xed3b221f088fd906U,
  0xd4d6e11fc6edbab7U, 0x70f3865c6c4029eU, 0x2ba7f181032a0f31U, 0xe5211044051fffeeU,
  0xcee4d0d6bde6295bU, 0xbda0efdf2c14b8baU, 0xa9c69a0446e6d7c2U, 0x2fd70cbc227f1798U,
  0x444bbec62925bcc9U, 0x9ca13a9192aff9cU, 0xfa7ded122632f8f3U, 0x86e54b3927bfb2ceU,
  0x42b4ac2bf48e44cU, 0x212303b6b8812529U, 0xbb0a1ceee5d2029bU, 0xc42acbdaf202efb3U,
  0x14515ba9cd0cff02U, 0xffc6320cb902fe31U, 0x34fc030b4140f6d4U, 0x5eefdeea904dfd8U,
  0xcaf0ebd3ef14b22dU, 0x180a0e10dcdad7e7U, 0xcc2c35351af3e027U, 0xfc02f0bfef0cfce7U,
  0x21ffd4913d200f0U, 0xf11016f4df142f21U, 0xba40cedec9d2d4d7U, 0xc1eb177fc40000fdU,
  0xffd80beebd99c341U, 0x37eac1cd311a2ac7U, 0xbe8c5666ccb0d4eU, 0xdad810cb37dc02f1U,
  0x11ed61bdfdfef8afU, 0x8f1b7f91ab2fc058U, 0x2defa65202ce0209U, 0x9c333849ecf1b1dfU,
  0xf5b93f109572606U, 0xd5f1fad0e95b2aaaU, 0xb75dae00c03d91ddU, 0x1c3f47daeb31dc34U,
  0xd507d2dec43b32ddU, 0xb5e05e3b3d81ddbaU, 0x3a76fa4711690cebU, 0x3ae60cbbe538e828U,
  0x16024908e566faffU, 0x220ee01af5fe43a0U, 0xc1040c5e1ebffdfaU, 0x5c12ddf9562b28c0U,
  0xdf342817110011beU, 0xd0a4cbf9beeb7fefU, 0xee0eb60d4109073bU, 0x1d13c1b2ea5a24deU,
  0x2657ca0dc04abaf4U, 0xdc092434ffd8d935U, 0xf8ef3601120514c7U, 0x12e3f6130d2fabd7U,
  0xd355ff2f6a56970aU, 0xc3c71302191e0b9cU, 0x2a3435a4e6b0b89dU, 0xc4ea391c780081faU,
  0x3ceee80f16c3ddcfU, 0xffe02ceca61f8U, 0xcb87cad9fcb332a5U, 0x5d408b53acb7fff6U,
  0xf0c0fc3536e549e0U, 0x17b009271215c0efU, 0x7fd80632062067b2U, 0x2e09363a2a9fcf5cU,
  0x330cb033f9e29a1aU, 0x76be7e73ee63898U, 0x21f810262c28a7c4U, 0x1c2042ee265b43e9U,
  0xf5d2c6e41449a0c1U, 0x152b07ee8845ebf3U, 0xb8c218b90af1c9c5U, 0x81bd0cf961bfe4baU,
  0xdf2c1cd0d0530b2aU, 0x2e9c02c46ed8dc1fU, 0xd0a300c01f10fdaU, 0x7f04bdd20accd120U,
  0x7a9c8e9b814e623U, 0xbed36ee3ce6f798U, 0x8a32b216f9e025dbU, 0x10985de2ddf6bb30U,
  0x32285478481c8e2U, 0x4be3e119fd03da45U, 0x2b2147fe3dfcb7ecU, 0xeb0126f0eb4ce521U,
  0xdef2dbfd0a3403c6U, 0x483add1e47b3f422U, 0x39ecf5efe5f4191eU, 0xef24b3c6ecf357bcU,
  0xebba3a48f927c6daU, 0x2b18ee7fc244fd25U, 0x80031ee19fe1cf9U, 0xbaf9db07120d0de3U,
  0xee1e02b0d5b6f7ffU, 0x6d9f618091d59fdU, 0xf22d2e22c71c3c07U, 0x5d20282de31f122dU,
  0x64130b13453829d0U, 0xe337089a28faf73aU, 0x962b1b1127aed70dU, 0x1f1b9df18edecceU,
  0xe10bc82face9f7daU, 0xc2372b39c0d51ac6U, 0x11dcd81dedca0412U, 0xb71c8108dfb51102U,
  0xfae768186d10089cU, 0x98bb27753b33c8e5U, 0xe7e3cdc35014c20eU, 0xf9d719ba2e1db812U,
  0xade51628a00bffe4U, 0x19ec1cd2bff80ae4U, 0x8172c3e40b18cb31U, 0xfcd140e8f31620U,
  0xbebfe933d3fd12b1U, 0x3646de270529d90eU, 0xd9b81cba251922b2U, 0xb1f7cdd597127f08U,
  0xde52a5bf3fe8c2f2U, 0x6fee33fc0e1eec1dU, 0x9e1c2e552aeba011U, 0xe7e417b6d686f7f6U,
  0x2b8116381f31d9eaU, 0x4b08d8cdbcd52a23U, 0xb728e7e51ed404b9U, 0xef44e5d41a1667c1U,
  0xa8be26d6d5e2c23eU, 0x25c8eaba24bdefd8U, 0x59bc1bfcbf169d10U, 0x59ec532f3b04e2a6U,
  0xfffff3c500000e37U, 0xacbfffffac7U, 0x5a500000688U, 0x60d00000684U,
  0x2195fffffe4dU, 0xfffffa1e000014b7U, 0x4fffffff99bU, 0x935fffff5e4U,
  0x1a9f0000021eU, 0xfffffeae00000749U, 0x8ee00000a39U, 0xffffdbee0000086cU,
  0xffffdaccfffff7a2U, 0xafe00001e59U, 0xfffff94f00000b2dU, 0xfffff5550000049bU,
  0xfffffd5f00001390U, 0x98600000536U, 0xfffff087fffff713U, 0x1b3efffff2b8U,
  0xe55fffff6dcU, 0xb1ffffffc1bU, 0xfffff41c00000c62U, 0x57e000001efU,
  0x111700001271U, 0xea200000470U, 0xfffff3abfffffb0dU, 0xfffffd13000002c4U,
  0x10af00000d1aU, 0xffffec1300000783U, 0xb37000016cfU, 0x728000000ceU,
  0x2f47d60b0a7f6b66U, 0x5c6d275f182c7f0eU, 0xd0f1d7b3f762f67U, 0xbcb50a81887f5174U,
  0xd1819695f983a231U, 0x3db981bbb1bad4f2U, 0x64632e8ac01ddcfbU, 0x813e607ff1f50345U,
  0xf19eb7e7bdb3bc9eU, 0x2275c1f719c3207fU, 0x81f1c5cebc94cccfU, 0x900085f5439d599U,
  0xbec5aec4e17f6156U, 0x18bc8192928182d6U, 0x928d87a6abc5eff2U, 0x81d7e1a681b8d6c5U,
  0x947e569155bdac29U, 0x8191ab05eff1a381U, 0xaeaaf6150281c9b3U, 0xb4f5d9d58fab81a1U,
  0xbeafcfb0ce92d3b3U, 0xeb81562d98818ccdU, 0xc1a5f0c4401ddd28U, 0xf3c1db81ab82a409U,
  0x405db7b781ddd6b2U, 0xab727b7f28274a31U, 0x22c091c51126b481U, 0x82acdbc5e01f2931U,
  0x9d1435dc81aa8181U, 0xdad2d1819ed88adaU, 0xf6e9b6bf97b09f9bU, 0x144f813281a8c9f0U,
  0x81e56e48a54435a8U, 0x4b398df0428ce812U, 0xd36a4d74edf8107fU, 0x2b08125cacafb99U,
  0x81a1efc9d2f1d3d6U, 0xc7fc1502da81ca86U, 0x811f1e435b7ce9b3U, 0xd157f21f44172e3aU,
  0x107f6a678f117fb6U, 0x6e7c5e6f5f6b17faU, 0x666834767ffcde08U, 0x3f7f66502f141050U,
  0x7f645a4f502f5951U, 0x818a99e6e3c0aeb3U, 0xc5d31dd4b75f8189U, 0xe1e9d981ea9ad246U,
  0x910d39899b4fe8cU, 0xc7b5819081939727U, 0x7f7235d3ba90e7d5U, 0x547f5373350a0c15U,
  0xff664c6a16122171U, 0x81c118ccbd11ddb5U, 0x7268f10f167f7a69U, 0x3c152321517a7f7dU,
  0xe812f7d87fd36763U, 0xc7dac0ac9fbb64f5U, 0xf8787f4cba8199d3U, 0xc0f73a4c364ae6f0U,
  0x4d5b81db30deda1fU, 0x7f4f687fd1dbd165U, 0xbd3508ca1b19db58U, 0x7f6203f610604d57U,
  0x81e4dbdddc96bf54U, 0x2f2ee81bbbbfa97U, 0x2e0ecd8481929787U, 0xede9f9cbca39f0cU,
  0x23558d8185ccdefeU, 0x74776e6b0d371981U, 0x7765686cee08fd7fU, 0x3b6b6017161e487fU,
  0xffffdf0efffff644U, 0x1a14fffff004U, 0x80500001cddU, 0x1cbefffff3f4U,
  0x228dfffffb21U, 0x1cc2fffff61eU, 0x2562000013a0U, 0x1f12fffffedfU,
  0x18e000001914U, 0x5e00001499U, 0x17190000112dU, 0xde0ffffe3bfU,
  0x131700000b79U, 0x1adb000019e7U, 0x890fffffd14U, 0x13a0fffff6d5U,
  0xe6600001894U, 0xfffffc86fffff6d2U, 0xfffff28efffff168U, 0xffffe580fffff2ebU,
  0x6a0000184eU, 0x1acf00001409U, 0xfffff06200001b1fU, 0xb4cfffffa0bU,
  0xffffee66fffff6abU, 0x20d3fffffbe1U, 0x3b7fffff2eaU, 0xfffffaa0fffff28aU,
  0x1572ffffed6cU, 0x18bb00001d87U, 0xfffff85500001457U, 0xfffff4ccfffffb0eU,
  0x3965eba924ffe550U, 0xaf014eeff245edbU, 0xfaeb52ffda1a05d7U, 0xd520e20dbd7f202U,
  0xf01ead6f2b7bb24U, 0x40c30847ee081aeeU, 0xea7f0b122e0a1102U, 0xdad2099f32e6d4e5U,
  0x18df3df6e1b8e702U, 0x2210ff1a077fe914U, 0xcb3013fe20e0ed99U, 0xa6db273744cb0ad4U,
  0x10e5e4c5ddcaf801U, 0xddcd60b33d83ae1U, 0xeee53b2bf5ef64f9U, 0xfa2b14f2e41b283dU,
  0x3b6fe1137053bd34U, 0xb1f05b35ccc02318U, 0xd2c25a18df3067fbU, 0x7f79df05a987ed32U,
  0xc85afdc410fb04efU, 0x6b15e2a9ba4f0d32U, 0xc20ffa0448f10befU, 0x36d1e0e31d81d42cU,
  0x22df2b5cfb55f3a8U, 0xfcf5bac60ddded69U, 0xcde601f617e7dab8U, 0xf5ea05bc3a24d6f2U,
  0x150bf3180c0be120U, 0x17fe4eec50cea33U, 0xfcd81b28f6effdf0U, 0x29f72502ee490dd9U,
  0xef07f506cbe6f652U, 0xe901fc811d01fbddU, 0x1736384616b42fdfU, 0x16d4180e280ff009U,
  0x5cabfacdbfbe2edU, 0xe9cf01ea48aa1482U, 0x105ee0c5e2383bffU, 0x2809e1459bce26baU,
  0x43d437e3f02afdb5U, 0xe14fb30534fad10bU, 0xf80bc7e313f09dc8U, 0xf2e2f1ddf9fd00e5U,
  0xf8ef0fe6dc05120bU, 0xea32f6cb11edf31dU, 0x3a0c0fe0bb47ee7fU, 0xf7071c5e1c2314c7U,
  0x17711ca512b7fed5U, 0xd955c9bc12ec072cU, 0xa5cfd014d2fbd7cfU, 0xe030c4cf0253d1f1U,
  0x4ff106da13ff0051U, 0x752a36361b4500f3U, 0xb79fc1cf80c1d7fU, 0xbbcb4ae46c29b98bU,
  0xeef3217ff8c3da16U, 0xec0654be42cc9b08U, 0xca3d1b0422daf4c5U, 0x8fd05e8333517ffU,
  0xe4e4e4b5013d24ecU, 0xf51f32d5e930240cU, 0xe7d4f808bfe14ac9U, 0x3b12e13b890a780dU,
  0x2efed0d6fa60c07fU, 0x2a020ad8184a71edU, 0xd5152e210ed4f7ffU, 0xf224430738f6f722U,
  0xdb2093efefcff331U, 0x17c72bc692033ea7U, 0xc6f10d4a171cc522U, 0x31991eaec6dbfce4U,
  0x8129e87816a3ecf7U, 0xae62397e9d6ededU, 0x4a412d32ee242ac1U, 0x1deced0dae5ddee0U,
  0x2322312e927e49aU, 0xe0f8c8d10ba50609U, 0x16efd1abc0df49c2U, 0x1c0df156adef0411U,
  0x657fe2e436f29c28U, 0xa3dc0a122e4ede27U, 0xd8e435e9ebea2404U, 0x444ea1ff3e3d639U,
  0xa10054b23eb096aU, 0x353021250d3d2dfdU, 0xcad1fc4651052af8U, 0x4c005a536e2010bU,
  0xffd91a5557fcead3U, 0xee2ebac2ce0b21eU, 0xe1f53ae637ecffd4U, 0xedca31ddf952dffaU,
  0xf70128d2111801cfU, 0x236330c4ec2109ffU, 0xe9e5f0f5b6db7fadU, 0x20c80c21914a29e7U,
  0xd2c522f2defef8ceU, 0x2ae998b6e2494308U, 0x401f06ede0fd2e18U, 0xe9040dfae5eec4c1U,
  0x44ece027f5be0410U, 0xe8daf72a1cb320f2U, 0x28480c243205f901U, 0xd37f2cf89427e4d0U,
  0x5fc2d0e01e9108eU, 0xb2533313f8fdd012U, 0xcdf617edf631e581U, 0xba66cdd5bcfcdabcU,
  0xccf17c1e818200aU, 0x22fc09382e0a1062U, 0xf3393e2ce108e255U, 0xc829ef066c55206aU,
  0xe97fde1838d8ae5fU, 0x2814e5e3ff311207U, 0xbdec1a111311f9b3U, 0x170f2127e549e310U,
  0xf03b4a07f5f1eaf4U, 0xcf40ed8fe0ef7cdU, 0xdfd008daf8fc3704U, 0xd29325093f06f8e0U,
  0xe407e2e5187f2b0aU, 0x4de10217eeedf214U, 0xf70fecf60f12d504U, 0x14110abfe723e93fU,
  0xe8bac8fad212d6cbU, 0xf14e3005bb2f18baU, 0xe7dcccd1fed1cae4U, 0x5ebdfc23c7a343eaU,
  0x65b8fddd0f60da26U, 0x8107e8f2ff9c27dfU, 0xf9d24211dbc82f1aU, 0xa4ac3e9d5ccb94cU,
  0x41e8b341641aba29U, 0x3d41e8190af912e7U, 0x7fb8d2370e41f2U, 0x18df1bddc1c3cd92U,
  0xdb51eaf91df809f1U, 0x13f031d21ecce8feU, 0x53f13efe20d2d26U, 0xe77fccd3e1220705U,
  0x3791f7d5fc2fe731U, 0xeeddf11501fd5f35U, 0xe107f0e951dce6baU, 0x1256fdf2be995c23U,
  0xec141101fac62bdeU, 0xddf956f2ee14eaf3U, 0xf9272019ee23f681U, 0xdb14db0bc1f315e7U,
  0x3d90ae1f31909d8U, 0xeaf5b04e30c9f600U, 0xf45becd5c5f50df9U, 0x140fe81630f81c34U,
  0x38232f0ae6d98130U, 0x16aa4b01039053eU, 0xbbe9d91c0dc21196U, 0xa8263df24537b5bbU,
  0xf20670d9cfd6ed2aU, 0x161421e11b1003U, 0xf5cb5959cf140476U, 0xa7e448d56d7ddeccU,
  0xe999b6fd1645cd7fU, 0x17d2b2bbae356305U, 0x1bd45013f4f769c8U, 0x1185627ee31a8f0U,
  0x1f3bfe6b13d5d3f0U, 0x7b51bf3cb1f3cd5U, 0x1ae0f8f862d634c9U, 0xc3353cef98da03e3U,
  0xcbf3f2e5ff0a14ecU, 0xda150e08cdea1af3U, 0x48fafbeeed3910ecU, 0x15eff0f38909fd04U,
  0x14ef262de902d8c8U, 0xda05fb3328a6e121U, 0x1d7fdad4d412ca37U, 0xe8f0f629fa2dd9efU,
  0x4c813d94121c37b8U, 0xd54706dd11031354U, 0xbbf24cd13e80aa0U, 0xf719d1e331cec0dcU,
  0x3835ea2002e635eaU, 0x6137faf3ed3b0305U, 0xd96b4c3a33e3196bU, 0xd2293f11dd55d2b6U,
  0x21cd4200abfefcc2U, 0x539cc9b18e9052eU, 0x2107f7f2fec6f1e4U, 0xcefccfc61810d2f0U,
  0x2203cbdffaf80d32U, 0xe00521f4d6181b09U, 0xed1f18262d43e958U, 0xfa7f1114d31a06b3U,
  0x5259fed10464e710U, 0xa60820ff24ad1f01U, 0xf8076c3fdae13b12U, 0x2676b3d6acc4e555U,
  0x36edb5e00c0da60aU, 0x4f2a21faae37f80eU, 0xbc7fd9fa5638bf26U, 0x3bcc20dff5dec2ceU,
  0x34f914032b7fdeebU, 0xd916ede44fd6f33fU, 0xbaed0c120aece2f6U, 0xdd7f2b80bfbc9f2U,
  0xdfdf21a1411da5cU, 0x317beb00be3af907U, 0xeef5023a08062319U, 0x18de24ddc8292ac8U,
  0x607fe7fdf62fd8e9U, 0xbffa1a1021dc040fU, 0xd1e60815fdf6f917U, 0xf401c107d501e155U,
  0x280cda362219e75eU, 0xff32ea0bc61ef535U, 0xb9f1d9f70a0ed0eeU, 0x651100d010c1fb10U,
  0x26ff044ffc7ffed1U, 0xbaef13d02cdff564U, 0xd0fa0ff60cfabde5U, 0x22b6f5d20118b2feU,
  0x7403f128792bee6bU, 0x1c73da2cae340417U, 0xea07cb214ae6079dU, 0x62e405b0e8d0eabcU,
  0x87f172c24cef7ecU, 0xedfa0bd7dfe3410dU, 0xe8f22613c1226624U, 0x2e3cd9f6cc11f60cU,
  0xdb78072efef5d433U, 0xf5f0fdcfd32a22ffU, 0xd0c4f41840e410f0U, 0xe84bfed0e9acfe40U,
  0xddfaf621f01a01eeU, 0xeb1b36e6f1e2d3e0U, 0xfc21152138ffa0dbU, 0x2adff9f8b232de20U,
  0xbf0522d7e837fbbdU, 0xef1afbc221c1ca14U, 0x320ceabc813fd745U, 0x32cc0867022612eeU,
  0xb7f1bdec63f7d800U, 0x72b4f1a9e8dfebd3U, 0x28f73bf33b10c6c7U, 0x411d6317c962efddU,
  0xf9f76be3e8e9a78cU, 0xe137fec3cad05f2U, 0x3015f9a1c8b35ba7U, 0xbe8a30149b53bbf0U,
  0x402809131b5eead2U, 0xd2f111ecfcdcf555U, 0xcab92f070606020bU, 0x8dfc4d9eef0c820U,
  0x220ecc032b22ee40U, 0xf7fdbfeba3ef34dU, 0xcffdf91a17f311deU, 0x5d16ffbfdff21009U,
  0x532d9e0352318d1U, 0x3fe23ca21c10714U, 0xe1f21203e90107f3U, 0xfc7fe8ec0a13ea1cU,
  0x22c520cb030cde02U, 0x243a24e2ef101b1eU, 0xed2ad8d430c412acU, 0x1ee403ecd1e240f4U,
  0x2b31f4a3040ed656U, 0x4dce96d7f47f5af6U, 0xf2022affe2d312e3U, 0xfb5e2b1d35e3ddceU,
  0x42b3ebdae09dc14dU, 0xf4a9102e16e248bdU, 0x25b23173d1c02f4U, 0xc22b0ac4eaf8f1bcU,
  0xc90bd3fed13e2619U, 0x33171a0f3ab6ed08U, 0xf5cccd190cdaa3f5U, 0x4200d6a63230e85eU,
  0xfccec79ce65ebf27U, 0xac556f1f94064711U, 0xa506c0ef08249a0aU, 0x5c6af2f5b28f7feeU,
  0x15bdd5d8254b0a0bU, 0xeab72050323381d5U, 0xeef613ef5a1bc2e9U, 0xbd92d60fc22bc13U,
  0xdad8e0ca1e024ac9U, 0x1220e6b46bee03e4U, 0xbd40e7b1beec4994U, 0x38a802eea4b45025U,
  0xf9e40315f11f3ad6U, 0xbf2dec0e8e3100fU, 0x20f70006dcff0c2cU, 0xf90be7ddf822c802U,
  0x2ff4d819fff9f50dU, 0xc9f1f8faf4ee2117U, 0x4eaf2f12708d5e1U, 0x17f0319b1ee1009U,
  0xc4716542ab9b33dU, 0x4ff9ebc8fefae521U, 0xdc1c18d1f3e008aeU, 0xe07f20bb184ff2d7U,
  0xf5b479a7e0e4f737U, 0xe70134ddf6056519U, 0xcb6332c0cd4f1edU, 0xa11803a4f02b1818U,
  0xd9002403d5a0fdbeU, 0xe10af6ced675000fU, 0x2759294fe80c13d9U, 0xc1aff233d42e0acaU,
  0x2f2f167fe7d62dd4U, 0xf1e19c15679deac4U, 0x2eeb18eaca043538U, 0x3170d249718ffc2U,
  0xea38fc0212b70501U, 0xeedc1538027fffecU, 0xca1e211b081f2caaU, 0xd60e1956cdf2f1d1U,
  0xada0e12f2dcf40eU, 0xf3d4b23a48c816d6U, 0xf62600faf5ea32c9U, 0xe6f4f4cf13f72b56U,
  0x1bc8e217ff3cffd2U, 0x96dd27f127eed0fcU, 0xbdf7e80aff21aab1U, 0xf2fabf1d3dcacb7fU,
  0x32dddf3140342ab9U, 0xef32cff33519f769U, 0xd43bc8a4cc004195U, 0x6fe1d637e0c84d43U,
  0x17f325ea0f2518dfU, 0xdbea21f44062b119U, 0xeef55a232712f5e9U, 0xde813b2f1822c401U,
  0xfa00e01e15fc2700U, 0x270cc1f7e4eff8f8U, 0xc2f50238d2034ebcU, 0x45e318bfa6fd11adU,
  0x4d33e0ef2979d3eeU, 0xfafbfa25d0e22f06U, 0xddb83df8e928fff2U, 0xfab6e012a81ee645U,
  0xff6b057a7f01e545U, 0x2837f0d1dcf1e7f5U, 0xd7efc0c803f627e3U, 0x5ae646ecf1abf0d3U,
  0x595630eb17c30095U, 0x861c1da97ff6ec2eU, 0xbe02173c0dc6d9d4U, 0xc6cdabf3195edcfdU,
  0x4517e4011d2f5964U, 0x3053ef02dff0e50bU, 0xb8cce32407142cf6U, 0x760ed4dbb7e32fc3U,
  0x24d4f00ae82adc56U, 0x3ce8ea1be125fd01U, 0xefdefdd506a71ad2U, 0x1fc4e1f25c1f607U,
  0xd8bad6acdcdde5eeU, 0xf5e505cf200558edU, 0xfce91427e1f1f3f0U, 0x27f06eeddf82658U,
  0xcfb5f2e117f2c90aU, 0x180d27f3dbaecffcU, 0xa3020fd2bf1e5b5U, 0x282531edc94adbe1U,
  0xfcf977c0d0d3158aU, 0x16172fdd0ca50213U, 0x321637a0c0df3c34U, 0xbbdf3f3ec67fb3feU,
  0x14b9d902e54a1033U, 0x28fcd84dce1ed8feU, 0xfdee05c926eadfafU, 0x2202480922d9eef1U,
  0xb1c53681c5e7e8f6U, 0xe6fd3dd017e335f4U, 0x1e0223e8b104c525U, 0xe254250014310367U,
  0x4d00100c05431db3U, 0x9edf5250e1f5810aU, 0xc6d220ea4517dd0fU, 0xd3ecd212efd8d20aU,
  0xd3ecf4da0b24612cU, 0x166ec2f11c21d95bU, 0xcd1842efa01fcadfU, 0x4c390afb2dda586aU,
  0x4e13fe4ee6772802U, 0xd7c3d13aef64d3e9U, 0xcbbfe3060cf2cecaU, 0x26810f4ce2fc8d4eU,
  0xa4d8ab3e15182e3eU, 0x407c9e8e443e842U, 0xae141908d559afddU, 0x7f14bab139bd465eU,
  0xe12909ff3a09f7f7U, 0x1e44004e4f50debU, 0xe5ee2adbe44416cbU, 0x47ff7e8cdfbf0daU,
  0x2baf6edf4f5e3fcU, 0x13fee71e1ced2638U, 0xf232ecf501d81ad2U, 0xe0f4f1f12dfa1657U,
  0xf248d65d2e3c0839U, 0x6fcc3b2ea832c18U, 0x16f50803d0260503U, 0x2502dac6ed76a900U,
  0xff03017f041fd807U, 0xe6f92adde804130cU, 0xdebdd6cc11ecc3ddU, 0xff280b42cdc01111U,
  0x41f83c09bdf203cfU, 0xbe612214e50fe00dU, 0xc3060cda24fbbd93U, 0xdd0ff6f1c0ebccddU,
  0xe4fc1dd1e6fa35f2U, 0xf11ee621403dec45U, 0xff004ffcac2ac37fU, 0xff27f50f7944021aU,
  0x299165c4d0bb902U, 0x401bd11ddd92ea07U, 0x3ecedf536f10591U, 0x3b1337baba41f605U,
  0xc66e739ee9232987U, 0x2e791f8101131047U, 0x18cb36dfa5d43f22U, 0xd6f3333edd6ce72cU,
  0xfabb3bd0dfeffeb8U, 0xc244f6f6d807de14U, 0xcfce6fb0603f8abU, 0xdbe1cdfee1cdc6e0U,
  0xa1a0b38f4002a01U, 0xb0bd9253a1eee33U, 0x24d241ddd21037fU, 0xeb2714231130f527U,
  0x33eaf2f2fa4219fbU, 0xa2112017b7e352e2U, 0xfd42618e9d51e0eU, 0x2edcd719a9c7ce12U,
  0x31e03f1fffaddbU, 0x415d9dccdeedff4U, 0xfb7fbaec4750fc24U, 0x45120ee9cef4dcc6U,
  0x4626ea260128e136U, 0xd51523ae59e4cfd9U, 0x83d191805c4f704U, 0xff19c91fc823f23fU,
  0x29ed9f0731251422U, 0xf11ee112dd30fab7U, 0xcd06c5c11f5e0be5U, 0x7fc9e22eb1be32bfU,
  0xfefc480bc1b601c4U, 0xc6493118df251707U, 0x112b1d352bf0049fU, 0xe5c6c919a210e60dU,
  0xd77ff82ae3131bd9U, 0xeff6b2f0fbe4cefbU, 0xfbf72e05d13ce368U, 0x1c36fa2d3e0cf20fU,
  0x8cedc04d54d287fU, 0x2ce1da16ea30e409U, 0xe7e30cef1a9d1fd3U, 0x10ea501a50d3ea0eU,
  0xcfb9eebad9ddb8f6U, 0xf7e029d40c0b4ea0U, 0x304fdf9d615e9f4U, 0xe5411ee7cc232307U,
  0xc0bccd041371d435U, 0xfcfc03c1f63e31bU, 0xf0c42ae524fa3308U, 0xdedd7f1fe923d703U,
  0xdad95c07f2def8f0U, 0x25280adaefc944b7U, 0xed0deeecdfda37e7U, 0xd7a64cc9021a1cedU,
  0x29ba0604fb562011U, 0xd2eacddc0bc5d615U, 0xecbfdc0ce3db2350U, 0x625caeaf0e1db0fU,
  0x2fb3ad09ef0bf229U, 0xdc2725e0b13e2affU, 0xce1bc2cd520001e3U, 0x5a7ff41d0bb02d04U,
  0xc200e50657ecf4e0U, 0x3cd6ed4ce63cbd1aU, 0xdf1e44ef6a29e891U, 0xfa144727b43ec1e5U,
  0xf3087fd9c5e5efa9U, 0x161c18e037de1502U, 0x18de50ee99db34f4U, 0xcaae23031c58114eU,
  0xc6c7e90e0905f1e2U, 0xe8f93eeccce30bf5U, 0x3e072709d52c30b1U, 0x2112e001a204f1e2U,
  0x181111efe5080bb8U, 0xfad90b02a80521U, 0xb7fe7d1dcf727f8U, 0xc010342cfe2fa19U,
  0x7356bbbef569f351U, 0xed17b014490f05edU, 0xf6c22413fe08e6e1U, 0xebc0c3353fe6bf0fU,
  0xacd0cc3677e7ec31U, 0xf71f2a2bff321529U, 0xd7e8dff518380610U, 0x60ab34c3238120eeU,
  0xc9c3de08fc31eb11U, 0x31e690d1c5092525U, 0x10d9e4fff1d51d00U, 0xd7f744e51202cfcaU,
  0xf9f7132adbd9e304U, 0xe0f12c03e7d945fcU, 0x16da0709e8edf4dcU, 0xcc7f2f05aa192f06U,
  0x588fffff83bU, 0x4fcfffff526U, 0xe5800001615U, 0x540fffffdf0U,
  0x1a5b000003b2U, 0xaafffffe897U, 0xfffffde000000b9dU, 0xdf100000119U,
  0xfffffea100000595U, 0x49e00000b62U, 0xdb7000009faU, 0xab2fffffdddU,
  0xfffffb6afffff9caU, 0xfffffc86fffff9f5U, 0x12e8fffffce3U, 0xfffffa75000015f1U,
  0x18100000298U, 0x101b00000b39U, 0x3370000096eU, 0x36c00001124U,
  0x75a00000b51U, 0x5eeffffff44U, 0x13ce00000835U, 0xfffff9db00000b6fU,
  0xfffffdb700000306U, 0x1bf00000893U, 0x90c000006cfU, 0x18400000ce8U,
  0xcf400000952U, 0x5ce00000604U, 0x120f00000428U, 0x1560fffffce1U,
  0x23f105062bd9dab0U, 0x2525d7e242b928faU, 0xdab0f51713badcbbU, 0xe75734f010aa15cfU,
  0xafe424f9f723e90aU, 0xbd2b54f6a407d7d2U, 0xd7b8b650d42fe3a7U, 0x20dfec3ce22c17b4U,
  0xd610ee24dae2410cU, 0xf01dcd1af31ec73fU, 0xe703be3020d1bdbcU, 0xb01adde1edb8f2aeU,
  0x38140dd520d33badU, 0xd22bfb2ebaec36d7U, 0xefcbebd8dbc0dd0aU, 0x191ab11dda4538dcU,
  0xbe23e00ecc19dd36U, 0xc1b72138c7f2f6d1U, 0xa3c3d18b533394cU, 0xdf09ba09d9c3ee3eU,
  0x1dc7f60df7ce2c2aU, 0xedbcf5c3c8d6ab1aU, 0xfc1d08c8d4e345b1U, 0xefc544ce23bdadc5U,
  0x13c4da34c9d21fe7U, 0xebd10437ccd4f60cU, 0x3ad8d22d02ea35bcU, 0xcbe0cf16c8cabfbdU,
  0xf7df273dcc3033d9U, 0xed39e246cea9bfdaU, 0xf4d2dee1dc10fdf4U, 0x3de4f6cb2ae236e4U,
  0xe03b4343edc2e00cU, 0xd40a20fcbcafca16U, 0x442c41bb2414bd18U, 0xb3da419fd1b6093cU,
  0xd409bad1dcf815b6U, 0xdcf80bba05caddd7U, 0x1b252ef228b2b5e1U, 0xaf0a00d6d8c3e542U,
  0x2d2d34bf4fe910a2U, 0xe8052bda4208b4e4U, 0x3f3ea8b346d1b4caU, 0x2de713e327cb46f1U,
  0xb91321c2bdeec102U, 0x15e71cc63ce62ab5U, 0xb9af204524b1b2cfU, 0xd9e4a51adcfdc128U,
  0xe537b3d7ea38d73cU, 0xf2491eced449f7feU, 0xc1ceece3241a3cf0U, 0x3e8ca41e734f42bU,
  0x3dc344dccfe32b33U, 0xf5c5b5bd1efcc6deU, 0x1ac1c6abea183ee4U, 0xc61bca01e4cdc4e8U,
  0x48d3f54ec5e932cbU, 0xf7e3f6e129a157d1U, 0xb0c7ebc88b5507d3U, 0xbf1839cae7c99cdbU,
  0x394fc5c047c0d812U, 0x16d622db2bdc3841U, 0x3ad1fbf2e4abf5fcU, 0x9fc41729e6f2de23U,
  0xae0028a7ddfff1e1U, 0xf6b13dcda7e7c3d6U, 0xd91831a8e038c9b8U, 0xfed42ed0e1fde0f3U,
  0x24dfcec52de2c6ceU, 0x4334fafebff5e131U, 0xb3fb38083cc81834U, 0xe5110921ff03f42eU,
  0xaee3e40df9aeace0U, 0xd6d2d44ae1e43bc7U, 0x33202a4ab8f4f51dU, 0xd6e7f1250e03ccecU,
  0xf351ac46a2ccfbd1U, 0xc893e1bbf83dd908U, 0xf8431dcdb14cc403U, 0x40eb1ebc2acfbd36U,
  0xbba4b4c0af4fd52aU, 0xa628dcb6b1fe2738U, 0xd413cc3401e3bbc3U, 0x23a60142e604c62cU,
  0xe1bae78eba98abc2U, 0xd9cb0ef2ce42ddc3U, 0xe741e93cf0bfd3cfU, 0x81a432dc8ec8b741U,
  0x1f090a053728d4f4U, 0x3dfae4dd2f19da33U, 0x603d30ff1cd0528U, 0x48e90a0245453d2cU,
  0xd8c9edfb183dfc22U, 0x18eed5f3293a3526U, 0x4614ebfcd515e527U, 0x23cdadc401408dbU,
  0xfffffff0ffffffb2U, 0xffffffa8ffffffbeU, 0xffffffa4fffffff8U, 0x20ffffff36U,
  0xffffff69ffffffc1U, 0xabffffffd5U, 0xe7d1155312f513faU, 0x6e1edd1d2cce3b7fU,
  0xa40bf2bf2242abd0U, 0x1111fdbab4f013b4U, 0xd1121229df110c06U, 0xc2790de89e463b10U,
  0x2e458dcde37ff4ceU, 0x2ecfcffe37f3e9baU, 0xfba7123428bcf50fU, 0x41be1510009b2257U,
  0x17e6d9bc4b1f8112U, 0x27f308a453bdded7U, 0xa0325ef9bce71bf4U, 0x103c3537964649fdU,
  0xff4ec2de238fbf0U, 0x3b3f1e3d0a120d10U, 0xbab82503f4eb4328U, 0xc8eab18190f90ac5U,
  0x1ce3d814f9ebbce7U, 0x332308327c0cee3bU, 0x3ac50df404bedbddU, 0xdf0c8034db80dfaU,
  0x2ee381fcf11496e3U, 0x1e3640232fe73b3aU, 0xc945f4fcc8545ef4U, 0x1ae0037eef3ef23U,
  0x1097fefc32b812f3U, 0x69f5f0e261be13ceU, 0x72fcced67f1df2cfU, 0x133012f5391d34cfU,
  0xa14ff1ef9ffeb23U, 0x1bd8f82023f61d31U, 0x10805e725090712U, 0xccf30381fc0202a1U,
  0xfb03f023e5e116d3U, 0xfde8ea446aaa2518U, 0xad38b2e3134f815fU, 0xe8203c90ca0cee9eU,
  0x21d8210a5bc850c9U, 0xe51dfd5e0efc0c08U, 0x360543f430bd110bU, 0xcd3c46eded0f65d9U,
  0xdc4c991bc37ff70fU, 0x10d9fe2233ce87f5U, 0xde702030bb80e2bU, 0x31ca39b4058b7c81U,
  0x6e030ce16ae665faU, 0x78f207fb68d518fbU, 0x408c04048080136U, 0x67c39b3143f9a6ffU,
  0x30c7f32550dfe105U, 0x3dc309226599f613U, 0xcf2837e93a002f19U, 0xc4f3f11881251800U,
  0x1b22ebe6f237e5efU, 0xe9c5f73cf23ccf04U, 0x4b07c36f5a14543U, 0xa7ff7f5f1323fe5U,
  0x3001d002da3dbd8dU, 0xdf40f7e20a00d510U, 0x7f2925e22de4e529U, 0xbcfd00b92c4640c6U,
  0xd6d5faffcbc0f8feU, 0x1af5e50fe6defc25U, 0xd4603052f180f1dU, 0xb11fa06eed4f8fbU,
  0xb048e6dcd032fafbU, 0xa90cc905ae16e6e5U, 0x38c8fe0ce3dcfef6U, 0x7f11ee227ae90930U,
  0x1c90e1a1ec57f28U, 0xeff897c900149d37U, 0x1f35e7e93417e0f7U, 0xf10cf199fa3f44adU,
  0xb2e10c67a92159efU, 0xe2210e1123ee712U, 0x3f2ee2b6e461c1d9U, 0xf4f4ec29270be7c9U,
  0x9dcd1a41b5aa34f1U, 0xe0d87f3d93e73f26U, 0xfdea302ddce2f8f7U, 0x3933abca77221afbU,
  0x99db240b81eee10aU, 0x1c0afc02370e0000U, 0xaff10140ff9f1f2U, 0xf6700e043112f4dcU,
  0x7154f280b401c0dU, 0xc197032fb156d0aU, 0xa1c7be19abba13fdU, 0xcd93a73581d2ca01U,
  0x2bd10c196ed1cf0fU, 0x8a284afbb9f52b03U, 0xa94730918f7f56ceU, 0xff3fe3d10247f0deU,
  0x18d6d51e0efde421U, 0x182be82822fc0529U, 0xf35df2dbfd4be1f5U, 0x81d62905b620f922U,
  0xf6f640d4c0ca4f0eU, 0xedcffcd7f9d8fd0eU, 0xc4928dd2a395dfcU, 0x12ede7c2fdf92eacU,
  0x72ff6d205fa20d0U, 0xdd1ff134e70af329U, 0xd0f4f168b005f47fU, 0x45f02b8814413abU,
  0x7c210ddc6119fcd7U, 0x10f508226de4e4f5U, 0xcac402440482f240U, 0x3f960221f4b4fa50U,
  0xa2de0cf4e00ee3d1U, 0xb9d20f0781c60927U, 0xef07edb9f1e414feU, 0xec5b1af4eb3c02ceU,
  0xefe43b24e52b300fU, 0x3ec04f9f0fe14f8U, 0x5031e8193dd82b1aU, 0x81e5d3fae644be0cU,
  0x35fb11c6c9b622d7U, 0x102041635351a11U, 0x1b0201c547a4fcd5U, 0x1735bf8df512f1bU,
  0x105b15d909716de4U, 0xc59de501a7200c07U, 0x69b7a704d4818c18U, 0x44c60bfd7fc91221U,
  0xef0bf7cc38e308f1U, 0xe21ad3c0da18fec1U, 0x221f2dff916d9caU, 0x1610f8201232ecd4U,
  0x2d363a00794e1a07U, 0xfc06402ffb0f34f5U, 0x8326de548103244dU, 0xdd17df209bfdb544U,
  0x64832bdbf2a7d017U, 0xfdf509e9f6321114U, 0x298f33d7f0ba1b11U, 0x193aa6f55cb72ca4U,
  0xf6fccdff087f9e2bU, 0xe61c402114d53b09U, 0xae1f1e621def9f6U, 0x30de29ce18f504e6U,
  0x3fcf16cf38cc2cf1U, 0xcc35d125e816ea00U, 0xc13ffe348139f54dU, 0x9b501cd281261be2U,
  0x13f401d2021a05c3U, 0x2dfbed0d0bf6faefU, 0x48f4061133e2fd00U, 0x4de9052439ecff14U,
  0x4531e8c6cefb12bbU, 0xbe08cccfff33cccfU, 0xeaeaeb73a6d5d14dU, 0x7f02542968f8f15eU,
  0x1ffe1da81ced53d3U, 0x7b38e6fb62503000U, 0x4417faa73976e1c0U, 0xb1edf703c936f3dcU,
  0x879d220e81bb0e30U, 0xe1ec3e8bfca332cU, 0xf1ef2f3f958d410U, 0x14bfdd0ac4adebe5U,
  0x24bf05441ba3003cU, 0x48f8e9e527070413U, 0x7fed1bae40fb23b8U, 0x514f2b917ec4bc6U,
  0x7fc71b006ca118e7U, 0x411ed42b51eee0fdU, 0xd36cf50ff746cb18U, 0xd402fb0d903ec71dU,
  0xf3c9227131f85739U, 0xe40f0131f5daef31U, 0xdd1cc1051518ce1fU, 0xf9ef10a0ec1bf9deU,
  0x14402db412101d81U, 0xf0fdf008d2c3ba25U, 0x560c24b23ae60de5U, 0x3536fcb77f0119e4U,
  0xd321afc192ffce6U, 0xe1201c5e73d35cdU, 0xc0c41abab9ec01c2U, 0xf823ffd4bb090f9bU,
  0x35eacb60db4bdc7fU, 0x15e912ec40ba072aU, 0xcf40141f02ef2114U, 0xab81f458bfcad72eU,
  0xbcb2d40cb4d4dd0dU, 0x3ed8dc0c0df6ddfcU, 0x51df1ef04dfe00dbU, 0x20472cf32537fcedU,
  0x147ce141b77fde2dU, 0x26e51482f68614bU, 0x13311034fe506b59U, 0x9eae5e628110ff2U,
  0xe2abfe8b12efe89bU, 0x22c243030ec53b20U, 0xfd0340d835d51bdaU, 0xc32ff303c3f1fa1cU,
  0xe613c404c50ccb26U, 0x7f3395e01e0abbfcU, 0xff0f8d4e6a5e30bU, 0x7f34f0e64af6f3e8U,
  0x611f02f96129f1f1U, 0xf6315e090e4124cfU, 0x83c4fff08d124befU, 0x29fe00a146d8d9f6U,
  0xe27f47ac67472eddU, 0xc2061409ce3730b8U, 0xc0c9df54d1c2ec7fU, 0xe316e306e8cc0d0aU,
  0xbc2a38ddff50721bU, 0x8109cc0b87144d05U, 0x12e6e8f0b5d8f827U, 0x4a02d7f848f4dce6U,
  0x706fbf935db300cU, 0xf5e8fc03a4e10803U, 0x5d2201e3111cf40cU, 0x7f3cf4d75b3503feU,
  0xf6f1121c261d0603U, 0x90d2f8efe3e0fcf5U, 0x25f3e9f2f8eb0fd4U, 0xbfe0d8fc3906f0fbU,
  0xaff806fe81def0f2U, 0x2f1b1915f620331aU, 0x29f3f73a21140646U, 0x2323ebf6133f22ddU,
  0x37b0e01c2cdee50aU, 0xf1b11c353081122bU, 0xba360ae1d8101ff6U, 0xe439e7ebd53612eaU,
  0x1c281811082c1417U, 0x2a31320c09200e1cU, 0x4202c6f84df32afbU, 0x97b700fcfedc81f8U,
  0xc8e80adca4bbfcdfU, 0xf30701f1e5dae43eU, 0xf9a7702fdfd45f02U, 0x5e14b0342f8b1205U,
  0x1f1b812a483ba6d9U, 0xdc3034f4db2fd3f2U, 0x33f18f403f735f6U, 0x2145b8e5133ce306U,
  0x758102f562ccc825U, 0xb2d53f082abc4c05U, 0xdfebe8e396d9fe26U, 0x1bf3ed0218e716ffU,
  0x9b1df607f10ae7deU, 0xda0f0b1f81141109U, 0x50effdfc14fc2301U, 0x3bf6fc0945f004e9U,
  0x1dd5f5ca4d23e4b8U, 0xe581002905dffbf3U, 0xffe3fd1ee6af0632U, 0xe8610f25e5242225U,
  0x2a110905ef53322cU, 0xa0c264816211efaU, 0x1ddcc7deffeded20U, 0xa35dcd831fdccd3U,
  0xd1161f2eac350c0eU, 0x18811ee4ecd02817U, 0xe7b9f614c7cc0d1cU, 0xc06f2f3e4ebdbd8U,
  0xfd7f1ae92b6b09c8U, 0xc122b09f83b3102U, 0xfc4dc163ee9002dU, 0xf40b099ccce12681U,
  0x3b46dce031f615efU, 0x671f16f8622ff5cbU, 0x133fdc185a63c4daU, 0xdbfb0e41281fa2f3U,
  0xf85122e62318210fU, 0xddfef644aa23fdf8U, 0xdee9cc02a012ad35U, 0x7ff609eb55d50d03U,
  0x5205f7ec23e307baU, 0xaaf6ef4be6190321U, 0xd5c8f4fb8fe5022aU, 0x7f1300c715e5fdd9U,
  0x2a2803ef71400109U, 0xcfebfc1f050907e9U, 0xe5f8effeea14ccf4U, 0x57fbcfdcf5adb01U,
  0xea18fb0b0551b63dU, 0xf8ba3fe62bc932d4U, 0x1fd733ec2ea67ccbU, 0x9d3720479fd7e632U,
  0x4e59545dfc454c51U, 0x13afbcae7ff035b3U, 0xcbcfefef33908acaU, 0x222ef02d7ff25dcU,
  0x983c03058145eff4U, 0x1124e9efe244fd0dU, 0x49c821f934eb0306U, 0x34df1f1b45d02d02U,
  0x3500fcea2c12fdfeU, 0x41d8c2f3663e138dU, 0x38fdb6a97fe59994U, 0x9b54d504034dcedcU,
  0xb7152d5e856f332eU, 0xbfcf2373e3ce5076U, 0x49f0ebd81708f0f3U, 0x5416dcd352eaf6c8U,
  0xebd40ef622edee04U, 0xadcc2c2fbad2533cU, 0xb3c6080f81c10a33U, 0x390bbe5015e6b04fU,
  0x1f28ec22ef07de44U, 0x26df1dad440d2cbbU, 0x45bf1ba311d91781U, 0x3c1410d5142100a2U,
  0xe1240512f31327ecU, 0x14cd041c030d01f2U, 0x1f81f62d07b4c92fU, 0x3ef30f024ccf0722U,
  0x4bee0bed5ac8080cU, 0xbdfaff11b0d61d05U, 0xc365830bc4b4c13U, 0x7f4edde37a791403U,
  0x251ba7d5602dbbc2U, 0x26f9eb09180ed4c9U, 0xfffffe5dffffff5cU, 0xfffffc8400000091U,
  0x2affffffb2U, 0xfffffeba0000004aU, 0x14fffffec4U, 0x6900000088U,
  0xfffffe04ffffffebU, 0xffffff55ffffff62U, 0xeafffffe89U, 0x1efffffe3fU,
  0x12a00000037U, 0x2700000051U, 0xfffffe300000013bU, 0xffffffb9ffffff9cU,
  0x91fffffe82U, 0xffffff59ffffffceU, 0xfffffd0300000045U, 0x1fdffffffa7U,
  0xfffffec2ffffffffU, 0xfffffe8a0000059bU, 0x9fffffe8aU, 0x430000019eU,
  0xccfffffff9U, 0xfffffe6afffffe03U, 0x50ffffff71U, 0xffffff5500000034U,
  0xfffffc9e0000008cU, 0xffffff1ffffffd3dU, 0xad00000026U, 0xfffffe3cffffff8cU,
  0x108000000e8U, 0xfffffeadffffffa2U, 0x813b0fdebc1efe2aU, 0x9ad8abc681a001c8U,
  0x8e16d1b420c161edU, 0xb003027fd6811ecbU, 0xc97fdd237c34f836U, 0xa1bd3f7e1df7ae4U,
  0xc9f7d824f0dfed7fU, 0xc1eef8ccd6e6b77fU, 0xf5258135bd8af3a8U, 0x62d72bd3b9a8cb7fU,
  0xfd005b8a4e708135U, 0xcd7fbf7ce4e2c44dU, 0xbf3cba36cd95d8f9U, 0x81d92db97fbc1900U,
  0xb7ea2d2db53ddb6aU, 0x1adff3f5f381f231U, 0x43dbf7fe1af20d7U, 0x227f9db479d806b0U,
  0x774a22c04a4d14d2U, 0xde81e7338d121681U, 0x7fb3257de73699e2U, 0xb07f1edbd324bc02U,
  0xdf81641d9efe87eU, 0xeb08f581e71da9eaU, 0xf32d812ecaa823ccU, 0xcbe07ffddad6f113U,
  0xf934e6ded87f0fdfU, 0xd500811de3e819c2U, 0xd401ba75d0e754b8U, 0xafab13b42f2a81e6U,
  0x2e4b6004bfc881f5U, 0xb8395cdb81cd0143U, 0x1c0add7f3e07d8d4U, 0x3bf418eb7f15f0ceU,
  0x45bdbcce7f15be78U, 0xfcbee3cd8b34d081U, 0x1c7fbd17e0c40ae9U, 0xfbe9f9557ff7f2U,
  0xff2e81f71be6edeeU, 0xf2ea88f5fc0963c2U, 0x8ae1eda6bef84481U, 0x9cf6f721eb7f12eeU,
  0xecfbf5817a0faf2aU, 0xf6990c0181fe05bbU, 0x7f01e51edce916baU, 0xf805074bd6052bd4U,
  0xf17fc51944962081U, 0x1fd6ced8f17fab4eU, 0xdd23a9071611fef9U, 0x7f03fbbf1ae50781U,
  0x50c0fd970c05e9c0U, 0xb2c78711e5947fe5U, 0xbcd503c632b28112U, 0x7fd0b108c996a5d6U,
  0x28017f04259a01d1U, 0xec937616d081122eU, 0x86d4fb8bc1222028U, 0xd3f4ad1104bf7f14U,
  0xbc25b1b2290b027fU, 0x819c3fc307017feeU, 0x433814f21eeffd05U, 0x77d7929be6747fbaU,
  0x69239b50da8c810aU, 0xcf100cf6267ffa30U, 0x9d814b50ad8248a1U, 0x50de7f03f9f34605U,
  0xfee6f9f3c9d303c4U, 0x51b620e081f5049eU, 0x3d038196ecfc81fbU, 0xddb755b62d27cc9cU,
  0xddcfeefd7fdbd1e5U, 0xb8f30e504de17fdeU, 0x6bf000001d5U, 0xffffffda00000283U,
  0xffffff5200000165U, 0x5e60000011aU, 0x7fffffff4U, 0x300000005dU,
  0xb50000003fU, 0x8f000000f5U, 0x1bbffffff6cU, 0x2000000007U,
  0x36c000000c6U, 0xfffffe49ffffff82U, 0x15a000001c0U, 0xffffffed000002d3U,
  0xf00000014U, 0x38f0000005cU, 0xffffff05ffffff15U, 0x26f000000a1U,
  0x37c0000011bU, 0x24400000366U, 0xffffffb0fffffff8U, 0x168ffffff6bU,
  0x1090000002fU, 0x5d600000504U, 0xa2ffffff65U, 0x20000012eU,
  0xaa0000016bU, 0x44ffffffbaU, 0x15a000000aeU, 0x2b700000008U,
  0x31700000210U, 0xfffffff600000186U,
};


ai_handle g_network_weights_table[1 + 2] = {
  AI_HANDLE_PTR(AI_MAGIC_MARKER),
  AI_HANDLE_PTR(s_network_weights_array_u64),
  AI_HANDLE_PTR(AI_MAGIC_MARKER),
};

